#version: 0.2
Ġ ì
Ġ Ġ
Ġ ë
ì Ŀ
í ķ
ë ĭ
Ġ ê
ĠĠ ĠĠ
Ġ t
ì Ĺ
i n
ìĿ ´
Ġ a
ë Ĭ
e r
ê ³
ëĭ ¤
o n
ëĬ Ķ
ê °
Ġ í
h e
r e
ì Ħ
ì §
a t
ìĹ Ĳ
íķ ĺ
ì ł
ì ŀ
ì ļ
ê³ ł
ìĿ Ħ
ë ¡
e n
o r
Ġì ŀ
Ġ s
ì ĭ
Ġt he
ë ı
ì ķ
ê ¸
Ġ c
ë¡ ľ
ë ¦
e s
ê° Ģ
ê ²
ì§ Ģ
i t
Ġì Ŀ
ìĿ ĺ
a l
i s
ì ĸ
íķ ľ
ë ¥
a n
ìĦ ľ
ì ľ
Ī ëĭ¤
ë §
ë ĵ
Ġ w
o u
a r
ë Ĥ
i on
ìĿ Ģ
ëı Ħ
Ġ f
l e
ĠĠ Ġ
Ġì ķ
ì Ĭ
Ġì ł
Ġ p
ê¸ °
in g
Ĥ ¬
Ġê °
ìĸ ´
Ġ o
ĠĠĠĠ ĠĠĠĠ
ë¦ ¬
e d
Ġ b
Ġë §
n d
ìļ Ķ
ë¥ ¼
i c
ë ©
íķ ´
Ġë °
ê µ
a s
Ġ m
ë Ŀ
Ġ in
Ī ĺ
Ġ d
ë ł
r o
e t
Į Ģ
ëĿ ¼
· ¸
ìľ ¼
Ġt o
ë į
c t
Ġo f
ìĭ ľ
³ ´
ĠìĿ ´
Ġì Ĺ
Ġê ²
ëĭ Īëĭ¤
ì Ľ
ë °
ë ¬
Ġì ĭ
ë ¶
Ġa nd
ë ŀ
ê² Į
Ġë Ĥ
£ ¼
ìĿ ¸
en t
ì ĥ
ì ĺ
ìķ Ħ
e l
s t
ëĤ ĺ
Ġìŀ Ī
ëĵ ¤
Ġt h
ìĬ ¤
Ġì §
Ġë ĭ
Ġ h
ë© ´
Ċ Ċ
o m
Ġê ³
ë Ł
ìŀ Ĳ
Ġì ĺ
Ġ n
Ġ re
i l
a m
ìľ¼ ë¡ľ
ì Ĥ¬
Ġì Ħ
ì ²
Ġì Ĥ¬
Ġ íķĺ
i g
í ĸ
i d
Ġê ·¸
ë§ Į
Ġ l
Ġ e
ì ¹
i m
ë ²
a c
Ġ (
ê³ ¼
Ġì Īĺ
í Ļ
Ġ \
at ion
Ġì ĥ
ĠĠĠĠ ĠĠĠ
Ġê ¸
ìŀ ¥
Ġë ª
Ġë ¶
o t
ì £¼
Ġ $
ìĹĲ ìĦľ
Ġê° Ģ
Ġìķ Ħ
ì Ļ
ê ±
o l
ë ĮĢ
ìł ķ
í ĺ
ì Ĩ
ëĭ Ī
s e
Ġ =
ë ª
Ġ is
ë ³´
ìĽ Ĳ
ëį °
Ġë ĵ
v e
ìĿ ¼
* *
Ġ íķ
êµ ¬
u r
u t
¹ Ħ
Ġ T
Ġ g
í Ĭ
í ĥ
ë¶ Ģ
ë Ĳ
ìĥ ģ
ì Īĺ
ì °
ë ħ
Ġì ĸ
Ġ S
Ġì ľ
o d
a d
Ġê² ĥ
u l
ĉ ĉ
i f
Ġf or
ìł ľ
c e
Ġ I
Ġë ³´
ë ³
o w
ìĬ µ
v er
ê ¹
Ġ y
Ġê µ
0 0
Ġë ı
Ġ <
ìł ģ
a g
Ġë ĮĢ
íĬ ¸
Ġë ¬
ìļ ©
t r
a y
ë ¯
¡ °
Ġê¸ °
Ġëĭ ¤
Ġ C
¤ ĳ
Ġ u
Ġ íķľ
a b
ìĦ ±
ou r
ëĵ ľ
ìł Ħ
) ;
ìĹ ¬
Ġì ļ
l y
Ġìĭ ľ
Ġ A
Ġb e
ëı Ļ
Ġ on
â Ģ
t h
ĠëĤ ĺ
Ġì§ Ģ
q u
Ġ {
it h
- -
Ġì °
ìĻ Ģ
c h
ê ·¸
= "
Ġì Ĩ
p e
Ġ "
ì Ĥ
Ġë Ĳ
at e
ë¬ ¸
t er
ëŁ ¬
Ġì ¢
u m
´ Ģ
ìĬµ ëĭĪëĭ¤
íķĺ ëĬĶ
e m
ë Ħ
ê° Ħ
í Ķ
Ġìŀ Ĳ
ìķ ¼
Ġê ±
Ġìł Ħ
Ġ '
í Į
íĻ Ķ
č Ċ
ë¬ ´
ìĭ ł
Ġ v
ë £
ìļ °
ìĦ ¸
ê± °
ì¹ ĺ
ê¹ Į
Ġìł ķ
Ġth at
Ġc on
Ġí Ļ
ì§ Ħ
a p
h t
Ġì £¼
íķĺ ê³ł
/ /
Ġìł ľ
< /
Ġs t
í Ħ
ë§ Ī
ë ¹Ħ
ëł ¤
ë¶ Ħ
ìŀ ħ
ìĨ Į
2 0
e x
es t
i r
Ġw ith
ì ¶
ķ Į
u n
ìĿ Į
ct ion
ĠĠĠĠĠĠĠĠ ĠĠĠ
êµ Ń
Ġ *
ìĺ ¤
es s
o c
í ļ
en d
íĦ °
ìĹ Ī
Ġp ro
Ġ M
í ŀ
Ġëª ¨
as s
Ġí ĺ
Ġa s
i v
ëŀ ĺ
íķ ł
Ġë ³
Ġ P
p t
ëĬĶ ëį°
Ġa l
Ġë į
í ģ
ë© °
í ı
Ġìĸ ´
Ġa n
Ġë¶ Ģ
í Ĩ
ìĤ °
_ {
ã ħ
re s
ëĲ ĺ
Ġë Ħ
Ġì ²
ĠìĿ ¼
Ġë§ Ī
er s
. .
Ġìĺ ¤
Ġ íķ´
ìĹ ħ
Ġ it
u s
íŀ Ī
e w
ĠìĹ Ĩ
ëħ Ħ
ë¯ ¸
ìĭ Ŀ
ê¸ Ī
ì ¦
ĠëĤ ´
Ġw h
ĠìĿ ¸
Ġìķ Ĭ
Ġì ¶
Ġë ²
Ġ B
ìĭ ¤
Ġ }
am e
Ġìĥ ģ
Ġì¢ ĭ
an d
ìļ ´
Ľ Ħ
íĸ ī
Ġì Ļ
p l
Ġe x
ĳ Ĳ
Ġìľ Ħ
Ġa re
ëĤ ´
a in
Ġì ¹
Ġìĥ Ŀ
Ġy ou
ë¬ ¼
Ġí ĸ
ì§Ģ ë§Į
at h
is t
or t
Ġ or
íļ Į
Ġì ¤ĳ
Ġë° Ķ
u b
ê ·
ë¥ ´
ê³ µ
ê³ Ħ
ê° ľ
Ġê³ ł
Ġìķ Ī
Ġì Ĥ
ì ¡°
Ġì Ĭ
k e
ag e
ëª ħ
u e
ĠìŀĪ ëĬĶ
Ġc om
Ġê² ½
Ġ -
ìķ Ī
o re
Ġ :
ou t
ê² ½
Ġ F
Ġ D
í Ĵ
ĠìĨ Į
Ġ r
o s
Ġd e
Ġë ¨
ë Ķ
o p
il l
ìľ ł
er e
ĠëĲ ĺ
ĠìĹ ¬
Ġë§ Į
Ġth is
Ġc l
ìĥ Ŀ
Ġìŀ Īëĭ¤
ëį ĺ
ì ħ
Ġê³ µ
m ent
ì° ¨
it y
Ġë ¯
r i
in e
ëĭ ¨
Ġí ı
e ct
ìĿ´ ëĭ¤
ê° ģ
ig ht
Ġw e
Ġë§ İ
Ġë ķĮ
Ġëĵ ±
Ġê° Ļ
Ġë Ķ
ìľ Ħ
íķ Ļ
Ġí Į
Ġ R
Ġ W
Ġ L
ìĸ´ ìļĶ
" >
ar t
! !
ìĦ ł
Ġì Ľ
u re
ro m
© ëĭĪëĭ¤
í İ
Ġë§ Ĳ
Ġ H
Ġ &
ì² ´
ê ´Ģ
ëį Ķ
ĠĠĠĠĠĠĠĠ ĠĠĠĠĠĠĠĠ
Ġë ¹Ħ
íĥ Ģ
íķĺ ê²Į
1 0
n t
Ġì ¡°
ëĦ ¤
p er
ĠT he
ëŀ Į
e g
{ \
ĠĠĠĠ Ġ
Ġìľ ł
Ġêµ ¬
ì Ī
Ġí Ķ
ìĿ´ ëĿ¼
ë° ©
i z
ab le
ì ¤ĳ
ìł Ģ
ìĹ °
ëĭ ¹
íĴ Ī
( )
ìŀ Ī
Ġ E
Ġa t
an t
íģ ¬
Ġ N
ex t
ur n
í ħ
ì ¤
ë§ ¤
êµ Ĳ
ëĵ¤ ìĿ´
Ġí ĥ
ê± ´
âĢ Ļ
ìŀħ ëĭĪëĭ¤
Ġìĭ ł
Ġëĵ ¤
ë² Ī
ìŀ ¬
ì ¡
ìĸ ĳ
Ġ G
i al
i ve
Ġb y
o g
ìķ ĺ
Ġë¬ ´
Ġëį Ķ
ëł ¥
ac k
Ġí Ĩ
c l
ìĽ Ķ
a ve
ìĺ ģ
Ġìļ °
íĺ ¸
al l
Ġt r
ëĭ ĺ
íĸ Ī
ul t
i es
Ġs e
l d
20 1
ìĭ ¬
Ġ$ \
ëª ¨
p ort
ĠìĹ °
íĸ Īëĭ¤
Ġë¶ Ħ
ĠìĬ ¤
ëĲ ľ
Ġê ´Ģ
Ġ if
ìł Ĳ
ê »
Ġê± °
i b
d e
re f
g e
Ġëı Ħ
ëł Ī
Ġë¨ ¹
ê² ł
ìĹ Īëĭ¤
Ġf rom
í Ĺ
Ġê ¹
c on
ìŀ ĳ
Ġë¯ ¸
ĠìĦ ł
Ġc an
a v
ìĹ Ń
it e
ëŀ ĳ
ê¹Į ì§Ģ
Ġë° ©
** *
a ct
ë¥ ¸
Ġìł Ģ
ì ¢
s p
Ġs h
Ġë Ĭ
ĳ ľ
or m
µ ľ
Ġn ot
ë£ Į
Ġc h
ëŁ °
y pe
½ Ķ
u st
Ġì§ Ħ
Ġìĺ Ī
t urn
ì² ľ
ëĬ ¥
in d
Ġ O
í ĭ
Ġìķ Į
an s
ĠìĿ ĺ
-- --
f f
ĠìĦ ¸
m ath
Ġë ħ
ĺ Ĳ
= =
Ġë Ĩ
g et
c om
í Ĥ
Ġ he
ìĹĲ ê²Į
Ġë ©
ë§ Ĳ
in t
r ou
Ġê ·
ë©´ ìĦľ
Ġëı Ļ
ë£ ¨
Ġí ģ
od e
ë ĳĲ
ë² ķ
ìĺ Ģ
Ġh ave
Ġcl ass
Ġë° ľ
Ġìĺ ģ
as e
i le
ëĶ Ķ
íķ´ ìĦľ
Ġìŀ ħ
ĠìĦ ľ
) ,
a re
Ġy our
ë ¨
Ġìŀ ĺ
Ġ /
ê² ĥ
ë¦¬ ê³ł
Ġë ¹
ë ¸
ë¡ Ŀ
ìĹĲ ëĬĶ
íĶ Ħ
ë¯ ¼
Ġê° ľ
ëĵ ł
1 9
ĠìĤ¬ ëŀĮ
i p
ë° Ķ
Ġu s
ì Ķ
Ġ le
´ Ī
ac e
el l
ê² ©
ì² ĺ
íĨ µ
ìļ ¸
o o
ëĤ ľ
ë° ľ
ì§ ĳ
ê° Ĳ
íĮ Į
ëĭ¤ ê³ł
ìŀ Ħ
ê» ĺ
ë² Ħ
íķĺ ìĹ¬
ìĨ į
p ro
m a
ë° ĺ
id e
ëł ĩ
im e
Ġs u
p h
pt ion
íĶ ¼
ĠíĨ µ
ar d
o st
ic e
ĠìĦ ±
ì² Ń
ë ¹
Ġí Ĭ
íı ¬
ì§ ģ
í ĽĦ
ĠìĥĿ ê°ģ
ig n
Ġë¬ ¸
ëĭ¤ ëĬĶ
Ġìŀ ¥
ì £
ì§ Ī
ë¦ Ħ
ë ĥ
Ġíķ ł
Ġw ill
it ion
Ġë§ ¤
ë³ ¸
ĠëĶ °
ì ¸
} \
at a
Ġìĭ ¤
ì¹ ´
) .
Ġí ĽĦ
Ġal l
Ġë Ī
ë¦ °
Ġw as
f t
ë ģ
a k
Ġë° Ľ
st r
ì¶ ľ
íĺ ķ
i re
ìĽ Į
at ed
ĠĠĠĠĠĠĠĠ ĠĠĠĠĠĠĠ
Ġcom p
Ġ [
Â ·
ìĸ´ ìĦľ
as t
Ġí İ
} $
¶ Į
ìłģ ìĿ¸
u d
Ġê³ Ħ
ĠìĽ Ĳ
t o
Ġì ¤
Ġ j
^ {
or k
Ġì µľ
í Ŀ
ì ¼
Ġí ļ
j ect
Ġì° ¨
Ġê° Ĳ
I n
ë ´
ĠëĤ ¨
Ġë§ Ľ
Ġë¬ ¼
ìĦ¸ ìļĶ
1 2
Ġ +
T he
Ġë¶ Ī
ĠëĦ Ī
ou ld
ë¶Ģ íĦ°
Ġ Ċ
ê° ķ
ëĬ ĺ
ê· ¼
ìĦ Ŀ
Ġë ĺĲ
ì¤ Ģ
or d
c c
ãħ ł
en s
Ġ k
Ġì Ī
Ġê° ķ
Ġ im
al ue
Ġì¶ Ķ
Ġì ¦
an g
Ġ //
Ġ U
ic h
ar y
Ġë° °
un ction
t ext
ic al
Ġa b
ìķ ½
l i
Ġì ±
Ġìŀ ĳ
f orm
Ġa d
íķĺ ê¸°
Ġê± ´
Ġìŀ ¬
Ġíı ¬
Ġë° ĺ
p s
Ġre turn
íĨ ł
Ġre s
Ġêµ Ń
ë ĸ
ëĦ¤ ìļĶ
ìłģ ìľ¼ë¡ľ
b er
íķ ¨
Ġëª »
ĠT h
í ĳľ
an ce
ì¢ ħ
ë ķĮ
Ġê² °
ìĦ ¤
Ġêµ Ĳ
2 00
on e
íķľ ëĭ¤
- >
íĹ ĺ
Ġp l
íĭ °
Ġë ĳĲ
ê¸ ī
en ce
Ġìĺ ¬
íĺ Ħ
ĠìķĦ ëĭĪ
Ģ ìĿ´
Ī ¬
íķ ©ëĭĪëĭ¤
ëĿ¼ ê³ł
ì »
ë³ µ
s er
ëĵ ±
^ ^
Ġìł ģ
on g
Ġ #
Ġí Ŀ
l ic
ĉĉ ĉĉ
Ġn ew
ì¦ Ī
Ġëħ ¸
ë¦ ¼
ĠìĤ ´
ìĪ ł
ã ģ
ac h
Ġìļ Ķ
íĥ ľ
ì ±
he n
ation s
f r
Ġë° ı
ĠíĻ ķ
Ġ .
íĤ ¤
Ġíĺ Ħ
Ġd o
Ġëĭ ¨
Ġa p
ëłĩ ê²Į
Ġh as
d u
tr ing
1 1
´ ĳ
ëĭ ¬
Ġ J
ĠìŀĪ ìĬµëĭĪëĭ¤
ĠìĤ¬ ìļ©
om e
ìł ¸
ë° °
} }
ì¦ Ŀ
Ġíķ ¨
ĠíĶ ¼
Ġn e
: :
ëĤ ł
íħ Į
Ġë ģ
ëĤ ¨
ì£ ł
ëĵ¤ ìĿĢ
c al
ro w
Ġ en
Ġëĵ¤ ìĸ´
f er
ìĺ Ī
ì ½Ķ
ê ¶Į
3 0
ëĭ µ
Ġìļ° ë¦¬
ar am
Ġì »
p le
ĠI n
ëŀ Ģ
Ġ @
C on
( \
ëŁ ī
Ġíķĺ ëĬĶ
Ġ< /
ĠìĦ ¤
th er
ĠëĬ Ĳ
ĠëķĮ ë¬¸
our ce
Ġëĭ ¹
s o
Ġì° ¸
Ġíķĺ ëĤĺ
ê² °
o b
ëŁ ¼
t a
oc k
ê¸ ¸
ìł Ī
Ġ âĢ
e qu
Ġ K
Ġëĵ ľ
Ġd is
iz e
Ġm e
Ġ V
Ġì§ ĳ
res s
ent s
eg in
ì¡ ±
s et
Ġíķ Ħ
Ġcon t
íĥ Ŀ
Ġ out
Ġëĭ ¬
.. /
ëĦ Ī
Ġwh ich
Ġê²ĥ ìĿ´
il d
ĠëĦĪ ë¬´
l l
el f
1 5
oo k
b egin
ou s
ìľ ¡
ub lic
êµ °
a ke
ã Ģ
íİ ĺ
ĠíĬ ¹
Ġë§İ ìĿ´
" ,
Ġìĭ ¶
f ig
íķ ©
Ġa r
íİ ¸
ul l
Ġê²½ ìļ°
ĠëĮĢ íķľ
ëª ©
Ġg et
Ġê³ ¼
S t
ĠíĮ Į
a il
Ġ qu
ì¶ Ķ
êµ¬ ìļĶ
' ,
ëĭ ´
Ġu n
c ri
Ġíĸ Ī
Ġu p
ë¦ ½
íķĺ ì§Ģ
Ġp r
Ġs o
ë Ĩ
ê¸° ë¥¼
Ġg o
ë¡ ł
ĠìķĦ ìĿ´
ĠíĻ Ķ
ëħ ¸
Ġon e
Ġb ut
ìĺ ¨
' s
Ġíķĺ ê³ł
or y
m l
e ar
ìĻ ¸
Ġ our
íĸ ¥
ëł ¨
ìĿ´ ëĤĺ
u al
Ġì¶ ľ
ë³ Ħ
) $
ë¥ ĺ
Ġê° Ħ
íĮ Ĳ
ìĥ ī
íķ Ń
ë° ķ
re e
Ġ â
g h
( "
Ġíķ Ļ
p ut
_{ \
ĠìĹ ´
ver y
ow n
ë³´ ëĭ¤
Ġf unction
( );
t e
ëĵ¤ ìĿĺ
ë¦¬ ëĬĶ
} ,
ë¸ Į
00 0
Ġí Ĺ
** **
in k
ab el
· ¨
ì§Ģ ëĬĶ
íĻ ĺ
ĠìĹ Ń
e f
Ġë ¸
e p
c k
Ġm ore
Ġíĸ ī
Ġí ŀ
Ġì§ ģ
Ġp er
ī ´
ar k
Ġìĸ ĳ
ou nd
et h
ëĵ¤ ìĿĦ
d iv
ì ´Ī
ìĹĲ ëıĦ
or s
u p
Ġíķ¨ ê»ĺ
ìĨ ¡
Ġíķľ ëĭ¤
ëįĶ ëĿ¼
ess age
Ġë ĸ
er v
Ġs p
ª ½
Ġe v
Ġë§ ŀ
i a
íı ī
Ġíİ ¸
ìľ¼ ë©´
el y
ĠëĲ ľ
Ġê³ ³
y st
ion s
ìħ ĺ
ìĸ µ
Ġs et
} {
r ight
ĠëĤ ł
ou nt
Ġì¹ ´
Ġê°Ģ ëĬ¥
Ġìĥ Ī
en er
1 6
---- ----
~ ~
Ġìĸ´ ëĸ
ë Ī
ĠíĶ Ħ
Ġë Ŀ
ĠìĨ Ĳ
i ew
r a
Ġê¹ Ģ
l ow
el d
Ġì¢ĭ ìķĦ
Ġë³ ¸
ëĿ ½
Ġìł Ĳ
Ġë§Į ëĵ¤
Ġíļ Į
pe ct
r ay
Ġì¹ ĺ
Ġìļ ´
Ġì° ¾
c re
ê¸° ëıĦ
l ine
Ġthe ir
Ġo b
Ġin ter
5 0
Ġìĭľ ê°Ħ
o ve
Ġt ime
: //
o se
er r
ëĮĢ ë¡ľ
ol d
ìĭľ ëĬĶ
ê² ¨
Ġê°Ļ ìĿĢ
ë³ Ģ
ĵ °
Ġëı Į
ë§ Ŀ
Ġde f
íķĺ ë©´
Ġp art
Ġí Ĵ
Ġ* /
ĠìĤ °
ìĹ Ĩ
Ġíı ī
Ġin t
1 8
ver s
ot h
íķĺ ëĭ¤
íĶ Į
e q
Ġan y
Ķ ëĭ¤
t p
Ġw ork
i eld
Ġì¢ĭ ìĿĢ
Ġv ar
Ġíģ ¬
c he
ìĭľ ê°Ħ
> </
Ġê± ¸
1 00
íĿ ¬
Ġ Y
ë© Ķ
Ġë ¦
fr ac
pe c
ĠìĹ Ĳ
ĠìĻ ¸
Ġì ´Ī
.. .
ëħ Ģ
Ġëª ©
E x
Ġal so
od el
E R
sp an
e c
Ġthe y
Ġm an
v el
le ct
r y
ĠëĪ Ī
Ġíĥ Ģ
Ġë ´
s um
Ġ !
yst em
1 4
l o
Ġê² Į
Ġì² ĺ
íĻ ©
ëĬ Ĳ
ĠìĿ Į
ic k
ìľ¼ ë©°
ìĶ ¨
Ġë³ Ģ
Ġìĭľ ìŀĳ
Ġì ½Ķ
a u
íĻ ľ
ì ģ
ëĭĪ ê¹Į
ing s
ĠëķĮë¬¸ ìĹĲ
> <
ëĲĺ ìĸ´
íĮ ħ
Ġëĭ¤ ë¥¸
w e
t y
Ġs tr
ìĬ ¹
. "
Ġn ame
Ġë§İ ìĿĢ
ĠìľĦ íķ´
o int
ìħ ¨
ir st
ê¸° ê°Ģ
Ġìķ ŀ
ì ½
Ġìķ ½
Ġìĭ Ŀ
Ġìĭ ¬
ĠìĤ¬ ì§Ħ
Ġm y
ĠìĨ į
ë¨ ¸
Ġp ublic
T h
ê¸° ìĹĲ
1 3
ê ´ĳ
Ġp re
ĉĉ ĉ
) )
Ġì¢ ħ
ì§Ģ ê³ł
le d
ĠëĶ° ëĿ¼
ëĿ¼ ëĬĶ
c ite
ë¸ Ķ
ìħ Ķ
t ain
ì ª½
ì§ ľ
i x
Ġê¸ Ī
ìł ĳ
l abel
ìĿ´ëĿ¼ ê³ł
Ġì ´
ĠìĻ Ħ
ë¶ Ī
ë¨ ¹
t he
ë¦¬ ë¥¼
ìŀĪ ëĬĶ
Ġl i
ĠĠĠĠĠĠĠĠ Ġ
ê¸ Ģ
Ġì¤ Ģ
en c
ĠëĿ ¼
( '
ëĲĺ ëĬĶ
ãħ ĭ
Ġ |
Ġw hen
Ġì¹ ľ
ĠW e
o id
ëıĦ ë¡Ŀ
at es
ĠíĻ ľ
ìķĦ ìļĶ
ap p
Ġíķ ©ëĭĪëĭ¤
ë§ ī
Ġo ver
Ġë© Ķ
ì ´
Ġìłķ ë§Ĳ
ìĹ Ķ
s h
ìĺĢ ëĭ¤
ĠíķĦ ìļĶ
ìĤ ´
== ==
Ġc ol
ë° ±
Ġë§Ī ìĿĮ
Ġíĺ ¸
n e
ĠĠĠĠĠĠĠĠ ĠĠĠĠĠĠĠĠĠĠĠ
ig h
i e
th is
../ ../
Ġad d
Ġë¦ ¬
in al
n ame
Ġëª ħ
Ġab out
ĠëĨ Ĵ
ê° Ļ
ì¹ ¨
et a
į ¼
Ġd es
Ġê ¼
o ver
a x
Ġo ther
P ro
ëł ¹
ìĿ´ ëĬĶ
ìĬ¤ íĬ¸
Ġìĸ ¼
O N
ìĹĲìĦľ ëĬĶ
Ġth ere
ìķĺ ëĭ¤
o v
nd er
o ol
2 5
!! !
Ġì² Ń
Ġ i
I N
ëŀ ľ
ĠìŀĪ ìĹĪ
Ġë Ĵ
Ġìłķ ëıĦ
er m
ì²ĺ ëŁ¼
ĠTh is
ëł ¸
Ġ _
Ġì² ´
re at
p on
ìĸ ¸
ì¸ µ
Ġíŀ ĺ
math b
Ġì¦ Ŀ
ì ³
Ġë°Ķ ë¡ľ
r ap
c ess
Ġê°Ģ ìŀ¥
um ber
Ġë ¡
ìĿ¸ ëį°
p r
le ft
tr ib
Ġ ro
ĠëĪ Ħ
an ge
at or
1 7
N ame
Ġê· ¼
Ġí ĳľ
ĠìŀĲ ìĭł
Ġê° ģ
Ġê·¸ ëŁ°
ay s
ê³ ³
ëı ħ
ë³ ĳ
ë¦¬ ê°Ģ
ì± ħ
ke y
Ġs ome
ì¶ ķ
ëŁ ½
ic t
w o
Ġv alue
í Ī¬
Ġëį °
Ġë² Ħ
Ġë Ń
ĠìĿ´ ìĥģ
Ġu se
ëĵ Ŀ
ìĿ´ ê³ł
r m
ĠëĦ ĺ
â ĸ
Ġd ata
ĠI t
Ġt ype
ht ml
ĠíĮ Ĳ
s s
ë ī´
ic s
ìķĦ ìĦľ
ê¹ Ģ
ì¡ Į
ê± ¸
Ġê²ĥ ìĿ´ëĭ¤
$ .
$ ,
ĠëĬĲ ëĤ
íķĺ ë©°
*** -
, \
p aram
Ġne ed
trib ut
ì° ©
at ch
Ġí Ī¬
ĠìĹ Ħ
o f
ĠìĪ ľ
ì§ ¸
le ment
ê±° ëĤĺ
Ġìĸ ¸
eth od
ë§ Ľ
ì° ½
u ct
i ent
Ġë² Ī
u g
T ype
r am
Ġ )
ë¦ ´
Ġt e
ëĭµ ëĭĪëĭ¤
ìķ ħ
Ġì ī
Ġíķľ êµŃ
ĠëĶ Ķ
ê¸ ´
ĠS t
Ġì¤ Ħ
Ġh ref
Ġì¢ Ģ
ê·¸ ëŀĺ
l es
Ġëĭ ´
s ource
ìķ ł
Ġth an
Ġì§Ħ íĸī
p os
ìĪ ľ
m b
4 0
ĠíĨµ íķ´
ìĽ Ģ
ĠìĹĨ ëĬĶ
} )
Ġa cc
Ġëĭ¤ ìĭľ
ìĺ ¬
Ġê¸ ¸
ê°Ģ ëĬĶ
if ic
ãħł ãħł
Ġë ł
ëĥ ¥
Ġê·¸ ë¦¬ê³ł
l ation
ì¹ ľ
ul ar
ĠC h
rou nd
Ġre qu
ê¸° ëĬĶ
is e
Ġbe en
m essage
Ġê²ĥ ìĿĦ
im port
ter n
ìĿ´ íĬ¸
Ġa g
Ġon ly
equ ation
tr ans
Ġres ult
is h
Ġìĺ ¨
Ġì± ħ
Ġit s
} .
Ġê²ĥ ìĿĢ
ĠíĻ ĺ
Ġpro v
math cal
ìĭľ ë©´
ê° Ī
Ġì ĵ°
ìĥ Ī
R E
Ġë³ ¼
Ġëª¨ ìĬµ
Ġf e
ĠìĿ´ ìļ©
ëĵ ¯
ì° °
Ġì» ¤
Ġn o
Ġd if
c ol
re turn
S T
íķ´ ìķ¼
ar g
į ¨
Ġìłľ íĴĪ
Ġthe m
Ġë¬¸ ìłľ
S tring
at er
d d
Ġk n
rou p
ëįĶëĿ¼ êµ¬ìļĶ
ĠìķĦ ëĭ
Ġwh o
Ġëģ Ŀ
ë¶ ģ
ë° Ľ
Ġcom m
v ent
al se
y s
ê·¸ ë¦¬ê³ł
â Ķ
al ly
¾ ¸
o x
de f
Ġíģ °
Ġb u
Ġëª¨ ëĳĲ
ìĿ´ ìĹĲ
en g
Ġë° ķ
ur re
I d
t d
Ġ ,
v ar
at ic
n ing
Ġê² Ģ
ëĭ¤ ê°Ģ
i o
Ġin to
2 4
Ġl ine
i ed
ac he
Ġy ear
ic es
Ġí ħ
ľ ´
ìķ ¡
ëĬĶëį° ìļĶ
Ġ >
ìĿ´ ì§Ģ
Â· Â·
ì¸ ł
Ġfor m
Ġê²ĥ ìľ¼ë¡ľ
c ode
Ġì± Ħ
ĠìŀĪ ìĸ´
ê°Ģ ì§Ģ
ëłĪ ìĿ´
ì» ¤
20 2
ĠíĨ ł
c o
Ġp os
Ġë¹ ł
Ġre g
Ġb l
Ġ= >
Ġm ay
Ġìŀ Ħ
½ ĥ
ë² ł
ĠëĴ ¤
Ġíĺ ķ
ëĥ Ĳ
im es
į ëĭĪëĭ¤
Ġì £
ĠìŀĪ ìĿĦ
ë ĳ
on t
r it
an c
ìŀĲ ê°Ģ
d er
ìĹ ´
} (
Ġb et
Ġf irst
ì ī
Ġì ¡
il ity
Ġê·¸ ëŁ¬
ib le
Ġs ub
i ous
ìĺ¤ ëĬĺ
Ġì ·¨
al s
Ġt wo
ĠëĲ ł
id th
cri pt
A T
f ter
pl ic
? ?
Ġof f
ĠìĤ¬ ëŀĳ
cl ud
b le
ĠìķĬ ëĬĶ
ê² ¬
Ġíĸ ¥
u es
Ġì¶ ©
c ent
Ġs elf
is s
i an
Ġë³ µ
Ġli ke
_ _
s ub
n g
ì³ Ĳ
ìľ¼ ëĭĪ
Ġì º
a w
Ġw ould
Ġ el
ĠìĿ´ ëłĩê²Į
ã Ĥ
ëĭ¤ ë©´
at ive
} ^
Ġ `
at ing
ì± Ħ
Ġëª¨ ëĵł
čĊ čĊ
Ġìķ ł
Ġì° į
Ġtr ans
ìľ ¨
Ġp h
am b
ph a
ë´ ī
ìĻ Ķ
ê° Ŀ
# #
ëģ ¼
Ġcon st
Ġë¸ Ķ
le t
f o
Ġë² ķ
Ġ end
ëĤĺ ëĬĶ
/ >
Ģ ë¡ľ
íģ ¼
íķ´ ì£¼
Ġw ere
Ġwh ere
Ġê·¸ ëŀĺ
re ad
rap h
~ \
C om
Ġê° Ī
ì ¿
ì¡ ´
ë¡ľ ê·¸
ĠìĿ´ ëŁ°
ĠíĻķ ìĿ¸
ìĿ µ
ìĤ¬ ë¥¼
Ġh ow
Ġthe n
ĠëĬĲëĤ Į
} _
ad e
Ġë³´ ê³ł
Ġíļ ¨
íĬ ¹
on s
ì µľ
Ġ id
ĠëĦ £
Ġh is
íļ į
d a
Ġìŀ ¡
Ġ x
R es
T o
ht tp
it s
âĢ ¦
2 2
ìĭľ ê³ł
u res
Ġì§Ģ ê¸Ī
Ġë¡ ľ
ì§Ģ ë¥¼
a ult
Ġëł Ī
Ġb ack
âĢ Ŀ
W e
ĠìĤ ¼
ĠëĦ ¤
t ype
ce ption
h at
Ġíĸ Īëĭ¤
id er
ĠìķĦëĭĪ ëĿ¼
Ġwh at
er t
ð Ł
Ġëĭ¤ ìĸĳ
Ġp e
Ġin st
Ġì¤Ģ ë¹Ħ
Ġs im
ol low
al pha
ĠìĹ ħ
Ġs pec
Ġc re
y n
Ġthe se
ë ĺĲ
ĠìĹ¬ ëŁ¬
Ġsu p
v al
Ġì¦ Ĳ
Ġìļ ©
t ing
ë³ ¼
Ġsu ch
ad d
Ġj ust
ë§Į ìĽĲ
Ġìł Ī
cl ass
ìĿ´ëĿ¼ ëĬĶ
íķĻ êµĲ
rou gh
Ġì² ľ
it ies
as h
Ġì§ Ī
er y
Ġu nder
ar ch
Ġë ¿
Ġê· Ģ
ê· ¹
ĠìľĦ íķľ
ĠëĤ´ ê°Ģ
o y
" />
ĠëĤĺ ìĺ¤
urre nt
Ġìł ĳ
Ġì§Ģ ëĤľ
b l
Ġì¡° ê¸Ī
e ad
L E
Ġl oc
íķĺ ë©´ìĦľ
íĺ ¼
Ġdif fer
¶ ģ
Ġpro du
í į¼
ìĿ´ ìĹĪ
Ġë² ł
ëĵ¤ ìĹĲê²Į
Ġm ake
Ġo p
Ġê ´ĳ
ì¦ ĺ
au se
Ġê°Ļ ìĿ´
íķĺ ìĦ¸ìļĶ
ĠìŀĪ ìĸ´ìĦľ
Ġre l
Ġs erv
ĠìŀĪ ê³ł
n er
Ġv al
ĠìĿ´ ìķ¼
O R
Ġë°© ë²ķ
Ġìĺ¤ ëĬĺ
Ġcon s
Ġa m
Ġ= =
6 0
ìĦ ¼
n ot
Ġíĥ ľ
ê ¼
íķĺ ì§Ģë§Į
Ġa ct
íĺ Ģ
Ġëĭ¤ ìĿĮ
p end
ë ľ
Ġus ed
Ġë ĳ
ol ut
Ġë¶Ģ ë¶Ħ
ë§ ģ
Ġë ľ
Ġh igh
Ġin d
ĠëĲĺ ìĸ´
ëħ Ĳ
ption s
b ar
2 3
l p
Ġë¨ ¸
L ist
A R
ì° ¬
f ore
ìŀĲ ëĬĶ
â ĳ
el ta
ment s
Ġ err
Ġre m
Ġíķ Ń
a ir
íĻ ķ
trans lation
ê· ľ
ìĿ´ ê°Ģ
Ġn ull
res ent
Ġì° ½
ag es
ê²ł ìĬµëĭĪëĭ¤
Ġìŀ ł
ì² ł
Ġc ase
as ed
ì¤ Ħ
Ġw ell
ë¹ ł
Ġs m
ì¼ Ģ
Ġsh ould
Ġm ost
Ġsh ow
am es
2 1
ou n
ìļ ±
u de
Ġm odel
ëĪ Ħ
Ġf ollow
íı °
amb da
Ġ ent
) \
Ġë§ ī
Ġg ener
Ġëı ħ
ë° ¥
f ul
s elf
Ġì¤ĳ ìļĶ
ĠìŀĪ ìĸ´ìļĶ
C h
ë¡ Ģ
Ġh ad
Ġë° ±
Ġse e
Ġë§Įëĵ¤ ìĸ´
Ġëª ¸
Ġë§Ľ ìŀĪ
in ed
Ġe ach
Ġth rough
Ġë³ Ħ
ĠìĤ¬ ìĭ¤
form ation
Ġë¯ ¼
Ġc o
ĠëĤ ľ
ë¹Ħ ìĬ¤
êµ ´
Ġê°Ģ ê²©
it em
¨ ìĸ´
ìĸ ¼
ëł¤ ê³ł
Ġt est
ĠìĻ Ģ
â ĺ
ìŀ¥ ìĿĦ
Ġë¸ Į
ĠâĢ ľ
Ġc or
ĠI f
y le
íķ Ħ
) :
ì¼ ľ
Ġë° Ŀ
iv ate
Ġv oid
Ġê´Ģ ëł¨
ì Ł
ĠìķĬ ê³ł
íĮ ¨
ë¡ľ ìļ´
ì° ¸
as k
Ġs ystem
Ġ ~
Ġe ff
m in
E N
ìĦ± ìĿĦ
ë³´ ê³ł
ire ct
Ġe very
Ġíķ ©
h o
ot s
3 2
ĠíĹ Ī
ìĨ Ĳ
at ure
I D
ĠëĲĺ ëĬĶ
$ \
l oc
Ġí Ĥ
p re
ow er
íķ ĳ
Ġì´ Ŀ
Ġor g
Ġs c
íģ ´
ĠìĿ´ ìľł
eng th
Ġ --
ĠìĦľ ìļ¸
Ġì¹ľ êµ¬
an k
ê³ ¡
Ġd et
ëĵ¤ ëıĦ
Ġtr ue
' t
b ack
Ġì°¾ ìķĦ
u le
t on
ìĿ ĳ
m s
ĠëĤ´ ìļ©
Ġê¸ Ģ
Ĳ ëĭ¤
Ġëª¨ ë¥´
C l
ĠëĮĢ íķ´
ĠëıĮ ìķĦ
op le
con d
:// ***
um ent
ction s
am ple
íĥ Ħ
u nd
Ġê· ľ
Ġn umber
Ġìķ ¼
ëĲ ł
Ġus ing
A L
ëĵ¤ ê³¼
Ġì ½
ìķĦ ìĿ´
ì£¼ ëĬĶ
ìŀĲ ìĿĺ
ĳ ¸
ĠëĤĺ íĥĢ
ou gh
Ġì²ĺ ìĿĮ
ìĦ± ìĿ´
am ma
p ar
ì ·¨
Ġí ĭ
Ġìĸ´ëĸ ¤
Ġkn ow
ìłķ ìĿĦ
ë¦ Ń
r r
ìĿ¸ ìĿ´
ëĿ¼ ìĿ´
Ġst art
íĥ ģ
it le
t s
Ġíķľ ë²Ī
per ty
ìĶ ©
il y
ê¸° ë¡ľ
ë¦¬ ìĬ¤
Ġl ook
Ġex per
ìĤ ¼
Ġe m
ĠìķĦëĭ Į
Ġst ud
Ġa c
Ġì£ ½
Ġíģ ´
ĊĊ Ċ
iz ed
ĠP ro
ëı Į
Ġb r
he ck
ê³ ¨
Ġg iv
he d
ìĹ ¼
S S
v iew
ìķ Į
ol og
_ \
ìĥģ ìĿĦ
» ê²Į
Ġìŀħ ëĭĪëĭ¤
ìĹĨ ìĿ´
Ġíķĺ ì§Ģë§Į
Ġg r
Ġe qu
m u
ëĲľ ëĭ¤
= \
ãħ İ
ìĹĪ ìĬµëĭĪëĭ¤
) );
ì§Ģ ëıĦ
ĠĠĠĠĠĠĠĠĠĠĠĠĠĠĠĠ ĠĠĠĠĠĠĠĠĠĠĠĠĠĠĠĠ
Ġs a
ĠíĮ ¨
ìŁ ģ
ì º
ëĲĺ ê³ł
ëĤ ¬
; ;
2 8
Ġíħ Į
Ġ\ \
íħ Ķ
Ġìłķ ë³´
Ġhe lp
ìŀ¥ ìĿ´
Ġf l
Ġel se
ĠëĨ Ģ
ì§ ķ
f or
Ġê¼ Ń
b ject
ëģ Ķ
ìĬ¤ íĥĢ
i er
Ġf alse
ì į¨
od y
2 7
y p
I t
ĠìĹ° êµ¬
ĠìĦł íĥĿ
ëł¥ ìĿĦ
ĠíĬ ¸
A r
Ġê° ĸ
ser t
"> <
p i
ëŀ ¨
ëħ ķ
Ġìĥģ íĻ©
in ce
-------- --------
ìĤ¬ ì§Ħ
Ġf ind
Ġí Ľ
Ġm in
str ing
mathb b
Ġëĸ ł
Ġin v
Ġl ist
Ġì§Ģ ìĹŃ
Ġì¶Ķ ì²ľ
19 9
ì¢ ĭ
ìģ ĺ
ĠìŀĪ ìĹĪëĭ¤
Ġh er
we en
T r
ìĹ Ħ
íķ´ ìļĶ
Ġ very
ë² Ķ
Ġëĭ¤ìĸĳ íķľ
p ress
Ġw ant
ig ma
íĸĪ ëįĺ
ìłķ ëıĦ
b e
Ġ X
â Ĺ
Ġre ad
ì§ Ŀ
Ġa ut
w h
ĠĠĠĠĠĠĠĠ ĠĠĠĠĠ
ĠìłĦ ë¬¸
Ġê ´
ĠìĿ´ ë²Ī
Ġê³ ¨
ĠëŃ Ĳ
b r
ation al
ĠëĤĺ ëĬĶ
Ġpe ople
íħ ľ
} ^{
Ġì Ķ
Ġre c
ê² Ģ
ë´ Ĳ
w n
ĠìĻ ľ
} _{
ëĨ ĵ
ì¶ ©
âĶ Ģ
ë² Į
u ch
íĥ ķ
Ġr ight
Ġs tring
d ata
ä ¸
ĠíĤ ¤
s c
Ġp oint
ëŀľ ëĵľ
**** ****
Ġë© ´
2 6
ëŀ įëĭĪëĭ¤
ìĹĲìĦľ ëıĦ
Ġdiffer ent
ë° Ģ
ëł Į
an y
ë¦¬ ìĹĲ
Ġê°Ļ ìķĦìļĶ
Ġë³´ ìĹ¬
ê·¸ ëŁ¬
aram et
ar get
// //
ĠëĬ ĺ
Ġê·¸ ëĥ¥
8 0
ë¶Ģ ë¶Ħ
w ard
Ġë ĥ
p art
ìļ° ë¦¬
ë¥ ł
ĠìĿ ½
ĠìĿ Ģ
íĻĶ ë¥¼
ìĹĪ ëĬĶëį°
w ork
ĠY ou
Ġëª ĩ
d ay
ë³´ ëĭĪ
ĠìĹĨ ëĭ¤
Ġë¯¸ êµŃ
Ġê²° ê³¼
le an
ĠìĦ¤ ëªħ
Ġì§Ģ ìĽĲ
et s
eg a
ĠâĢ ĵ
ìĿ¸ ì§Ģ
º ¼
Ġm ethod
- \
ìĹ ĩ
D ata
V alue
ĠêµĲ ìľ¡
am p
Ġch ar
Ġw or
Ġ Q
ĩ ¼
¼ ìłĢ
ĠC om
ìĭ Ń
íĬ ¼
I T
ãħ ľ
ĠìĤ¬ íļĮ
A N
Ġl ong
re am
ĠF or
Ġman y
ë² ½
ìĭĿ ìĿĦ
ĠìĿ´ ë¯¸
Ġí Ħ
Ġm od
ĠëĲľ ëĭ¤
y m
Ġst ate
ĠëĲ ©ëĭĪëĭ¤
Ġa fter
ĠìĤ¬ ìĿ´
ê²ł ëĭ¤
Ġn ow
Ġì§Ħ ì§ľ
ĠìĦ¸ ê³Ħ
Ġh and
ìłľ ê°Ģ
ĠëĺĲ ëĬĶ
Ġbe c
C T
Ġêµ¬ ë§¤
ver t
Ġbet ween
ëĶ ©
ĠìľĦ ì¹ĺ
" );
n ew
ìĸ´ ëĤĺ
ust om
íĤ ¨
ë ¿
se ction
2 9
Ġ ^^
ìķ Ķ
Ġì² «
ã ĥ
Ġë³ ĳ
ê ¾¸
ot e
Ġê³Ħ ìĨį
e ver
ĠëĨ ĵ
ĠìĿ´ ìłľ
Ġë¨¹ ê³ł
Ġf il
Ġì§ģ ìłĳ
Ġw ay
ĠU n
l og
Ġas s
ĠĠĠĠ ĠĠ
ĠíĶ Į
Ġa v
iz ation
Ġìłľ ê³µ
e e
ìŀĲ ìĿ¸
in es
vel op
o od
^ {\
ĠìĹ¬ íĸī
v alue
cl ude
ëį ķ
ĠìĹĨ ìĿ´
ĠìķĦ ë¬´
ph i
e y
r ic
ê· ł
av a
Ġì ¼
d ate
ê·¸ëŀĺ ìĦľ
Ġëĵ ¯
Ġ/ **
s on
Ġì¡ ´
C ol
a ut
Ġpro cess
Ġëĳ ĺ
· °
ĠìĤ¬ ìĹħ
Ġc ould
S E
ê· Ģ
com m
ĠìķĦ ì£¼
ĠA s
l ambda
ëĭĺ ìĿĺ
in ess
ser v
al ity
Ġê ¶Į
Th is
ĠìķĬ ìĿĢ
Ġdo es
c ed
Ġin formation
Ġëª °
Ġs ame
ë¦½ ëĭĪëĭ¤
Ġìĺ¬ ëĿ¼
ìŀ ¡
Ġev en
Ġê ¿
Ġ& &
Ġíĺ ¼
íĮĮ íĬ¸
ìĽ ł
ìłĦ ìĹĲ
ĠĠĠĠĠĠĠĠĠĠĠĠĠĠĠĠ ĠĠĠĠĠĠĠ
ì§Ģ ë§ī
ëįĶ ëĭĪ
Ġìĥģ íĥľ
ire d
Ġs ign
ìŀ¥ ìĿĢ
b f
Ġìī ½
Ġf inal
are nt
n b
Ġë°ľ ìĥĿ
Ġíķĺ ë£¨
ë´ ¤
ìī ¬
Ġë³´ ë©´
Ġf ield
Ġìĸ´ëĸ »ê²Į
ro l
Ġin clud
Ġgo od
ap t
an n
Ġ{ \
er g
if y
Ġc al
Ġ ?
or g
Ġìĥ ī
ìĻ ķ
ĠìĨĮ ê°ľ
ent ial
ĠìķĮ ìķĦ
ĠC on
Ġex t
ìĿ´ ë©°
Ġë ķ
ìĬ ¬
íļ ¨
íĥ Ī
ĠëĺĲ íķľ
t il
Ġp ol
ìĿ´ ìĸ´
A s
re d
le ction
ers on
ur ing
ê¹Į ìļĶ
S et
ĠìĿ´ íĽĦ
u ild
pl ay
ĠìĿ´ ìĸ´
em ber
â Ļ
ar ray
***- ***-
R e
ìļĶ ìĿ¼
Ġë² Į
Ġap pro
Ġê´Ģ ê³Ħ
it t
ìĪ Ļ
ĠìĹŃ ìĭľ
ë§ Īëĭ¤
ak ing
' )
ĠìĿ´ ë¦Ħ
ĠìķĮ ëł¤
ìŀĲ ë¥¼
ìĹĪ ìĸ´ìļĶ
o ad
ìĬ¤ ë¥¼
ìģ ľ
em ent
f ace
Ġì¤ĳ êµŃ
ĠíĴ į
Ġh t
Ġs he
ĠìĬ ¹
ë² ¤
ind ow
7 0
ĠE x
Ġê¹ ¨
Ġre p
Ġob ject
ê»ĺ ìĦľ
vers ion
Ġc all
ĠíĶ¼ ë¶Ģ
ï ¼
Ġ key
Ġë°Ľ ìķĦ
h er
ical ly
oth er
w idth
] ;
Ġê±´ ê°ķ
w w
íĸĪ ìĬµëĭĪëĭ¤
Ġs er
íķĺ ìĺĢ
Ġì£¼ ë¬¸
ìĹĪ ëįĺ
Ġo per
Ġëı Ī
ar s
Ġor der
if e
al ign
ì° ®
ì§Ģ ê°Ģ
Ġê¸° ëĮĢ
D E
Ġíļ¨ ê³¼
ìĤ¬ ê°Ģ
ìĬ ¨
e k
Ġë°© ë¬¸
Ġde c
Ġìµľ ê³ł
Ġì§Ģ ëĤĺ
ëĶ °
a ction
Ġìłľ ê°Ģ
Ġg reat
cc ess
ìĪĺ ê°Ģ
ĠìĿ¼ ë³¸
Ġìĺģ íĻĶ
i ence
tr y
Ġim port
ìĬ¤ íģ¬
Ġíķ´ ìĦľ
ëĿ¼ ìĿ¸
íĹ Ī
***-***- ***
Ġb est
ì¿ ł
ëĭĺ ìĿ´
m er
ĠìŀĪ ëĬĶëį°
f ile
Ġbec ause
íĴ į
p x
ìĿ´ìĹĲ ìļĶ
ìĻ Ħ
Ġìļ ¸
ìķ Ļ
Ex ception
íķ´ ë³´
Ġ ed
F or
it ed
Ġb us
Ġs ur
ĠìķĬ ìķĺ
( $
Ġb el
íķĺ ëĤĺ
nb sp
Ġwh ile
Ġat t
==== ====
âĶĢ âĶĢ
ìĶ Ģ
E n
Ġí ľ´
in s
ĠëĮĢ íĳľ
ëĭ ¥
ĠíĺĦ ìŀ¬
um n
ĠìĹ¬ ê¸°
ìĿ´ ìĹĪëĭ¤
9 0
Ġd own
c m
rr or
ìĿ´ ë²Ī
Ġê°Ģ ì§Ģê³ł
" )
5 00
t en
ĠíĮĲ ë§¤
Ġë¶ ģ
íĺ ĳ
êµĲ ìľ¡
Ġëĵ± ìĿĦ
? "
ë¯ Ģë¡ľ
ìĿ¸ ê°Ģ
Ġv is
mathb f
A t
Ġ %
ĠíĻ į
if ied
ĠH e
3 3
g ram
Ġsup port
lo ad
] ,
Ġm at
il on
ìķĪ ëħķ
Ġìĸ¼ ë§Ī
Ġh ere
O bject
Ġ å
ps ilon
Ġêµ °
c d
con t
ê°Ļ ìĿĢ
Ġì ¸
ì£¼ ìĿĺ
Ġëĵ¤ìĸ´ ê°Ģ
í Ľ
ce pt
Ġ z
ĠíĴ Ģ
ì¸ ¡
at us
ĠìĿĺ ë¯¸
m e
ë¶Ħ ìĿ´
n et
in ter
ëıĻ ìķĪ
ì° Į
ìĥģ ìĿ´
Ġr un
Ġíķ´ ìķ¼
ì§Ģ ìļĶ
Ġê°ľ ìĿ¸
ĠìĽ Ķ
re qu
ì¹ĺ ëĬĶ
ess ion
\ \
Ġê¸ ī
Ġ// /
Ġc urrent
Ġst atic
ë§ İ
Ġpr ivate
ãħĭ ãħĭ
Ġpart ic
ĠìŀĪëĭ¤ ëĬĶ
o k
Ġto p
Ġdes ign
Ġg l
u ff
Ġyear s
Ġbe fore
ĠìĤ¬ëŀĮ ìĿ´
c es
e v
p ly
Ġ! =
ate g
Ġb oth
Ġë¯ ¿
ìĬ¤ ëŁ¬
ĸ ìĹĲ
ĠT r
. _
ĠìĪĺ ëıĦ
Ġpl ay
str uct
ĠëĶ ±
ìħĶ ìĦľ
Ġprov id
íķĺ ìĭľ
g er
ëł¥ ìĿ´
ĠëįĶ ìļ±
Ġm on
s ize
ĠëĨ į
Ġm ark
Ġì² ł
íķľ êµŃ
ĠìĹĦ ì²Ń
íĺ ľ
Ġf act
Ġg u
Ġn on
Ġê¸° ìĹħ
m ary
ro id
M E
Ġë¨¹ ìĸ´
ch n
s igma
ang le
ro ll
b eta
ĠìĤ ¶
Ġì ħ
is hed
t est
Ġm uch
ì ©
3 5
ë Ń
ëĦ Ĳ
C O
ëĵľ ëĬĶ
ëĦĪ ë¬´
enc y
Ġì¶ ķ
ìłķ ìĿ´
ê° ĳ
ê ½ĥ
Ġf ile
Ġë³´ ëĤ´
ar n
ìĽ ĥ
Ġë¶ Ļ
T est
ist s
d is
Ġt ake
Ġ( \
en se
qu e
r ite
Ġdis c
ĠS tring
re n
Ġìĸ´ ëĬĲ
ë¦¬ ìķĦ
Ġìĸ´ ëł¤
loc ation
olut ion
G et
ìĿ´ ìĬ¤
Ġìĥģ íĴĪ
ìŀ Īëĭ¤
Ġíı¬ íķ¨
Ġex pect
ĠíĮ Ķ
ëıĻ ìĿĦ
Ġë§Ĳ ìĶĢ
íķĺëĬĶ ëį°
Ġd on
ìĭľ ìĹĲ
Ġ ***
Ġë¹ ¨
Ġprodu ct
Ġìļ´ ìĺģ
ual ly
ê´Ģ ë¦¬
Ġre sp
Ġf r
ĠìķĦ ì§ģ
ë ·°
ìľ¼ ëĤĺ
Ġê°Ļ ëĭ¤
ìļ ķ
f unction
Ġf ound
ëıĦ ë¥¼
} {\
4 5
ìĬ¤ íĮħ
ot t
b s
ê±° ë¦¬
ĠìĿ¼ ë°ĺ
Ġê ¶ģ
Ġê²ĥ ëıĦ
Ġíĸī ë³µ
ëĤĺ ëĿ¼
ë¡ Ń
Ġíĺ ĳ
as es
Ġgiv en
Ġëĸ ¨ìĸ´
() .
Ġl ast
Ġëħ ¼
^{ -
ìŀ Ķ
Ġì¶Ķ ê°Ģ
Ġsm all
Ġë§Į ëĤĺ
ra w
Ġde velop
ĠA l
Ġíı Ń
ĠëĤ´ ëł¤
Ġâ ĸ
ĠìĬ¤ íĥĢ
Ġê ½ĥ
ëŀ µ
d ition
() );
ë¬¼ ìĿĦ
Ġo wn
ord er
Con t
ìķĪëħķ íķĺìĦ¸ìļĶ
Ġê°Ģ ì§Ģ
ëį ¸
. ,
are d
ĠìĦľ ë¹ĦìĬ¤
3 1
Ġbe ing
ìłķ ë³´
ĩ ´
ì¡Į ëĭ¤
t ime
Ġd ay
ĠA r
Ġê¸° ìĸµ
ĠìŀĲìĭł ìĿĺ
6 4
Ġë¿ Ĳ
Ġíķĺ ë©´
Ġë¨ ¼ìłĢ
ìĤ¬ ëŀĮ
ut il
ou se
an ag
ĠìĻ Ķ
ìĬ¤ ë¡ľ
er n
ì§Ģ ìĹŃ
Ġë° Ģ
Ġë¬´ ìĹĩ
Ġê¸° ëĭ¤
Ġêµ¬ ìĦ±
fig ure
ĠìŀĪëĭ¤ ê³ł
Ġeff ect
le ase
ë¥´ ê²Į
âĺ ħ
Ġ ãĢ
ail able
Ġë§Ĳ íĸĪëĭ¤
Ġì¹´ íİĺ
us s
us h
Ġf in
I m
ĠëĤ ®
ìĤ¬ ìĿĺ
Ġs ize
êµ¬ ëĤĺ
Ġê·¸ ê²ĥ
al th
le ar
ĠA n
ab ility
ens ion
ëĪ Ī
Ġth ose
ĠìŀĲ ìĹ°
m od
t op
Ġê°Ģ ì¡±
ìĤ¬ ìĹħ
Ġê³µ ê°Ħ
Ġc ar
Ġ est
b y
he ad
E rror
Ġê¸° ìĪł
Ġê·¸ ëłĩ
math rm
ĠìľĦ íķ´ìĦľ
ëħ ģ
ìĿĮ ìĿĦ
ì£¼ ê³ł
Ġì°¨ ëŁī
re ak
Ġíķĺ ì§Ģ
Ġìŀĳ ìĹħ
ĠëıĻ ìķĪ
Ġê´ ľ
l ess
ëĦ ·
L L
f l
Ġper form
* }
Ġcons ider
ëĬĶ ì§Ģ
ìĿ¸ ìĿĺ
ĠìŀĪ ìľ¼ë©°
s cript
Ġt erm
ëĵ¤ ìĸ´
ìĺĪ ìļĶ
Ġh ome
íħ Ĳ
ĠìĿ´ íķ´
ë¨¸ ëĭĪ
ì´ Ŀ
ìĹĲ ìļĶ
le te
Ġvar i
ìķ Ĭ
Ġê´Ģ ìĭ¬
ëĤĺ ìļĶ
ìĤ¬ ëĬĶ
ìĽĲ ìĿ´
Ġê¸° ì¤Ģ
ìĭľ íĤ¤
I C
Ġall ow
Ġê²ĥ ìŀħëĭĪëĭ¤
ìķ ŀ
E D
ëıĦ ë¡ľ
u c
ê°Ģ ê²©
op y
+ \
al k
g amma
ĠìĿ´ ë£¨
R O
Ġm ust
ìĿ´ ëłĩê²Į
Ġìº Ĳ
ëĬĶ ëĭ¤
Ġf am
r c
ì¹ ł
ĠìĽ ĥ
ĠìķĮ ê³ł
ë§Ī íĬ¸
Ġì° ©
ë§Į íģ¼
Ġê³Ħ íļį
ar ge
ĠìĿ´ìķ¼ ê¸°
Ġê¸° ë³¸
Ľ °
Ġê·¸ëŀĺ ìĦľ
ĠìĹĦ ë§Ī
ëıĻ ì°¨
ìĪĺ ë¥¼
A C
ìĭ ¶
Ġcont ain
on d
i k
cri ption
ĠìĿĮ ìĭĿ
ant s
ĠíĹ ¤
as on
Ġbus iness
ë¥´ ëĬĶ
ath er
oc i
ĠíķĻ ìĥĿ
ê·¸ ëŁ°
ĠS e
Ġs k
Ġm ain
Ġe as
n ess
ìĭľ ìķĦ
í ľ´
t able
Ġê¹ Ķ
ì£¼ ìĦ¸ìļĶ
ìĽĲ ìĿĦ
Ġ ãħłãħł
Ġm ade
l ink
ĠíĶĦ ë¡ľ
Ġê´Ģ ë¦¬
U n
ĠìķĦ ëŀĺ
Ġle t
Ġm ed
ëª »
Ġpos s
ê ¿
ĠìŀĲ ê¸°
ìĿ´ ë¥¼
] {
ĠR e
ê³ ¤
ect ed
Cl ass
Ġë £
ro p
B y
Ġd i
Ġ Z
Į ĵ
ë¦¬ ìĸ´
íķĺ ìĺĢëĭ¤
ĠC l
Â·Â· Â·Â·
g r
Ġag ain
Ġíİ ĺ
Ġpro ble
Ġsa id
ak es
ìłľ ë¡ľ
' );
ì ĵ°
ëĮĢ íķľ
w ay
ëıĦ ê°Ģ
h ip
A n
oc ument
o ot
ĠìĦ¤ ì¹ĺ
ìĿ´ íģ¬
Ġle ad
ìłĢ ëĬĶ
^ \
Ġê¸° ë¡Ŀ
ìĦľ ìļ¸
Ġë ī´
Ġê·¸ ëłĩê²Į
l er
ìĺ¤ ëĬĶ
Ġc heck
ìŀĲ ê¸°
ĠìĥĪ ë¡ľìļ´
ë¡ľê·¸ ëŀ¨
ĉĉĉĉ ĉ
ĠìĿ ĳ
Ġê¹ Į
res pon
ìŀ¥ ìĹĲ
ur l
Ġìĸ »
íķĺ ìĭľëĬĶ
Ġë³´ ëĭĪ
ëı ¼
ìłķ ë§Ĳ
re m
d elta
ind ex
ĠêµŃ ëĤ´
l ist
Ġìĸ¼ êµ´
Ġê°Ĳ ìĤ¬
r al
íĶ Ī
ro ss
Ġìĸ´ ëĶĶ
p ace
Ġp aramet
3 6
ĠìĤ´ ìķĦ
Ġbu ild
ìĦ¼ íĦ°
ĠìķĬ ìĿĦ
I nd
Ġê ½
ë¬¼ ìĿ´
Ġp ass
Ġin s
Ġe lement
[ '
Ġar g
f e
Ġì ĵ
ìļ´ ëį°
ĠìĻ ķ
Ġëĭ µ
ĠìĥĿ íĻľ
ê» ´
Ġê³ł ë¯¼
k en
V iew
Ġin cre
ëįĶ ëĿ¼ê³ł
g o
ĠíĻľ ìļ©
it ial
) }
Ġp erson
ì¤ĳ ìĹĲ
p m
ëĤ´ ê°Ģ
ìĬ¤ ëŁ½
ê¸° ìĹħ
ëĿ¼ ëıĦ
is ter
ì² Ļ
Ġê°ľ ë°ľ
ì§Ģ ê¸Ī
ìŀ¥ ìĹĲìĦľ
ê°ľ ìĽĶ
Ġev ent
the ta
ìĽ ĢìĿ´
Ġch ild
m ed
íķĺ ëĭĪ
Ġresult s
Ġì¹ ¨
n a
ĠA nd
0 1
ĠìŀĪ ëıĦë¡Ŀ
ìĬ¤ íĦ°
íĸĪ ìĸ´ìļĶ
g round
ur ation
em pl
r ho
ë¡ľ ëĤĺ
ëł ´
Ġëĵ± ìĿĺ
íķĺ ìĭł
Ġìĭ ¸
ìĽĢ ìĿĦ
p ublic
Ġp ost
ĠìĻĦ ìłĦ
Ġd irect
" ;
ë£Į ë¥¼
Ġ| |
Ġìľ ¡
Ġre al
K ey
Ġd id
iv ely
a z
ĠS h
] .
Ġê¸° ëĬ¥
Ġê°Ģ ëĬĶ
R equ
Ġloc al
re g
Ġì°¸ ìĹ¬
w are
Ġht tp
ë§Į ìĹĲ
Ġ ke
} ;
ĠíĬ¹ íŀĪ
0 5
ir c
et work
ì° į
Ġìĭ¶ ìĿĢ
ut e
erv ice
í ĮĢ
ëĨ į
ìĥģ ìľ¼ë¡ľ
Ġc ent
ĠëĨĴ ìĿĢ
ëł¸ ëĭ¤
se arch
Ġê³ł ê°Ŀ
ëŁ¬ íķľ
Ġc ustom
j s
ĠìłĦ ì²´
Ġìķ ī
ĠíĻ Ī
Ġê ¾¸
ë »
w ays
is ion
ëĭ Ŀ
ìĬ¤ íħľ
b ers
sum mary
ë¬¸ ìĹĲ
ar m
Ġìĺ Ĩ
Ġë° ¥
Ġerr or
() ,
ĠíĦ °
com e
Ġar t
Ġê²½ íĹĺ
ëł µ
ĠìĬ ¬
Ġë¨¹ ìĿĦ
íĸĪ ëĬĶëį°
íĽ Ī
Ġíĥ Ħ
le q
ìĬ¤ ê°Ģ
íĬ¸ ë¥¼
íĭ Ģ
. </
ì¹ĺ ë¥¼
Ġìĺģ íĸ¥
ĠìķĪ ìłĦ
Ġì ¿
Ġpro ject
S h
Ġse cond
r on
Ġíķ´ ëĭ¹
ê°Ģ ëĬ¥
Ġìī ¬
ì¼ ĵ
Ġìŀĳ íĴĪ
ê±° ëĵł
ĠëĤĺ ìĺ¨
ì§ Ĳ
Ġê±° ìĿĺ
ìĭ¬ íŀĪ
$ -
ë¦¬ ì§Ģ
Ġtr y
Ġwor ld
Ġëĵ £
Ġf ree
"> </
end s
ĠëĤĺ ìĻĢ
Ġle vel
olog y
Ġì¸ ¡
ĠíĻ ©
ëįĶëĿ¼ê³ł ìļĶ
v ious
Ġê³µ ë¶Ģ
ìĿ´ ìłľ
Ġë¬¼ ë¡ł
Ġth ink
P E
Ġìķ ħ
ĠìĿ¸ ê°Ħ
ľ ĺ
ta u
Ġfollow ing
h or
ì£ ½
ëıĻ ìĤ°
se c
Ġë´ Ĳ
ĠìĺĪ ìłķ
I ON
ë²Ī íĺ¸
ch ool
Ġcont in
Ġav ailable
Ġstr uct
í ĳ¸
ī ìŀ¥
Ġê· ¹
Ġìŀĳ ìĿĢ
ëŀ Ļ
ĠëĬ ¥
g ht
b ig
Ġê²° ìłķ
Ġìĸ¸ ìłľ
íĻ į
Ġa round
ëĶĶ ìĸ´
Ġserv ice
ìĺ ¥
ack age
Ġìłķ ë¶Ģ
n av
plic ation
Ġd r
Ġs om
if t
ê²ĥ ëıĦ
tribut e
ìľĦ ìĽĲ
Ġíĳľ íĺĦ
ĠìĹ¬ ìĦ±
ur al
ë ķ
ĠĠĠĠ Ċ
ãħ ¡
Ġn ext
Ġm em
Ġë¶Ħ ìľĦ
L A
ar row
Ġê± ±
le x
I f
3 00
og le
íĦ ´
ìĹ ĺ
Ġ ve
Ġd el
Ġê²½ ìłľ
Ġë§Ī ì§Ģë§ī
Ġm ult
ê º¼
}$ ,
ĠN ew
Ġte chn
Ġë° ¤
ëĿ¼ ìĦľ
Ġë³´ ìĿ´
t imes
ĠíķĻ êµĲ
}$ .
ĠìĿ¸ íĦ°
F ile
Ġc r
ĠíķĦìļĶ íķľ
Ġë©Ķ ëī´
p ath
Ġrequ est
ëĲ ©ëĭĪëĭ¤
ìĭ ±
Ġm et
per t
P I
un c
s m
Ġê´ľ ì°®
iv es
ħ ëĭĪëĭ¤
Ġë§¤ ìļ°
êµ° ìļĶ
ë³´ ëĬĶ
Ġcon dition
y mb
ì¹ Ļ
Ġë°Ŀ íĺ
Ġ æ
v ed
ë¨ ¼
S e
3 4
T E
Ġíĭ °
ĠëıĦ ì°©
ri x
Ġpro gram
tr act
' ]
ĠìĤ¬ëŀĮ ëĵ¤ìĿ´
Ġth ree
ĠíĪ¬ ìŀĲ
Ġop en
Ġíı¬ ìĬ¤íĮħ
f il
ê² ¼
ìľ µ
Ġim age
ĠëĲĺ ê³ł
ìĭ ¸
Ġìŀ Ķ
a pe
ìĿ´ ëĵľ
D e
ĠìķĦ ì¹¨
ã İ
el s
Ġan al
Ġê¸° ìŀĲ
Ġíĺ ¹
is m
sp ace
ĠìĪ Ļ
ëĵľ ë¦¬
Ġg roup
ìĬ Ī
Ġë Ł
íĨµ ëł¹
ì¼ ĢìĿ´
Ġê·¸ëŁ¬ ëĤĺ
ĠìłĢ ëĬĶ
s l
Ġë¶Ħ ìĦĿ
ìĹ¬ íĸī
i vers
Ġë¹Ħ êµĲ
T ime
O n
Ġwe ek
íı Ń
it ive
v ir
Ġt yp
con st
ìŀ ĺ
ymb ol
Ġë°Ķ ëĿ¼
m m
Ġë© ĭ
Ġë³´ ëĬĶ
Ġê¿ Ī
Ġë Ľ°
Ġcre ate
ì¤ ĺ
ìļĶ ì¦ĺ
Ġëľ »
St ate
ë°Ķ ë¡ľ
Ġìłģ ìļ©
l ay
} (\
Ġl ife
ë¥´ ë©´
ìĸ´ ëıĦ
ĠìĨ ¡
ë³´ ê¸°
E lement
ë°© ë²ķ
Ġp resent
Ġê² ¨
Ĩ į
Ġìĥģ ëĭ´
um er
ain ing
Ġst and
eq ref
t ps
Ġ );
Ġwith out
ĠëĬĲ ê»´
Ġst ill
ëĤ ¸
Ġre f
ê ´
ë¥´ ê³ł
ìĿ´ ëŀĳ
Ġcomm un
Ġp at
Ġìľł ëªħ
Ġìµľ ê·¼
/ *
ëłĪ ìĬ¤
ìľ ¤
ĠëĮĢ íķ´ìĦľ
ìĥģ ìĿĺ
ë¡ľ ìĦľ
ĠìĿ µ
Ġë² Ķ
ëĭ¤ ìĿĮ
W ith
ĠTh ere
ã Ħ
Ġê° ĳ
it or
Ġìļ´ ëıĻ
part ial
Ġc oun
7 5
Ġpl ace
ail s
i or
ĠíĿ Ĳ
fer ence
íķ´ ëıĦ
Ġ$ (
ìĻ Ķëĭ¤
Ġì ı
I nt
E vent
Ġv iew
ìłĲ ìĿĦ
Ġìĭľê°Ħ ìĿ´
Ġpl an
Ġs ing
ĠíĿ ¬
u se
ĠêµŃ ê°Ģ
Ġp ur
Ġì¢ĭ ìķĺ
ĠR es
ã Ĩį
Ġs ince
9 9
m et
Ġ/ >
A dd
v en
" :
ter s
f ield
Ġë°° ìļ°
n ode
Ġì¡´ ìŀ¬
N ode
T R
p oint
Ġë§Į ì¡±
ë²Ī ì§¸
Ġth row
Ġê²Į ìŀĦ
Ġìľł ì§Ģ
er ing
ëĭ¤ ë¥¸
Ġl im
l ength
Ġsp ace
íķĻ ìĥĿ
ĠëĶĶ ìŀĲìĿ¸
ct or
Ġcont ent
ĠìĿ¼ ìĿ´
ĠìŀĪ ì§Ģë§Į
ëª °
Ġl og
Ġì¦Ŀ ê°Ģ
ë³´ ë©´
Ġì¢ĭìķĦ íķĺëĬĶ
ĠíĻľ ëıĻ
Ġë°Ķ ëŀĮ
ì» ¨
s w
ĠD e
cal e
íĺ ¹
Ġê·¸ ë¦¼
5 5
ìķ ķ
T ext
Ġì¤ĳìļĶ íķľ
ĠìĥĿê°ģ ìĿ´
ìĬ ´
Ġíŀĺ ëĵ¤
Q u
19 8
Ġê° Ķ
U R
Ġìĭł ì²Ń
ìĭľ ìĦ¤
íĿ ¥
Ġì į¨
Ġt ext
ìĸ´ ìķ¼
0 4
ëĤĺ ë¬´
b ox
ë¿ Ĳ
ì´ Į
ê ¶ģ
Requ est
Ġì¦ ī
! --
al e
ĠH ow
a it
em s
n u
Ġë§Į ëĵł
Ġhe ad
Ġus er
ĠìłĦ ìĹĲ
Ġë¨¹ ëĬĶ
ĠìŀĪ ìľ¼
=" ../../
Ġíģ¬ ê²Į
Ġíĥ Ī
l ock
ft y
Ġëĭ¤ ëħĢ
ìĽĲ ìĿĺ
ĠìĿ´ ê²ĥ
ëı Ī
¯ ¤
ĠìŀĲ ìĦ¸
s q
ìŀ ĸ
ìłľ íĴĪ
ìĥĿ íĻľ
Ġw rit
w ord
0 8
iss ion
' :
enc es
3 8
ific ation
Ġval ues
ê²ł ì§Ģë§Į
wh ere
col or
ĠíĻĺ ê²½
ìŀ¥ ìĿĺ
ëľ »
Ġc our
íļĮ ìĿĺ
av ing
ëª ¬
ëŁ ´
Ġë§Į íģ¼
ëĵľ ë¦½ëĭĪëĭ¤
ĠìļĶ ì¦ĺ
` `
ê¸° ê°Ħ
ìĪĺ ëĬĶ
Ġb ook
Ġìķ Ķ
Ġadd ition
íķľ íħĮ
ĠìķĦ ë¦Ħ
p p
Ġ ide
Ġë§Ľ ì§ĳ
Ġas sert
ìĿ¸ ìĿĦ
ac es
oc us
Ġs l
Ġëĭ¹ ìĭł
le m
0 9
oo lean
ĠëĦ ĵ
Ġt itle
Ġì»¤ íĶ¼
ëĮĢ ë¥¼
us er
at t
ĠìĿ´ ëıĻ
ê³ł ì°¨
ìłľ ë¥¼
/ **
ê°Ĳ ìĿĦ
it al
a h
=" +
Ġëħ¸ ëŀĺ
Ġar ray
ìĬ¤ ëĬĶ
ì§Ħ ëĭ¤
g roup
ĠëĬĲ ëģ¼
Ġìĺ¤ ëŀĺ
ë¹ Ľ
o ard
" "
ä º
ìĿ´ íĦ°
Ġìĺ¤ íĽĦ
Ġad v
in fty
Ġê°Ģ ìł¸
| \
ĠìĦ± ê³µ
pt y
P h
Ġíıī ê°Ģ
id ent
til de
ìĹ° êµ¬
Ġre ce
ë¹ Į
ë¬¸ íĻĶ
ìĹĪ ê³ł
om ega
ĠíĬ¹ ë³Ħ
Ġê´Ģ íķľ
âĸ ¶
ab l
Ġìŀ¬ ë¯¸
ĠêµŃ ë¯¼
Ġíķ´ ê²°
Ġìĸ´ ë¦°
st and
Ġof fer
a j
ì½ ĺ
Ġìłľ ìŀĳ
Ġwith in
3 9
Ġì¢ĭ ìĿĦ
i que
Ġë ŀ
Ġre ally
P ath
Ġob tain
Ġëħ ¹
orm al
ìľĦ ë¥¼
Ġacc ess
ĠíĶĦ ë¡ľê·¸ëŀ¨
Ġs ol
Ġinter est
ìĿ´ ìķ¼
Ġë¬¸ íĻĶ
Ġìĸ ĺ
Ġë³´ ìĿ´ëĬĶ
ĠO n
as ure
Ġl arge
In fo
ĠìĪ ł
Ġì¤ĳ ìĭ¬
Ġë°Ŀíĺ Ķëĭ¤
Ġt arget
¬ ìĺģ
er tain
I S
os s
ëªħ ìĿ´
ob al
M A
ĠìĿ´ ë¥¼
ì´ ī
ëĲĺ ì§Ģ
ê² ģ
Ġpro t
E qu
ê° Ķ
v es
Ġ/ *
Ġì°¸ ê³ł
m ap
Ġf ew
Ġal ways
ìĿ´ ë²Ħ
ìłģ ìĿ´
ĠìŀĲ ì£¼
ë§ ¨
pert ies
i ents
Ind ex
ĠìķĬ ìķĦ
ì¹ľ êµ¬
f in
Ġto o
Ġê¶ģ ê¸Ī
Ġprov ide
íķĻ ìĽĲ
0 2
F ield
ì£¼ ìĭľ
ìĤ¬ ìļ©
Ġêµ¬ ìŀħ
0 6
ê±°ëĵł ìļĶ
ìĤ¬ ìĭ¤
Con text
Ġì¹ĺ ë£Į
ë²¤ íĬ¸
Ġë´ ¤
íĤ ¹
Ġê·¸ ëĬĶ
ëĲ Ĳëĭ¤
3 7
n o
t ab
et y
A D
ĠëĶ° ë¥¸
Ġt ri
ĠìĤ¬ ê±´
Ġë© Ģ
ĠìłĢ íĿ¬
ĠíĿ Ķ
0 7
Ġle ft
Ġte am
Ġd uring
Con fig
ou ble
ĠìĤ¬ ê³ł
ĠìŀĲ ì²´
ìĿ´ ëŁ°
Ġex pl
as ter
en u
D elta
() )
® ¤
d es
ĠíĴ Ī
ĠëıĦ ìĭľ
st ance
i um
Ġê°Ģ ê¹Į
ìĨ Ķ
ìĸ´ ê°Ģ
ìĿ¼ ìĿ´
ì» ¬
Ġíķ´ ìļĶ
ë¡ ¯
Ġë°© ìĨ¡
ë Ĵ
Ġp ower
Ġrequ ire
Ġm ax
% )
Ġde v
old s
Ġê¸ ´
D ef
ë§ ŀ
Ġë§Ĳ ìĿĦ
ê¹ ¨
ì£¼ íĥĿ
Ġìī½ ê²Į
iv ed
íĮ Ķ
Ġf ull
ìĺ¤ëĬĺ ìĿĢ
pl oy
Ġë°Ķ ëŀįëĭĪëĭ¤
Ġì» ¨
ê°Ĳ ìĿ´
Ġê²½ ê¸°
ìĹŃ ìĭľ
Ġìĺ ·
ì¶ °
ĠëĮĢ íĨµëł¹
Ġen erg
ì¦ Į
Ġíķĺ ìĹ¬
ìĿ¸ ëĭ¤
iv ity
M ap
ì½ ¤
Ar ray
eq n
Ġp ar
Ġê·¸ ìĿĺ
qu ad
ut ton
ames pace
at ely
o ff
ë³´ íĹĺ
in ation
u i
l and
Ġimport ant
ater ial
ì¹ Ń
I G
Ġo ptions
ap er
Ġ: )
Ġp ath
Ġm ap
ĠìłĢ ëħģ
Ġ} ,
our ces
pos ition
íĨ ¡
ê³ł ê¸°
Ġo pt
m an
r t
Ġê¹ Ĭ
g g
Ġìľ ¤
p or
ìĽĲ ìĿĢ
qu ot
Ġë°ľ íĳľ
Ġ( !
at s
tern al
res ult
ìĦł ìĿĦ
Ġí ĳ¸
ĠìĹ´ ìĭ¬íŀĪ
Ġid ent
Ġdef ault
Ġíķĺ ëĬĶëį°
Ġb ound
r ide
ĠìłĦ íĻĶ
ĠìķĦ íĮĮíĬ¸
Ġë¶Ģ ëĭ´
+ +
Ġë°Ľ ê³ł
ens ure
anag er
Ġh app
id d
Ġìłľ ëĮĢë¡ľ
ì ĩ¼
Ġëĵ± ìĿ´
i ver
at ures
ë§ ¥
iv ing
v oid
ĠìĽ Ģ
Ġc ode
Ġê³¼ ìłķ
Ġê¹Ķ ëģĶ
L O
Ġë³´ ëĭ¤
ĠëĮĢ ë¶Ģë¶Ħ
Ġh im
Ġex ample
ëŁ Ń
ĠìŀĲ ë¦¬
ì¹´ íİĺ
Ġb ased
Ġinclud ing
A ll
ë¦ ¿
ĠíķŃ ìĥģ
Ġl ove
íĹ ¤
ìłĢ íĿ¬
ul ation
íĬ¹ íŀĪ
íĻĺ ê²½
ĠíĸĪ ëĬĶëį°
Ġd ist
ê·¸ëŀĺ ëıĦ
ë¬´ ë¦¬
ur s
ĠìĦľ ë¡ľ
ìĥģ ìĹĲ
ĠìĹ° ê²°
íĺ ģ
Ġì£¼ ë³Ģ
ĠìĹĨ ìĸ´
port s
ê°Ļ ìĿ´
ì½ ľ
l ang
íİ ´
ë£ ¸
ì ¯¤
ĠìĪĺ ìĹħ
Ġgo ing
Ġìĺ¬ ëł¤
pl es
Ġ et
Ġ Ð
4 8
í Ĥ¬
Ġë´ ī
Ġ: =
ap i
Ġch ange
il ar
Ġìĥģ ìĬ¹
O ver
ê¹ Ĳ
U T
ãĢ į
' ;
ĠìŀĪ ìľ¼ëĭĪ
Ġê°Ģ ìļ´ëį°
Ġë³Ģ íĻĶ
Ġl ight
ĠThe y
itt le
Ġis s
ìĿ´ ì§Ģë§Į
ìĨĮ ë¥¼
Ġbet ter
ĠìĽ Į
ĠìĨ Ķ
ìłĦ ë¬¸
x i
Ġrep resent
ìĭĿ ìľ¼ë¡ľ
ì§Ģ ìĽĲ
Ġí į¼
ëĮĢ ìĿĺ
ìĿĦ ëķĮ
ëį° ìļĶ
it er
ìĦľ ëĬĶ
IN G
Ġch ang
. )
ìĿ¸ íĬ¸
Ġp ay
íı Ĳ
ĠìĪĺ ì¤Ģ
Ġì£¼ ëĬĶ
ëĺĲ íķľ
Ķ ê°Ģ
ë¹ Ī
g l
ê·¼ ëį°
Ġcol or
ab les
Ġ} );
ar i
Ġë¿ Į
Ġab ove
u f
ì¹ĺ ê³ł
ìĽĮ ìĦľ
## ##
ĠìĿ´ ëŁ¬íķľ
E T
ìĭĿ ìĿ´
Ġìłľ ìĿ¼
tr a
Ġb reak
ìĤ¬ ëŀĳ
Ġì ĩ¼
Ġex p
Ġc ost
ĠìŀĪ ê²Į
ĠC ol
ĠëĤ¨ ìŀĲ
S ervice
Ġs ure
Ġë¹ ¼
tr ue
íļĮ ë¥¼
ĠĠĠĠĠĠĠĠĠĠĠĠĠĠĠĠ ĠĠĠĠĠĠĠĠĠĠĠ
Ġê·¸ ëĮĢë¡ľ
Ġmark et
Ġì¶© ë¶Ħ
ma x
empl ate
act er
ìłķ íķľ
Ġ ***-***-***
ì¶ ĺ
de pend
ê¸° ê´Ģ
ĵ ¨
Ġëħ¸ ëł¥
Ġin put
ìĹĨ ëĬĶ
ìĭľ ìŀ¥
con fig
Ġê·¸ ëħĢ
Ġëª¨ìĬµ ìĿĦ
Ġdis tribut
ap ache
Ġëı ¼
um p
ëŀ Ĳ
ag s
ëĳ ĺ
~ !
//// ////
íĺ Ī
íİĺ ìĿ´ì§Ģ
Ġìĸ¼ë§Ī ëĤĺ
Ġr ange
ĠìĪľ ê°Ħ
ë¡ľ ëĬĶ
bl ock
cd ot
Ġë¸Ķ ë¡ľê·¸
od es
ĠìĹ¬ ìŀĲ
Ġíķ´ ëıĦ
Ġìŀĳ ìĦ±
ĠìŀĲ ìľł
Ġìłķ ìĭł
ĠA ll
ĠB ut
ĠìĿ¼ ë¶Ģ
ĠI nd
ĠT o
ile d
Ġposs ible
ìĤ¬ ìĿ´
ob ject
ì¢ Į
ìľĦ ìĹĲ
ĺ ĳ
\ ,
Ġde pend
ëĮĢ ê°Ģ
Ġint eg
ì§Ģ ì§Ģ
Ġë¬¸ ìĿĺ
ê¸° ìĿĺ
ic on
Ġ= ==
ìĬ ·
ĊĊ ĊĊ
Ġ ]
ê²Į ìļĶ
íĸĪ ê³ł
Ġpos ition
ĠìĶ ¨
E S
Ġsu per
ê±° ìļ´
ëĲĺ ìĹĪëĭ¤
ëĭ¤ ìļ´
Ġn etwork
u ck
Ġbe g
M P
Ġph ot
ore m
ma il
in ition
ìĿ¸ ìĿĢ
D es
ìĿ´ ëŀĢ
A S
che s
íĨ ¤
ĠëĲĺ ìĹĪëĭ¤
B S
Ġb as
F F
Ġqu est
Ġke ep
Ġorg an
b ody
Ġê°Ģ ëĵĿ
ì§Ģ ìĹĲ
Ġcont rol
ĠW h
¨ ìĿ´
Ġë¶Ģ ìĤ°
O T
C H
Ġë¶Ģ ì¡±
ìĭľ ì¼ľ
Ġbl ock
ë§İ ìĿĢ
ìĿ¼ ìĿĦ
Ġìļ ķ
s im
ĠìĹ¬ ë¦Ħ
Ġcomp any
Ġo ld
C ode
$ $
vir on
ëĿ¼ ë§Ī
A l
Ġì¹ ¼
I P
th ing
ĠëĤĺ ìĻĶ
Ġc are
ë³´ ëĭ¤ëĬĶ
Ġë§ ¥
Ġe ar
Ġs it
d t
íķĺ ëĭ¤ê³ł
an e
Ġfam ily
Ġ-- >
ëįĶëĿ¼ ëıĦ
Ġë ½
ì į
Ġman ag
Ġë§ Ŀ
Ġg row
ff ic
Ġspec ial
íķĺ ìĭ¤
ìĿ¸ëį° ìļĶ
Ġan other
str u
in put
ë ļ
ëıĦ ìĿĺ
Ġenerg y
ìĽĲ ìĹĲ
pon ent
ì Į
ì ¥
Ġpro perty
Ġê²° êµŃ
Ġmon th
Ġn ode
ìŀĦ ìĿĦ
Ġg ive
F orm
ĠìĺĪ ìķ½
M L
ìł ł
Ġëį ķ
Ġíķ´ ì£¼
ĠìĿĮ ìķħ
O r
f rom
ple ment
4 4
ĠS o
m it
ìĿ´ ìĥģ
ê²ł ì£ł
d ing
Ġse lect
ĠëĶ ¸
Ġproble m
ĠëĤĺ ìĿĺ
Ġë¸Į ëŀľëĵľ
se e
íĭ ±
ĠìĥĿ ìĤ°
Ġê² ¬
ĠìĹŃ íķł
ib r
com p
ĠìĦł ë¬¼
val id
Ġw ater
press ion
Ġexper ience
Ġë ļ
Ġhe alth
ìłĲ ìĿ´
Ġë§Ĳ ìĿ´
Ġs ay
ìĶ ¬
ĠìĿ´ë£¨ ìĸ´
ëªħ ìĿĺ
Ġê°Ļ ìĬµëĭĪëĭ¤
íķ¨ ìĿĦ
ìķĦ ì£¼
Ġbe h
read y
0 3
Ġì± Ļ
Ġìĭ «
} [
ic le
he s
íħĮ ë¦¬ìĸ´
â Ĩ
ëĤ¬ ëĭ¤
ìĬ¤ëŁ¬ ìļ´
)$ .
yn c
S ize
ass ert
ĠìĦ Ŀ
raph ics
Ġë°Ľ ìĿĢ
Ġres pect
ëªħ ìĿĦ
Ġë§ ¡
ĠìłķëıĦ ë¡ľ
ne ction
******** ********
du ct
Ġpro f
ìłĦ ìĿĦ
Ġor ig
ĠìĬ¤ íĬ¸
Ġcomp ut
} }\
Ġê³µ ê°ľ
Ġcor re
Ġì» ¬
ìĦ ¯
ìĤ¬ íļĮ
Ġê¸° ê°Ħ
Ġp age
ìŀ ł
ĠëĲĺ ë©´
Ġíķĺ ê¸°
Ġê±± ìłķ
ul es
ëĭĺ ê»ĺìĦľ
ëģ Ĺ
ĠëķĮë¬¸ ìĿ´ëĭ¤
ë° ĸìĹĲ
¢ °
Ġë§Ī ëł¨
Ġcon f
íķĺ ìĭľë©´
ĠíĺĦ ëĮĢ
o in
í Ģ
uff er
le g
O f
Ġm ight
t ings
Ġre st
Ġì ª½
ur ity
ĠìłĢ ëł´
Ġserv ices
N ot
Ġab le
Ġp op
ĠìĿ¸ íķ´
Ġfe el
Ġp ut
Ġë°ľ ê²¬
ê°Ģ ê°Ģ
Ġl ess
t t
ott om
ĠìĿ¼ ìĿĦ
Ġíĺ¼ ìŀĲ
Ġìĸ´ ëłµ
ĠìĤ´ íİ´
anc es
Ġare a
m odel
Ġadd ress
Ġm ass
ht tps
ë ¢°
s k
Ġê·¸ ë¦¬
N S
[ ]
Ġì§Ģ ìĨį
Ġìķŀ ìľ¼ë¡ľ
Ð ¾
ĠĠ Ċ
able d
pec ial
Ġì¿ ł
ê³¼ ìĿĺ
st ate
ë² ¨
ì§Ħ ì§ľ
Ġs ource
ë§Į íķľ
ìķĦ ëĭĪ
c or
w ith
ĠëĤĺ ê°Ģ
íķľ ëĭ¤ê³ł
Ġs um
n ect
Ġêµ¬ ì¡°
ĠìŀĪ ê¸°
err or
et urn
ĠìĺĪ ìĥģ
Ġì¢ Į
ëĵľ ë¥¼
co pe
Ġí ĮĢ
p ed
ì ĩ
ĠìĹĨ ê³ł
ic y
cre ate
Ġê°ĢëĬ¥ íķľ
pl it
u x
Ġsu ccess
Ġst yle
Ġt em
Ġë ¥
Ġ version
Ġs pe
Ġ ãħİ
ĠìŀĪ ëįĺ
? )
it ch
Ġre du
ìļ° ìĬ¤
ur ther
Ġíı Ĳ
m d
Ġë¹ Ľ
ĠëĤĺ ëĿ¼
ĠëĤĺìĺ¤ ëĬĶ
Ġ čĊ
im al
ĠëĦ£ ìĸ´
ìķĺ ìĬµëĭĪëĭ¤
ëĶĶ ìĺ¤
ĠS ystem
Ġth ings
ix ed
or ies
Ð °
eth ing
Ġf ri
^ *
Ġp res
Ġs w
Ġinst ance
ë£ ¹
æ ľ
ĠìĽĢ ì§ģ
Ġcom e
ì§Ī ë¬¸
ì¢ĭ ìĿĢ
Ġìļ°ë¦¬ ê°Ģ
ìĤ° ìĹħ
m at
Ġìĥģ ëĭ¹
Ġë§ ĺ
Ġíķĺ ëĬĺ
6 6
ì¹ĺ ê°Ģ
Ġ ç
Ġl ow
Ġìĺ¬ íķ´
ĠG et
Ġl ittle
ìĤ¬ íķŃ
= '
ìłķ ë¶Ģ
e psilon
Ġt able
í ĵ¨
S ystem
Ġê°Ħ ëĭ¨
Ġìłķ ë¦¬
Ġê°Ģ ìĦľ
ì§Ģ ë¡ľ
ì£ Ħ
íĦ ¸
ĠìĿ¸ ìłķ
Ġë¬´ ë£Į
ìĪĺ ëıĦ
Ġh ard
ìĿ´ ê¸°
íķĺ ìŀĲ
Ġì¼ ĢìĿ´
ëī´ ìĬ¤
ìĶ¨ ê°Ģ
Ġìłķ íĻķ
Ġìĭł ê²½
A B
im um
ëĭ¤ ìĭľ
ar ning
íķĺ ê±°ëĤĺ
H and
ec ut
ê°Ģ ë¥¼
t itle
he ther
Ġëľ ¨
che d
Ġp ot
ë¦¬ ìĿĺ
Ġíķĺ ë©´ìĦľ
Ġind ex
It em
ëĿ¼ ë©´
å ¤
ĠìĪĺ ê°Ģ
our s
O S
er o
ë ĩ
Ġê²° íĺ¼
ìĿĢ íĸī
ĠíĥĢ ê³ł
ë¹Ħ ë¥¼
Ġìĺ¤ ëĬĶ
ì§Ģ ëĤľ
ĠìĤ´ ì§Ŀ
Res ult
ìĹ¬ ê¸°
ëķĮ ë¬¸ìĹĲ
ëł ī
c apt
Ġì§Ģ ë°©
ìĦ¸ ê³Ħ
ëıĦ ìĭľ
Ġe lect
ë§Į ìĿĺ
Ġinv est
ìĪĺ ë¡Ŀ
Ġíķĺ ë©°
Ð µ
Ġcon fig
is ed
ĠëĤ´ ë¶Ģ
ë¹ µ
ĠëĲĺ ìĹĪ
Ġim pro
Ġcon text
O m
Ġl ink
ë¬¸ ìĿĦ
ìĿĺ ë¥¼
ĠíĻĶ ìŀ¥
ĠìķĬ ìķĺëĭ¤
Ġì§ĳ ì¤ĳ
Ġs at
Ġì¢ĭ ëĭ¤
ì³ ¤
íĬ ľ
ps i
B uild
ìĪĺ ìĿĺ
ĠìĤ¬ëŀĮ ìĿĢ
ëŀ Ħ
en e
lo at
in clud
ëŀ ¬
ëĮĢ ìĹĲ
M essage
Ġap pe
Ġë² Ĺ
ĠìĿ´ ê³³
ord s
ëŀ «
ìĥĿ ê°ģ
å ħ
ëĦ ĺ
Ġpartic ular
ith er
4 00
Ġëĭ¤ ëĭĪ
Ġë°Ľ ìĿĦ
ìķĦ ê°Ģ
ĠF ig
ain s
ĠëĬĲëĤĮ ìĿ´
ĠP l
def ault
O O
) (
at ors
ê¸Ī ìĿĦ
ĠìĹ° ëĿ½
Ġen c
ĠìĦ± ìŀ¥
Ġë¹Ħ ìĬ·
Ġì½ ĺ
ìĿ´ ë¸Ķ
} _{\
def ine
I s
Ġë¬¼ ê±´
U N
ê° Ķëĭ¤
Ġìķ½ ê°Ħ
Ġa ff
Ġëķ ħ
íķĺ ëįĺ
ĠíĮ ¬
Ġc ap
Ġëª¨ ëį¸
Ġb ase
Ġon line
Ġë£ ¨
V al
Ġëĭ¹ ìĭľ
Ġê¸° ì¡´
ê´Ģ ê³Ħ
ìĿ´ëĿ¼ ë©´
íŀ Į
ëĭ¤ ëĭĪ
ë¶Ħ ìĹĲ
Ġëģ Į
Ġê·¸ëŀĺ ëıĦ
Ġìĭľ ìĬ¤íħľ
ê°ľ ë¥¼
ou ght
ë¡ľ ë¶ĢíĦ°
Ġë¶Ģ ëª¨
ì§Ģ ìĿĺ
ìĤ¬ ìĹĲ
ent ion
Ġìĭľê°Ħ ìĿĦ
Ġ- >
ref er
na ver
Ġt urn
. (
Ġc ur
D I
ìľ¼ ë©´ìĦľ
ir t
n al
ìĸ´ ëĸ
Ġë¶Ħ ëĵ¤ìĿ´
Ġw on
ord ing
Ġex c
â Ī
Ġacc ount
eqn array
Ġë³´ ê¸°
ìł¸ ìĦľ
Ġin clude
Ġìĺģ ìĸ´
ê²ĥ ìĿ´
Ġëª© íĳľ
U LL
Ġìłľ ì£¼
ĠìķĪ ëĤ´
ë¦° ëĭ¤
Ġsing le
st yle
ì¹ ¼
ìľ¼ë¡ľ ëĬĶ
ĠìłĦ ë§Ŀ
Ġìķ ķ
ĠìĦ ¼
Ġs chool
Ġto t
tain er
Ġas sum
ir d
Ġìĭľ íĹĺ
Ġì½Ķ ë¡ľëĤĺ
Ġì¢ħ ë¥ĺ
Ġo cc
ë¦¬ ë¡ľ
ëĳ ¥
Ġex ist
b t
íĶ ½
li ent
ë¡Ń ê²Į
ëĤ Ļ
om et
and s
i od
ëŁ¬ ìĬ¤
Ġë¹ Į
ĠëķĮ ëĬĶ
ĠìĨĮ ë¹Ħ
o le
ĠëĬ ¦
o ice
iv al
viron ment
ìĸ´ ëĤľ
F rom
Om ega
Ġê¸° ë¶Ħ
ë¬¸ ìĿĺ
Ġê³ł ëł¤
ĠU S
Ġì§ ľ
Ġj ava
ë¦ ĩ
6 5
ìī ½
o h
l im
4 9
ore d
Ġin itial
Ġpro b
Ġíŀ Ī
s ide
ĠìĹĨ ìĬµëĭĪëĭ¤
ëħĦ ìĹĲ
ac y
Ġ} ;
Ġ_ _
íķĺ ëł¤
ìĹħ ì²´
M odel
ad i
Ġcal led
pro t
Ġal ong
ìĦľ ë¥¼
res h
ìłķ ìĹĲ
ww w
ê¸° ìĪł
ìĻĢ ìĦľ
Ġgener al
íĶĦ ë¡ľ
Ġob serv
ê¹ Ķ
Ġg ot
ìłĦ ìŀĲ
ìĸµ ìĽĲ
Ġìĭ¤ ìĭľ
Ġb ig
ì² ¨
Ġëª¨ ìĸĳ
íĴ Ģ
ut ure
r id
Ġì£¼ ì°¨
Ġê³ §
Ġsom ething
Ġë¹ Ī
Ġd em
ëŃ Ĳ
Ġs ite
Ġm ov
ĠìļĶ êµ¬
Ġìĭľ ê³µ
Ġqu ality
ìĿ´ ë©´
one y
Ġme asure
yn am
g or
ict ion
ĠA p
b it
íı¬ ì¸ł
ê·¸ëŁ° ëį°
ëł¤ ìĦľ
Ġdes cri
)$ ,
ie ve
ëģ Ħ
ê¸° ê³ł
ìĹĦ ë§Ī
A nd
íĻ Ģ
Ġm ag
Ġt imes
id ual
ys is
D is
Y ou
at ter
ìĻ ľ
EN T
ide o
ëĤ´ ëĬĶ
r u
Ġê¼ ¬
íķľ ëĭ¤ëĬĶ
in clude
Ġì´ ¬ìĺģ
ĠìĦł ìĥĿ
pon se
Ġì «
ë Į
ë¡ ±
sq rt
capt ion
ĠìĿ´ ë²¤íĬ¸
Ġë¶Ģ ëĵľ
ĠìĻĦ ìĦ±
Ġë³´ íĺ¸
ëĵľ ë¦´
ĠëıĦ ìĽĢìĿ´
C C
ãħ ĩ
in fo
ëľ ¨
¾ Į
Ġse ver
Ġcl os
Ġê±° ëŀĺ
Ġìĭľ íĸī
Ġd at
ĠìĹ ¼
ĠíĶ¼ íķ´
Ġìļ°ë¦¬ ëĬĶ
ĠìĤ¼ ìĦ±
U S
Ġj ob
ìĺĢ ìĬµëĭĪëĭ¤
um ents
ëĭµ ë³Ģ
ĠìķĬëĬĶ ëĭ¤
ì½ ©
Ġì¢ĭìķĦ ìļĶ
ê·¸ ëŁ¼
Ġl ot
l ing
Ġì£ Ħ
mer ic
ĠëĤĺ ë¥¼
Ġen g
ain t
Ġc he
ĠëĶ° ë¡ľ
ìĤ Ń
Ġcomp on
L oc
Ġback ground
ĠíĻķ ìĭ¤
Ġm ove
Ġal ready
G amma
b ook
Ġíĺķ íĥľ
ëĲ Ĳ
Ġê±´ ë¬¼
Ġc lear
---------------- ----------------
im ate
Ġì» ´
="../../ ../../
b ase
ĠìŀĲ ëıĻì°¨
u age
Ġdet erm
d own
Ġwe bs
Ġcor respon
Ġë§Ľ ìĿ´
ê°ľ ë°ľ
Ġn il
Ġë¬´ ìĬ¨
Ġê²¨ ìļ¸
T able
roll er
> &
ib ility
ëĵ± íķĻêµĲ
Ġdisc uss
e ps
ĠíĮĲ ëĭ¨
Ġë§ĪìĿĮ ìĹĲ
ĠíĿ ĺ
g t
ĠëĮĢ íķĻ
Ġre port
ì§Ģ ìķĬ
Ġc over
; &
Ġme an
Ġrequ ired
Ġë¨¸ ë¦¬
ìĥ ¤
Ġcom b
Ġdef ined
op er
Ġì§ĳ ìĹĲ
Ġì²Ń ìĨĮ
oc ial
íĮ ©
ëıĦ ëĬĶ
s u
Tr ans
en ame
in c
um e
ìŀĲ ë¡ľ
ì§ ĵ
Ġë¯¸ ë¦¬
H e
ĠìķĦ ëĭĪëĭ¤
ê°ľ ìĿĺ
Ġì´ ī
b ug
st art
ĠìķĪ ìĹĲ
4 7
ê·¸ ëĥ¥
ìķĺ ìĸ´ìļĶ
ou d
) '
ĠP h
O ut
ìº Ĳ
L e
ĠA d
Ġìĭľ ìŀ¥
text bf
ĠìłĦ íĺĢ
Ġne ver
gor ith
p ose
ê¼ ¬
Ġë´ Ħ
Ġu nt
ìĦ¸ ëĮĢ
ro du
ĠìĹ Ķ
Ġì°į ìĸ´
Ġ ĊĊ
Ġë¶Ħ ëĵ¤
ĠO r
Ġs ide
l t
In ter
) {
Ġ es
Ġê°Ĳ ëıħ
Ġl aw
ĠëĤĺ ë¬´
í ĩ´
us ing
ê·¸ëŁ¬ ëĤĺ
U p
ĠìĿ´ ëĬĶ
' '
Ġìµľ ëĮĢ
ãİ ¡
ĠìľĦ ìĹĲ
Ġê º¼
L og
b ed
ë³ ¶
A P
k s
r ist
Ġm essage
n on
re ate
ĠëĶ°ëĿ¼ ìĦľ
S er
n ext
ĉĉĉĉ ĉĉ
sub section
Ġì²´ íĹĺ
15 0
b m
end ed
Ġd one
19 7
ìķ ¤
ĠìĹ¬ëŁ¬ ë¶Ħ
âĻ ¡
Ġìĸ´ ì©
ĠëĶ° ë¥´ë©´
Ġc a
Ġneed s
Ġë§ĪìĿĮ ìĿĦ
ĠS c
Ġb en
Ġro om
ĠìĬ¤ ìĬ¤ë¡ľ
ìĦ Ń
Ġstud y
ĠìĹħ ì²´
Ġg ame
Ġpr act
or n
pl ace
Ġíĥ Ŀ
Ġpro m
ëĤĺ ê²Į
Ġbel ow
Ġme ans
ĠíĽĦ ê¸°
ĠìĹĨ ìĿĦ
ĠìĿ¸íĦ° ëĦ·
ëĵľ ìĭľ
ëĶ ±
R eg
ĠìĹĨ ìĹĪëĭ¤
Ġcomp let
M anager
and om
ĠìĿ¸ ìĥĿ
Ġ( $
ìĬ¤ ìĿĺ
o ption
p ing
ĠëĤ Ļ
Ġsh ort
oo se
ĠíķĻ ìĬµ
ab ly
ĠE n
ĠP r
ĠìĪ ¨
ëĤ ©
ëĸ ¡
Ġê°Ģ ì§Ħ
ĠêµŃ ìłľ
ĠëĮĢ ë¹Ħ
ì¢ Ģ
ë°Ķ ìĿ´
Ġc ou
ĠìĹħ ë¬´
Ġíķ µ
Ġa ction
íģ °
ĠìĺĪ ìģĺ
ìĹ¬ ëŁ¬
T H
Ġìĭľ ìĽĲ
ĠN o
ìĿ´ëĿ¼ ëıĦ
ë° ¤
ãħľ ãħľ
Ġíķł ìĿ¸
Ġë°© íĸ¥
Ġf our
Ġre search
ìĦ± ê³¼
ê²½ ë§¤
ìľ¼ë¡ľ ìį¨
Ġìĵ ¸
ĠìľĦ íĹĺ
Ġëĵ¤ ê³ł
ìĹ ½
ip le
íģ¬ ë¦¼
ì²ĺ ìĿĮ
Ġso ft
Ġê³Ħ ìķ½
Ġíĺ¸ íħĶ
che ck
ĠHow ever
Ġìĥģ ëĮĢ
t es
Ġê°ķ íĻĶ
Ġì° ¬
ìĺ µ
Ġê°ľ ìĦł
in it
íĸĪ ì§Ģë§Į
ĠëĤĺ ìĦľ
Ġd ue
B C
Ġs rc
ì¡° ê±´
end ing
Ġë¶Ģ ëıĻìĤ°
Ġunder stand
Col or
Ġê½ ¤
ic ro
cont ent
8 8
Ġê³³ ìĿ´
ì» ´
íķĺ ìħ¨
ĠìĻ¸ êµŃ
Ġë¹¨ ë¦¬
ĠĠĠĠĠĠĠĠ ĠĠĠĠ
Qu ery
Ġê³µ ìĹ°
ĠìĦ ¬
ë¹Ħ ê°Ģ
Ġsim ilar
Ġd ays
Ġë¶Ģ íĥģ
Ġê¹¨ ëģĹ
) =
ĠW hen
Ġstand ard
Ġl ay
ë§Ī ìĿĦ
4 6
A p
Ġêµ¬ ê²½
ìĥģ ìĿĢ
Ġíĺ Ī
ĠìĥĿê°ģ ìĿĦ
l ight
m ethod
is tr
ĠA t
Ġd om
ë¶Ģ ìĤ°
ëĤĺ ê³ł
ê²½ ìłľ
ìľ¼ë¡ľ ëıĦ
Ġë¬ »
ìļ´ ëıĻ
> (
êµ¬ ë¥¼
ì¤ ¬
ĠB e
ê³Ħ íļį
ĠìłĦ êµŃ
Ġëĭ Ī
Ġë§¤ ìĿ¼
Ġì¡ ¸
Ġì£¼ ìļĶ
Ġ$ {\
Ġíķĺ ê²Į
Ġb ro
ìķĺ ëĬĶëį°
ĠĠĠĠĠĠĠĠ ĠĠ
Ġse ction
ĠìķĦ ë²Ħ
ë¶Ģ ë¥¼
con text
Ġ ãħĭ
ìĬ¤ íĨł
j ava
ì¶Ķ ì²ľ
ĠìĬ¤ ë§ĪíĬ¸
end er
Ġë¯¸ ëŀĺ
s ign
Ġì¶Ķ ì§Ħ
ĠíĺĦ ìĭ¤
Ġwork ing
m y
re en
ìĹ¬ ìĦľ
Ġp arent
ìĭ¬ ìĿĦ
í ľĺ
ĠìĿ´ìľł ëĬĶ
ê²ł ìĸ´ìļĶ
ë³´ ìĦ¸ìļĶ
ìĭľ ê¸°
Ġìĺģíĸ¥ ìĿĦ
is f
v are
Ġê²½ìļ° ìĹĲëĬĶ
! "
d oc
or age
ivers ity
ì§Ģ ê²Į
ĠW ith
stru ction
on se
ĠìĤ° ìĹħ
Ġse arch
Ġë§Ľ ìŀĪëĬĶ
c all
m p
ë¹ Ļ
ers ion
Ġb ody
Ġê·ľ ëª¨
âĸ ²
ìħĶ ìķ¼
ë» Ĳ
O P
Ġíķ´ ìĻ¸
Ġê·¸ëŁ° ëį°
Ġìĸ´ ìļ¸
T D
Ġìķ ¡
ĠíļĮ ìĤ¬
Ġíķĺ ëĭ¤
id es
ĠìĨĮ ìŀ¬
ann el
9 5
ê°Ģ ìĦľ
ëĿ¼ ìļ´
Ġíİ ¼
Ġâ Ĺ
U ser
ê¼ ¼
Ġstr ong
Ġë§ŀ ëĬĶ
Ġresp onse
if ier
Ġê°ģ ê°ģ
íķĺê¸° ëıĦ
-- -
īìŀ¥ íŀĪ
Ġëĭ¬ ëĿ¼
Ġv ol
ìĹĲìĦľ ìĿĺ
ë¦¬ ê¸°
vare psilon
i j
ĠìĬ µ
F il
Ġchild ren
Ġm us
ĠëĴ ·
4 2
Ġê²½ ìŁģ
ê³¼ ëĬĶ
P l
ĠS et
ìĿ´ ìħĺ
ub l
A M
ĠìĤ¬ì§Ħ ìĿĦ
âĢ ¤
Ġne ar
Ġf ocus
pos ed
ìļ° ëĬĶ
Ġle arn
ëĲĺ ìĹĪ
Ġse c
f ect
Ġê²Ģ ìĥī
Ġâ ĺ
íļĮ ê°Ģ
ĠíĿ ¥
Ġproduct s
Ġëĵ± ìŀ¥
íĸĪëĭ¤ ê³ł
Ġs che
\ !
ê°Ģ ìļĶ
Ġê°ĸ ê³ł
Ġëģ ¼
Ġ è
ìĻĢ ìĿĺ
Ġm aking
Ġëª» íķľ
a im
im ension
ìĸ´ ë¥¼
Ġass oci
^{ (
Ġê³µ ëıĻ
Ġí ĩ´
} =
in ary
Ġë° ĸìĹĲ
ë¨¹ ê³ł
ĠìĬ Ī
D O
ë§Ľ ì§ĳ
d o
ĠëĪĪ ìĹĲ
ĠìĤ¬ íķŃ
ëĭ ī
a f
ĠíĿ ¡
Ġìĺ¤ ë¥¸
ĠëĶ° ëľ»
ëĨĵ ê³ł
Ġë¬¸ìłľ ê°Ģ
ìĥģ ëĭ´
id s
ìķĦ íĮĮíĬ¸
Ġeas y
Pro perty
ëĵ¤ ìĹĲ
ear ch
r ing
Ġìķŀ ìĹĲ
íķĺ ëĭ¤ëĬĶ
p ackage
Ġë¹Ħ ìļ©
Ġm atch
ë Ģ
Ġmodel s
c ss
Ġìŀĺ ëª»
ì¼ °
Ġìĺ¤ ëŀľ
å ®
an el
ĠA meric
Ġin div
Ġout put
ìĽ ħ
ect or
Res ponse
c ul
Ġto get
ìĿ´ ëĭĪ
ëĭĺ ìĿĢ
Ġc ell
Ġê³µ ê¸ī
Ġtoget her
Ġh ist
ê±° ëŀĺ
Ġd ocument
d f
Ġvis it
ro om
j oy
ĠìĤ¬ ëĬĶ
Ġë² ½
ê²½ ê¸°
Ġìŀ Ĭ
âĢ »
Ġë¶Ħ ìķ¼
ëĮĢ íķĻêµĲ
ìĹ° íŀĪ
íĹ Į
Ġc ount
ĠThe se
Ġë²Ī ì§¸
ĠìŀĪ ìľ¼ë©´
Ġìłķ ì±ħ
}^ {\
Ġìĥ ¤
íĶ¼ ìĬ¤
Ġ\ ,
c ount
ĠìĿĺ íķ´
ìĬ¤ëŁ½ ê²Į
Ġì»¬ ëŁ¬
Ġm om
Ġunt il
íĵ¨ íĦ°
Ġëĥ ī
Ġë§Į ëĵľëĬĶ
Ġìłľ ê±°
ëĭĪ ëĭ¹
am ples
Ġê²½ìļ° ê°Ģ
Ġì Įĵ
Ġre cent
Ġì į
f alse
Ġle g
Ġë§Ī ë¬´ë¦¬
et er
C lient
ê·¸ ëłĩ
ê°Ģ ê³ł
ëª ¸
Ġì£¼ íĥĿ
g ress
C all
ĠëĮĢ ìĭł
Ġle ast
ist ic
in a
íŀĪ ëł¤
og raph
Ġpoint s
Ġsim ple
Ġb ool
Ġë°Ľ ëĬĶ
Ġì¤ĳ ìĹĲ
ĠìĹĨ ìĸ´ìĦľ
ìĿ¼ ìĹĲ
ê°Ģ ìĿĺ
Ġt ask
ìĺģ ìĥģ
ĠìĤ¬ ëĿ¼
Ġpre vious
Ġëĵ± ìĹĲ
Com m
ĠìŀĪ ëĬĶëį°ìļĶ
Ġd en
Ġterm s
Ġì£¼ ê³ł
ĠìĦł ìĪĺ
ĠS he
ëĤ´ ê³ł
Ġd ri
ĠìĿ´ ëĤł
Ġme et
Ġë³Ħ ë¡ľ
Ġì¡° ìĤ¬
includ eg
ê¸° ìĻĢ
I L
includeg raphics
ent al
======== ========
c ore
is ing
ĠB l
Ġë° ĳ
ĠT V
Ġf ac
Ġì Į
se lect
Ġìłķ ì¹ĺ
C ount
go ogle
P r
A ut
Ġsh own
ë¶Ģ ëĬĶ
Ġë ĺĳ
Ġm aterial
ĠëĪĦ êµ¬
Ġb it
ëıĦ ìĹĲ
ĠT e
Ġexpect ed
Ġs al
Ġìľ ¼
ri or
Ħ ìĥĪ
C E
ìŀĲ ë¦¬
Ġê°Ģ ìŀħ
st atic
Ġas k
Ġp ort
o ptions
Ġto ol
Ġlook ing
íĺĦ ìŀ¬
ĠìĿ¼ ëĭ¨
n s
Ġë¶Ħ ëĵ¤ìĿĢ
Ġìłľ ìĭľ
Ġto day
Ġì¢ĭ ê³ł
Ġpot ential
ìĥģ íĴĪ
ï ¸
ìĥģ íĥľ
] (
and roid
ĠìŀĪëĭ¤ ë©´
f unc
íŀ ĺ
Ġíĥ ĢìĿ´
cre en
Ġfe atures
ith ub
d b
1 20
íĬ¸ ë¡ľ
ëįĶ êµ°ìļĶ
n ow
ĠíĽ ¨
Ġl arg
ĠëŃ Ķê°Ģ
ê² Ĳ
ĠíĬ¹ ì§ķ
8 5
pro of
ëĭ Ĳ
ìķĦ ë¬´
r angle
ĠëĦĺ ìĸ´
ĠìĿ´ ìĹĲ
Ġparamet ers
ìķĦ ìķ¼
êµŃ ìĿĺ
ìĺģ íĻĶ
Ġl ength
ĠëıĦ ìĻĢ
ëĲĺ ë©´
Ġw idth
ëĭĺ ìĿĦ
ĠíĶĦ ë¦¬
Ġê´Ģ ê´ĳ
Ġíķĺ ëĭĪ
u ation
re l
ë©Ķ ëī´
, "
ain ed
Ġ !!
H E
de v
Ġf ood
ìłĦ íŀĪ
Ġof ten
w id
ĠìĿ´ìķ¼ ê¸°ë¥¼
Ġtot al
Ġk ind
Ġëĵ± ë¡Ŀ
ĠìķĦ ìī¬
R ead
Ġp aper
ëĿ¼ ìĬ¤
k m
Ġem ploy
ê° Ĵ
or th
Ġo ption
ìĿĮ ìĿ´
ìª½ ìľ¼ë¡ľ
Ġcour se
Ġì² ¨
M S
Ġpr int
Ġíĸī ëıĻ
Ġë¹ µ
Ġê³ ¡
Ġíķĺ ìĭľ
ap s
ë©Ķ ëĿ¼
Ã ©
Ġì¶ľ ë°ľ
ou th
em ph
Ġstud ents
ĠëĦ£ ê³ł
ĠëŁ ¬
cl us
Ar g
; </
Ġëª» íķĺê³ł
Ġe ither
Ġë§Ĳ ê³ł
Ġs olution
Ġsever al
p en
7 7
Ġì§ §
ï ½
ë ½
N A
right arrow
âĹ ĭ
Ġ q
Ġt reat
Ġëĵľ ëŁ¬
ãĢ ı
Ġì£¼ ë§Ĳ
íķł ìĪĺ
ëĭ Į
ëĵł ì§Ģ
íĻ Ī
Ġê³µ ê²©
er c
ip s
êµ¬ ë§¤
íķ¨ ìĿ´
N ew
ol l
Ġë°Ķ ëĭ¤
m ult
Ġëį ľ
Ġst d
Ġë³´ ìĿ¸ëĭ¤
Ġìłľ ìĻ¸
pr int
al f
Ġê² ģ
ìĹħ ìĿĦ
Ġìº ł
ä ¹
Ġë§ĪìĿĮ ìĿ´
Ġì§ĢëĤľ íķ´
we b
B ig
ch i
Ġë¹Ħ íķ´
ìķĦ ì§Ģ
Ġindiv idual
ëĴ ¤
ìĤ¬ ìĻĢ
Ġíĺ¹ ìĿĢ
ìłķ ìĿĺ
ĠíĸĪ ìĬµëĭĪëĭ¤
Ġval id
Ġperform ance
b uild
âĳ ł
Ġf un
ar ing
íĥ ĳ
ìĦľ ë¹ĦìĬ¤
ìĽĲ ìĹĲìĦľ
ĠëĤ¨ íİ¸
Ġê·¸ëŁ° ì§Ģ
ĠíķĦ ìĪĺ
ìĦ¸ ë¥¼
Ġíĭ Ģ
ë£ ©
Ġf ore
Over ride
ĠëĳĲ ê³ł
B e
Ġê¸Ī ìľµ
M od
ĠìĺĪ ìĪĺ
ew ork
Ġlim it
M ethod
old er
ĠA dd
íĶĦ íĬ¸
ìĸĳ ìĿ´
ë§Ī ìŀĲ
Ġli k
å ı
ê°Ģ ëĿ½
o pt
Ġëģ Ĭ
Ġqu ant
act ory
m ark
Ġspec ific
âĶĢâĶĢ âĶĢâĶĢ
ëĭ Ń
Ġê± ·
Ġap p
ëĵľ ë¡ľ
ĠìŀĲìĭł ìĿ´
Ġëĭ¬ ë¦¬
Ġë°ľ ìłĦ
Ġ ãħł
Ġwebs ite
N o
Ġê°ķ ì¡°
Ġë°Ķ ìĿ´
Ġorig inal
Ġa way
ê³Ħ ë¥¼
im ation
ĠëĤĺ ëĪĦ
ill s
ì¶ ¤
Ġë°Ķ ëĢ
ĠìķĬ ìĬµëĭĪëĭ¤
Ġagain st
Ġëĭ¤ ë¥´
th ers
íı ´
Ġchar acter
íĶĦ ë¦¬
Ġë¶Ī íİ¸
íĻĶ ê°Ģ
íģ Ĳ
Ġstruct ure
Ġw indow
ĠëıĻ ìĭľìĹĲ
] [
( (
Ġw hether
Ġind ust
ĠL e
act ive
aj or
o pe
Ð ¸
Ġìłķ ìĥģ
ë¶ Ļ
Ġì¢ĭ ìĬµëĭĪëĭ¤
% ,
g ithub
ge q
Ġshow s
Ġh um
íķĺ ëıĦë¡Ŀ
ĠìŀĪ ëĭµëĭĪëĭ¤
ĠThe n
S P
=" ../
Ġìĺ¤ ìłĦ
Ġì£¼ ìĿ¸
oc ol
Ġtr aining
n amespace
cent er
ê¶Į ìĿĦ
ï¸ ı
ĠìĬ¤íĥĢ ìĿ¼
W h
Ġë¸Ķ ëŀĻ
c urrent
ë ¤
íķĻ ê³¼
ê²ł ëĭ¤ëĬĶ
íĸĪ ìĿĦ
Ġìŀ ĥ
h and
A d
ĠâĢ ĺ
ĠíĻĪ íİĺìĿ´ì§Ģ
Ġê² ©
ìķĪ ìĹĲ
se mb
Ġs pect
G roup
Â·Â·Â·Â· Â·Â·Â·Â·
Ġh aving
Ġab s
Ġ ðŁ
Ġst re
Ġen ough
ë¶Ģ ê°Ģ
Ġcont act
Ġìļ° ìĦł
8 00
Ġë³´ íĨµ
Ġsat isf
ë¬¼ ë¡ł
Ġc ertain
a i
ĠëĤĺ ëĪ
on y
ĠìŀĪ ìĿĮ
ëĭĺ ëĵ¤
ìķĺ ëįĺ
o op
Th ere
Ġm ot
ìłķ ìĿĢ
ë§Į ìĿĦ
Ġan n
Build er
ëĵ¯ ìĿ´
Ġì¡° ì§ģ
ens ity
Ġl oad
ä »
Ġbu y
arg in
Ġì ³
Ġê°Ģ ìĬ´
St ream
P re
Ġ< <
ĠìĿ¼ ìĸ´ëĤĺ
ĠìĦ Ń
ent ly
Ġìľłëªħ íķľ
Ġm akes
a ff
ĠìĿ¸ ì²ľ
Ġìĭ ±
. ~\
Ġkn own
L et
ĠIn st
Ġdis play
ì°¨ ë¥¼
ĠìłĦ ìĭľ
ìĥ µ
as ing
ill ion
Ġcl ient
Ġparamet er
Ġëĵ ł
ëł Ģ
ìķĪ ìĿĦ
Ġpre d
Ġì¤ĳ ê°Ħ
Ġíĺ ľ
ast ic
i ke
ve c
ĠìĺĪ ìģľ
ĠëĿ¼ ìĿ´
E E
âĳ ¡
ë¦¬ ì¦Ī
Ġdif f
Ġíıī ê·ł
il t
ëħ ¼
ìľ¼ë¡ľ ìĦľ
íĿ ¡
Ġit em
Ġr ate
Ġìĺ¨ ëĿ¼ìĿ¸
å Ń
ì¦Ŀ ìĿĦ
Ġâ Ķ
Ġê°ĢëĬ¥ íķ©ëĭĪëĭ¤
Ġê³ł ê¸ī
F r
c ast
ãģ ®
=" #
ì» µ
íķĻ ëħĦ
íĭ ´
ê´Ģ ìĿ´
ê°Ģ ê¸°
Ġë° ĸ
ĠìĤ¬ìĿ´ ì¦Ī
?? ?
¸ ëĵľ
Ġc ard
Ġë¶Ħ ëªħ
Ġë¹Ħ ë¡¯
n ull
ë³Ħ ë¡ľ
E nd
ìĨĮ ë¦¬
av el
over line
le y
ì»¤ íĶ¼
ĠíĽ¨ ìĶ¬
Ġst ep
s up
ĠìľĦ íķĺìĹ¬
Ġ ****
Ġêµ īìŀ¥íŀĪ
le v
Ñ Ĥ
Ġl ang
6 00
Ġë³´ íĹĺ
ĠN ULL
ëĭ¨ ê³Ħ
r un
Ġm oney
rou ps
ĠìĦł ìłķ
ìķĦ ëŀĺ
Ġë³Ģ ê²½
ĠìķĦ ë§Ī
Ġind ic
Ġprof ession
e vent
var phi
] )
ĠI N
im age
ìŀ ī
Ġgo ver
l ib
Ġìļ°ë¦¬ ëĤĺëĿ¼
ĠìķĪ ìłķ
at form
Ġtr ad
ì¤Ģ ëĭ¤
4 1
Ġì£¼ ìŀ¥
íİ ľ
ëĳĲ ê³ł
ĠìłĪ ëĮĢ
Ġê°ģ ì¢ħ
Ġre ason
Ġprovid ed
Ġì§Ģ ì¼ľ
ur y
4 3
ĠìĨĮ ë¦¬
íĻľ ëıĻ
In put
e lement
Ġì¼ Ģ
ë¦ ī
om en
ìŀĲ ìĻĢ
ê²ł ëĭ¤ê³ł
. }
Ġì§Ģ ê¸ī
ìłĦ íĻĶ
Ġp ast
p age
Ġam ount
( ?)
' re
ìŀĸ ìķĦìļĶ
ĠĠĠĠĠĠĠĠĠĠĠĠĠĠĠĠ ĠĠĠĠĠĠĠĠĠĠĠĠĠĠĠ
is on
ê±´ ê°ķ
Ġ( )
ëĬĲ ëĥĲ
ab ase
Ġper iod
ĠìĹ ĺ
Ġbe come
ĠíĽ Ī
Ġc reat
Ġwh y
ë© ĺ
Ġf ar
Ġph ys
ĠìĽĲ íķĺëĬĶ
íķĺ ë£¨
ĠB y
ìĤ¬ ê³ł
ĠëĲĺ ì§Ģ
ĠS p
Ġreg ion
ëł¤ ë©´
6 7
Ġíĥ Ĳ
Ġë°ĺ ìĿĳ
ìĿ¼ ë³¸
Ġre view
ëŁī ìĿ´
íĿ Ĳ
x y
ê°ľ ìĿ¸
} ).
Ġâ Ļ
u ro
Ġf a
cl ient
Ġf uture
ìª½ ìĹĲ
ì¹ĺ ë£Į
r ation
ìŀĪ ê²Į
Ġë¹ł ë¥´ê²Į
Ġim plement
ĠO ur
E X
s i
5 9
Ġì£¼ ìĿĺ
ì² «
Ġn at
íķł ëķĮ
ë¶Ħ ìĿĦ
P C
Ġc lean
ëģ Ī
ON T
Ġëģ ĵ
ĠëĮĢ êµ¬
Ġìĭ¶ ëĭ¤
ĠìĻĢ ìĦľ
Ġen joy
ëĤ ¼
Ġf urther
ëĮĢ íĳľ
Ġë§ ¨
R ec
ì¹´ ëĵľ
ĠC ent
ĠìĪĺ íĸī
ìĨĮ íķľ
ĠìķĦëĭ Ĳ
k g
A G
Ġëĳĺ ëŁ¬
ateg ory
ìĹĪ ì§Ģë§Į
Ġíģ´ ë¦Ń
Ġìĺ ®
Ġìŀł ìĭľ
Ġë§ŀ ì¶°
ìĿ¼ ë°ĺ
Ġt re
ì¤ įëĭĪëĭ¤
ĠI s
Ġì½ ľ
ë¡ ¤
ëģ Ŀ
ic ense
[ \
ĠC an
Ġìŀ¥ ìĨĮ
ìŀ¥ ìľ¼ë¡ľ
ë¦Ń íĦ°
ëĵ ¬
Ġmethod s
B ar
ìŀĲ ëıĻì°¨
in ing
Ġì¤ĳ ìķĻ
Ġìĺ¤ íĶĪ
gorith m
il ities
ìłľ ëĬĶ
ìĿ¼ ëĭ¨
ìĦ± ìĹĲ
qu ery
w ise
Ġê° Ķëĭ¤
ĠìķĦëĭĪ ê³ł
St atus
ĠìĤ¬ ë¬´
Ġsystem s
ì¶ľ ì²ĺ
Ġh ouse
Ġì¶ľ ìĭľ
ust er
ĠìĪĺ ìĿµ
ìŀĲ ëĵ¤ìĿ´
ëĨ ĢìĿ´
ìĿ´ìĸ´ íĬ¸
Ġcomp lete
ëĦĪ ì§Ģ
Ġappro ach
e ction
Im age
Ġfunction s
Ġh ost
Ġwe ight
ĠìĿ¸ íħĮë¦¬ìĸ´
U til
Ġac ross
m ost
Ġf low
ìĤ° ìĿĦ
f low
D ate
ë§Į ìĿ´
Ġìłģ ê·¹
Ġsign ific
ì¥ ¬
ĠD es
Ġëĭ¤ ê°Ģ
) </
âĻ ¥
Ġê°Ģ ê²Į
Ġìĭľ ì¦Į
Ġë°ĺ ëĵľìĭľ
& \
ìĸ´ ì§Ħ
Ġì£¼ ë¯¼
Ġand roid
d raw
d ir
ë² ¼
ĠTh at
he ight
Ġì§Ģ íķĺ
ëĮĢ ëĬĶ
Ġst op
ver age
Ġìĭ¤ ìłľ
Ġìĸ µ
íļĮ ìĤ¬
pl ied
ĠìĿĺ ê²¬
ëĮĢ êµ¬
ward s
ë©´ ìĿĦ
Ġf und
Ġëĭ Ń
Ġë »
Ġap plication
ìħ Ģ
Ġì²ĺ ë¦¬
Ġë§İ ìķĦ
ìķĦ ì§ģ
S ub
ìĿ´ ì£ł
d it
ver se
f ort
Ġben ef
Ġn um
Ġcon c
Ġper fect
b utton
ìĦ± ìĿĺ
Ġp o
ic ation
ut es
Ġíķľ ëĭ¤ëĬĶ
ç Ķ
ìłľ ì£¼
ëģ Į
C ell
ĉ Ċ
ìł ¤
ĠG r
Ġw rite
Ġa ir
Ġbeg in
ĠìĤ¬ëŀĮ ëĵ¤
ê³µ ê°Ħ
Ġl ower
ĠìĹĲ ìĸ´
F I
ìĿ¼ ìĿĢ
ìĬ¤ íħĮ
Ġinv ol
in o
ì£¼ ì°¨
Ġì±Ļ ê²¨
P S
Ġëĵľ ëĿ¼ë§Ī
Ġëĸ ¡
ĠíĻķ ëĮĢ
ìļ° ê³ł
Ġì¡° ê±´
Ġmem bers
ëŀĺ ëıĦ
Ġê·¼ ì²ĺ
ĠìĹŃ ìĤ¬
aram s
ĠëĮĢ ìĥģ
Ġë¶ģ íķľ
Ġev ents
G ener
< !--
Ġíİ¸ ìķĪ
ĠG o
Ġon ce
Ġdevelop ment
un g
âĢ¦ âĢ¦
Ġì±ħ ìĿĦ
ĠE ng
}, \
ìĭł ìĿĺ
Ġcommun ity
Ġìĸ´ëł¤ ìļ´
> >
Ġl a
ëª ½
( {
Ġë§Ī ìĿĦ
ìĺ ·
ìŀĪ ê³ł
ìłģ ìĿĦ
ìĸ´ ë³´
row s
5 7
ĠD o
ë§ ĺ
æ ĸ
ì£¼ ë¥¼
Ġl abel
ĠìŀĲ ë£Į
requ est
Ġen vironment
Ġbe aut
ìĦ± ìĿĢ
ìĿ´ ìĻĢ
ir m
ëł ģ
ĠìĿ´ ê±°
Ġcl ose
19 6
ĠíĨµ íķ´ìĦľ
Ġìĸĺ ê¸°
Ġfollow s
Ġtr ack
ì£¼ ê°Ģ
Ġb oolean
Ġì±ħ ìŀĦ
or ph
olut ions
ĠC o
íķĺ ìĭľê³ł
ìĦ ¬
c y
ì§Ī ìĿĦ
Ġê·Ģ ìĹ¬
ak en
ĠL et
ë³ĳ ìĽĲ
ot ype
Ġinst all
ĠìķĮ ê²Į
Ġcomm on
íŀ Ĳ
ĠI m
c ase
Ġd er
êµ¬ ê°Ģ
ê´Ģ ìĿĦ
ë³µ ì§Ģ
Ġê³¼ ê±°
ag ram
Ġíķĺ ëĦ¤ìļĶ
íķ´ì£¼ ìĦ¸ìļĶ
Ġb order
i res
ìŀĲ ìĹĲ
ê°Ģ ë£¨
rit er
ĠíļĮ ìĽĲ
Ġap ply
ìłĲ ìĿĢ
Ġê¸° íĥĢ
bl og
íĮĲ ë§¤
Ġint rodu
B lock
g ener
P aramet
m ember
R ef
ìĿĦ ê¹Į
' (
C D
Ġprovid es
I M
ê¸¸ ëŀĺ
Ġìĺ ¥
6 8
P os
arg s
ĠM y
Ð ½
Ġcomp lex
ì¡° ê¸Ī
Ġre d
âĢ ¢
) ^
ìĬ¤ ìĹĲ
ĠëĦ¤ ìĿ´ë²Ħ
Ġcondition s
ëĭ¨ ì§Ģ
ĠëĤ¨ ìķĦ
ĠëĤ ©
Ġpro perties
t x
ìŀ¥ ëĭĺ
ìľĦìĽĲ íļĮ
Ġ é
ĠUn iversity
ra ft
ĠCh rist
ĠíĸĪ ëįĺ
5 8
ë©´ ìĹĲ
Ġ vert
ĠìĺĪ ë°©
ê´ ´
Ĭ ìĿĢ
ë ®¤
ma z
ê·¸ ë¦¼
d om
Ġperson al
ë´ Ħ
In stance
ëĥ Īëĭ¤
íķ´ ì§Ħ
ìĽ ¨
Ġê±´ ì¶ķ
;; ;
Ġìħ Ģ
Ġê·¸ ëķĮ
h line
Ġì§Ģ ëıĦ
_ -
ë¹ ¨
Ġê°ĳ ìŀĲê¸°
or ld
av or
Ġun ique
Ġëĭ¬ ëł¤
ph p
ĠìĤ¬ìļ© íķł
Ġ ...
Ġdistribut ion
Ġëĵ£ ê³ł
Ġg raph
Ġìĺ¤ íŀĪëł¤
ì§Ģ ê¸°
c irc
ìķĦ ì¹¨
Ġê°ľ ëħĲ
fr ak
Ġìĭľ ìĦ¤
Ġëĭ¨ ìĪľ
ê²Į ìŀĦ
ë´Ĳ ìķ¼
S tr
ìľ¼ ìĭł
Ń ī
ĠìŀĲ ê²©
ou ch
led ge
ĠìĤ¬ìļ© íķĺëĬĶ
Ġf it
ĠĠĠĠĠĠĠĠĠĠĠĠĠĠĠĠ Ġ
ug in
Ġê·¸ ëŁ¼
C K
Ġne cess
port un
Ġê²½ ë§¤
Ġìĺģ ìĥģ
H T
Ġcontin u
Ġh ot
Ġìłķë³´ ë¥¼
ch ild
Ġëª¨ìĬµ ìĿ´
ì¤ĳ ê³łì°¨
ex p
} }$
To ken
qu ence
Ġv ia
Ġê°Ģ ìĿĦ
ĠíĽĦ ë³´
Ġê´ĳ ê³ł
Ġpr ice
íķľ íİ¸
Ġcom es
Ġc ut
ê°Ħ ìĿĺ
Ġê¼ ¼
Ġì£¼ ìĦ¸ìļĶ
ĠëĲ Ĳ
ĠíķĺëĤĺ ëĭĺìĿĺ
ld ots
Ġconst ant
c ap
Ġìĩ¼ íķĳ
ĠìķĦë¦Ħ ëĭ¤ìļ´
g le
ì¹´ ìĺ¤
var i
Ġëħ Ħ
Ġanal ysis
b olds
Ġhigh er
íı ¼
Ġm ajor
ĠìłĦ ê¸°
íĶ¼ ë¶Ģ
ìĭł ìĿ´
ĠCom m
ĠL ist
U L
ìĭ ¼
ë¨¸ ë¦¬
ĠìĽĲ ëŀĺ
ef ore
ĠìĹ¬ ìľł
ë° į
h as
V E
Ġìŀ ĩ
ê³µ ìĽĲ
ì ĵ
ë§Ī ì§Ģë§ī
Ġfe ature
is k
Ĳ ëŁ¬
ul ly
Ġê°Ģ ë¥´
ì°¨ ëŁī
AT E
Ġëª» íķĺëĬĶ
med i
Ġì°¨ ì§Ģ
Ġ` `
T V
ìķĪ ìłĦ
Ġqu ick
Ġìļ°ë¦¬ ìĿĺ
ĠìĿĺ íķľ
N ull
Ġê¸° ëħĲ
ym met
ê² ¹
Ġth ing
s el
ë ±
ë¬¼ ìĿĺ
ëª¨ ëĵł
Ġc opy
ĠT est
ĠìķĬ ê²Į
fin ished
Ġìĵ ´
ĠìķĦ ë¹ł
F A
Ġëĵ± ìľ¼ë¡ľ
ser ver
Ġrel ations
ìĭł ìĿĦ
ĠëıĻ ìĿ¼
ìĿ´ ìŀĲ
Y PE
iz er
ëĵľ ëł¤
add ing
ì§Ģ ë©´
Ġê³µ ìĭĿ
bolds ymbol
ĠW hat
ìĿ´ ëĤł
ê°Ģ ì¡±
ĠìĿ´ ìłĦ
Ġí Ģ
ìŀĲ ë£Į
å ľ
ne y
ĠìĻĦ ë²½
ãĢ Ĥ
ê²ĥ ìĿĢ
ëĵľ ë¦¬ê³ł
Ġíĺķ ìĦ±
s f
ĠãĢ Į
ë¯¼ êµŃ
Ġìµľê³ł ìĿĺ
ĠìĨį ìĹĲ
Ġvar ious
o ke
ìĭľ íĹĺ
Ġdet ails
t arget
Ġâ Ĩ
Com ponent
ë² ħ
y l
Ġn ormal
ëĭ ·
Ġgover n
U E
Ġwe b
ìĤ¬ ë¡ľ
ĠëıĦ ìĽĢìĿĦ
Ġs ocial
iv en
ìŀ İ
. '
N ext
iz ing
fo ot
ìĿ´ëĿ¼ ìĦľ
ob ile
O ptions
Ġê¸Ģ ìĿĦ
w ide
~ ^^
ĠìĹŃíķł ìĿĦ
ëĭ¨ ìĿĦ
con om
ĠìŀĪìĹĪ ëįĺ
Ġìĺģ ìĹħ
Ġì§ģ ìĽĲ
ì£¼ ë¡ľ
5 6
íķľ ë²Ī
Ġíķľ ëĭ¤ê³ł
Ġo thers
ri es
ìĿ¼ ë¶ĢíĦ°
ĠìłĦ íĨµ
Ġim p
ìĶ¨ ëĬĶ
ìŀĪ ìĸ´ìĦľ
Ġtyp es
ĠëĤĺ ëıĦ
íķĺ ëĿ¼
Ġìłľ ì¡°
ĠìķĦ ëĬĶ
itt ed
Ġê³µ ìľł
ë£ ¡
g es
ëŀ ©
Ġa ch
ĠìĤ¬ëŀĮ ëĵ¤ìĿĢ
ĠM ar
ìĸ´ ì£¼
Ġle arning
G L
Ġn eg
Ġê±° ë¦¬
ĠíĽĦ ìĹĲ
ĠìĻĦ ë£Į
ê¸° ì¤Ģ
L ambda
Ġì§ Ĳ
Ġ+ =
Ġëĭ¨ ê³Ħ
p c
y les
L ine
ĠìĤ¬ëŀĮ ìĿĦ
L ay
ĠìłĦ ëĭ¬
Ġap plic
íıī ê°Ģ
? !
Ġ ;
Ġcan not
Ġwork s
dis play
ìĨĮ ìĹĲ
ìĭł ì²Ń
ìŀĲ ìĹĲê²Į
Ġu nd
ëĭ¨ ì²´
Ġsignific ant
ĠC ar
ĠìŀĪìĹĪ ëĬĶëį°
ëĮĢ íķĻ
ìŀĪ ìĸ´ìļĶ
V ER
Ġìłľ íķľ
Ġê°Ģ ê³ł
Ġì¶©ë¶Ħ íŀĪ
Ġê³ł ê¸°
ë²Ħ ìĬ¤
Ġê¾¸ ì¤Ģ
Ġ ^
ĠìľĦì¹ĺ íķľ
Ġgl obal
ank s
g ing
Ġê±´ ìĦ¤
ĠíĸĪ ì§Ģë§Į
on es
Ġn ight
ìĨĮ ê°Ģ
Ġíĥ ĳ
W hen
ê·¸ ëłĩê²Į
ì§Ģ êµ¬
Ġimpro ve
l in
d s
Ġde al
Ġstr ateg
Ñ Ģ
Ġìŀħ ìŀ¥
s ing
Ġë§Ī ì¹ĺ
ìĿ¼ ê¹Įì§Ģ
H ead
ìĿ´ ë¯¸
íĪ¬ ìŀĲ
Ġdoes n
Ġth ought
ache d
ìµľ ê·¼
Ġp ack
ë° Į
un ch
ëĤĺ ëıĦ
At tribute
b oard
Ġcol l
Ġse en
Ġc irc
ens or
ìĭľ ëĭ¤
ig ation
ìŀĪ ìĬµëĭĪëĭ¤
Ġë°Ķ ëĭ¥
ëŁ¬ ìļ´
app end
ire ction
Ġê¸Ī ìķ¡
i i
âĢ Ķ
ĠíĻķ ë³´
ìľ¼ ëĭĪê¹Į
k r
ov ed
ĠìĿ Ħ
Ġìľł ëŁ½
Ġop portun
ĠìĹ¬ê¸° ìĦľ
og n
H ow
ìĿ´ ìĿĺ
ëĤ´ ìļ©
c an
Ġê²½ ì°°
mod ule
ĠìĦ¸ ìĥģ
Ġê² ª
p arent
âĸ ł
Ġí ľĺ
) -
Ġd ate
Ġw in
F ig
Ġìĺ¤ëĬĺ ìĿĢ
B ase
ëĸ ¼
' m
ì§Ģ ìĻĢ
ë§ ¹
íķľëĭ¤ ë©´
Ġelement s
ĠìĤ¬ëŀĮ ìĿĺ
êµ¬ íķĺê³ł
Ġex act
Ġcre ated
ĠI nt
êµ¬ ì¡°
ëª ĩ
Equ al
Ġact ually
ìħĶ ëıĦ
ĠíĿ ĳ
it es
Ġp air
Ġì£¼ ë¡ľ
l angle
íĥĢ ë¯¼
Ġh om
ëĵ¤ ë¡ľ
ĠF r
re c
Ġre t
9 00
} ),
ĠO ne
ĠêµĲ íĨµ
ĠìĿ¼ ìłķ
R un
Ġíķĺ ìħ¨
id ence
ë© ¸
ëį° ìĿ´
ìľ¼ ëŁ¬
c le
Ġë¶Ħ ìĸĳ
ĠG od
Ġup date
Ġres ource
tribut es
Ġìĵ° ëĬĶ
Ġë§İ ëĭ¤
ĠìĻ Ķëĭ¤
Ġë§ĽìŀĪ ê²Į
Ġ Â
Ġse par
. \
us ed
irt ual
Ġìĭł ê¸°
Ġaddition al
n own
Ġsh are
ì§ĳ ìĹĲ
ĠìłĦ ëŀµ
ëĵľ ê°Ģ
Ġchang es
Ġìłģ ëĭ¹
ìŀĲ ë§ĪìŀĲ
ition al
ibr ary
Ġmat rix
Ġsu gg
Ġ ver
v is
ĠìķĦ ê¸°
ê²½ ìĿĦ
Ġaut om
ĠN ot
, âĢĿ
Ġìķ½ ìĨį
Ġ ess
pl ac
êµŃ ìĪĺ
Ġìĺģ ìĸĳ
Ġsugg est
ĠìŀĪ ì§Ģ
Ġë²ł ìĿ´
ud io
math frak
Ġë§İ ìķĦìĦľ
v ing
Ġìĭ¶ ìĸ´
ĠìĪĺ ìĪł
Ġcol umn
d l
Ġì¤ĳ ê³łì°¨
ìĺģ ìĸ´
B uffer
S ource
Ġr a
ì²Ń ìĨĮ
Cont ent
ĠíļĮ ë³µ
Ġadd ed
er a
app ing
ĠíĬ Ģ
Ġb ox
Ġìĵ° ê³ł
ëĨ Ģ
un finished
Ġìŀ¬ ë£Į
ĠI D
if f
z e
Ġt alk
ì§Ģ ë°©
ĠìľĦíķ´ìĦľ ëĬĶ
ĠC ont
íĺ¸ íħĶ
ìĿ į
ëĭĪ ìĬ¤
ĠìĦ ŀ
Ph i
ĠìŀĪìĹĪ ìĬµëĭĪëĭ¤
id ed
ìĭŃ ëĭĪëĭ¤
Ġd iv
T O
ĠìĨį ìĹĲìĦľ
) ]
Ġë³ ¶
Ġd ouble
ìľĦ ì¹ĺ
ë¬ µ
ĉĉĉĉ ĉĉĉĉ
Ġì²´ íģ¬
ĠíĿ¬ ë§Ŀ
sm all
Įĵ ê¸Ģ
Ġì¡° ìĦł
ĠìłĢ ëıĦ
Ġed uc
depend ent
Ġì¹ľ ìłĪ
Ġë¶Ī ëŁ¬
Ġê´ ´
ĠëĮĢ íķĺìĹ¬
ãģ Ħ
O ff
Ġìĭł ê³ł
íĮ ¬
ìĤ¬ ë¬´
ìĺĢ ëįĺ
Ġìĭľ ë¯¼
ë¶Ģ ìĿĺ
ĠR eg
ë¦¬ ëĿ¼
Ġy et
Ġw alk
êµĲ íĨµ
pl ies
å Ĳ
Ġan t
Ġíı¬ ìŀ¥
Ġëį° ìĿ´íĦ°
b ased
ì²´ ë¥¼
ë¯¸ êµŃ
ĠìłĲ ìłĲ
ìł Ŀ
Ġê°Ģ ë©´
in st
âĢ ľ
ĠìŀĲ ëŀĳ
Ġhe ight
ĠìķĬ ëĭ¤
ìĸ´ ë²Ħ
Ġë½ ĳ
app a
ìĿ´ ê±´
ìĥ ·
Ġexper im
ìłģ ìĿ´ê³ł
ìķ½ ìĿĦ
ĠìłĦ ìŀĲ
Ġcomp an
ĠíĮĮ ìķħ
Ġv ideo
head er
Ġ" ""
ĩ Į
M O
Ġneed ed
ë¶Ħ ëĵ¤
ĠìºĲ ë¦ŃíĦ°
Ġêµ ³
Ġl ater
ĠìĿ´ íķĺ
ch ange
P ar
ĠìĿ¸ ìĤ¬
Ġë¨¹ ìľ¼ë©´
Hand ler
ìĽł ëĭ¤
ë¨¹ ëĬĶ
ĠâĢ Ķ
ìłĲ ìĹĲìĦľ
Ġì§ĳ ìĹĲìĦľ
Ġì¶ľ ìĹ°
w rite
Ġbl ack
Ġc ases
r l
Ġro le
ell ing
Ġst ates
Ġë¹ł ìł¸
ì§ĳ ëĭĪëĭ¤
ìĿ¸ ê³¼
ìĿ´ ë¡ľ
Ġth ough
( -
9 8
ĠìĿ¼ ìĸ´
ĠD is
ar r
A ction
ĠëĤ´ìļ© ìĿĦ
ìĭľ ê°Ģ
Ġh y
íĬ¸ ê°Ģ
ĠĠĠĠĠĠĠĠ ĠĠĠĠĠĠ
ure d
" .
ê¸° ëĬ¥
Ġê¸ Ģë¡ľ
Ġre fer
Ġl ive
Ġl and
Ġê·¸ ë¦¬ìĬ¤
Ġget ting
ëĳ Ķ
ìłĢ ëıĦ
row ser
ì§Ī ìĿ´
ê°Ī ë¹Ħ
Ġte ach
Ġì°¸ ìĦĿ
St yle
Res ource
Ġì§ ĵ
ä ½
j av
Ġp ress
Ġde g
Ġë§¤ ì¶ľ
2 50
Ġresp ons
ë°° ìĨ¡
ur b
is es
th ough
F unction
7 8
ì° ¾
Ġre comm
ê³µ ìĤ¬
Ġìŀ¡ ìķĦ
ê¼ Ń
Ġser ies
Ġìłľ ì¶ľ
ëª¨ ëĳĲ
Ġappro x
Ġm ind
im ary
Ġe mail
Ġcal cul
ìĪĺ íķľ
av es
ĠìĿ´ ìģĺ
p y
S C
ĠìĿ´ ìĽĥ
o oth
ĠëıĦ ìłĦ
Se lect
ord in
ĠQ u
ìĽĲ ìľ¼ë¡ľ
ëĤĺ ìĦľ
N av
W hat
ial og
ìĿ´ ê²Į
Ġìŀħ ê³ł
ĠíĸĪ ìĸ´ìļĶ
íĴĪ ìĿĦ
ad ata
Ġe ver
Ļ ëĭĪëĭ¤
ë¶Ħ ìĦĿ
ĠìłĲ ìĭ¬
êµ¬ ìĹŃ
Ġìĺ¬ ë¦¬
Ġë°ĺ ë³µ
un e
Ġch all
Ġassoci ated
v ider
Ġëĭ¤ ëĵ¤
ë¥¸ ëĭ¤
Ġê·¼ ëį°
Ġì°© ìļ©
ĠìĨĮê°ľ íķ´
Ġê³³ ìĹĲ
Ġë³´ ìľł
Ġê°Ĳ ìĨĮ
í Ī
x ml
ë¤ Ħ
ìĭĿ ìĿĢ
Ġìľł ë¦¬
St art
Ġl oss
Ġíķĺ ëĿ½
ëĥ ī
ëł¤ ëĬĶ
j son
ion al
ëŁī ìĿĦ
ì§Ģ íĦ¸
Ġf lo
Ġíı ´
an ch
u k
ĠìłľíĴĪ ìĿĦ
ì¤ĳ êµŃ
ìĿ´ ëıĦ
ĠìĺĪ ìĪł
ĠíħĮ ìĿ´ë¸Ķ
Ġìĸ´ ì°Į
Ġê°Ļ ìķĦ
ê³¼ ë¥¼
pect ed
íĺĦ ëĮĢ
ìľĦ ê°Ģ
Ġloc ation
ĠìĿ´ìĥģ ìĿĺ
el ine
ë¨ ¼ìłĢ
Ġs cal
abl a
Ġëĭ´ ëĭ¹
ĠìĿ¸ íķľ
d et
p tr
ĠëĿ¼ ê³ł
Ġì½Ķ ìĬ¤
op en
ì°¬ ê°Ģì§Ģ
ĠìĿ¼ ìĥģ
Ġev al
ì¦Ŀ ìĿ´
cite p
ch ar
Ġìķī ìķĦ
ìĿ¸ íĦ°
ìĿ¸ ì²ľ
íķĺëĭ¤ ê°Ģ
ìĺĢ ìĸ´ìļĶ
ëĭ¤ ìĸĳ
O per
ãħĭãħĭ ãħĭ
íķĺ ëĦ¤ìļĶ
Ġmus ic
Ġcomp et
ensure math
p ng
ëĭ¬ ëŁ¬
Ġíĸī ìĤ¬
Ġreg ular
e ed
Ġrec ord
Ġcent er
pro perty
Ġstart ed
íķ Ģ
Def ault
Ġìĸ´ ë¨¸ëĭĪ
u id
Ġgr ad
ĠO bject
Ġê³¼ íķĻ
ìŀ¥ ê³¼
T S
ĠìĿ¸ ê¸°
ëł Ľ
s g
Ġë¨ ¼
ĠíĨµ íķľ
ìĭľíĤ¤ ëĬĶ
ĠìĪĺ ìŀħ
Ġsoft ware
Ġmom ent
Ġdo ing
ĠìĿĺ ë£Į
ìĩ Ħ
am ed
Ġì¡° ìłĪ
Ġêµ ´
ë°© ìĨ¡
ĠM on
un k
Ġìĸ´ë¦° ìĿ´
5 2
Ġìµľ ì´Ī
ìħ ľ
Ġíķ´ ë³´
ìķĦ ë²Ħ
k appa
ê» ı
p o
ĠC O
Ġì ¥
l s
Ġ ensure
ìº ł
Ġë§¤ ëł¥
ach ine
ĠìĥĿ ê¸°
Ġë°Ķ ê¿
n abla
Ġb ar
ĠëĤł ìĶ¨
ìŀĲ ëĵ¤ìĿĺ
ĠëĬĲëĤ Ħ
ĠëıĦ ë¡ľ
P oint
Ġrel ated
Ġaut hor
Ġar r
íĬ¸ ëĬĶ
sub set
Ġpur ch
Ġì§Ī ë¬¸
Ġëį ĺ
ĠìĥĿ ê¸´
C heck
I I
Ġê·¸ ê°Ģ
Ġp ict
ĠìĭĿ ëĭ¹
' ll
Ġìĺ Ľ
W indow
mb ox
LA SS
Ġmed ia
b ottom
ë¶Ħ ìĿĺ
ĠëĮĢ ì²´
Ġíŀĺ ëĵł
P art
Ġe mb
ĠêµĲ ìĪĺ
Ġser ver
anc ed
ë¹Ħ ìļ©
L ink
ìĹĲê²Į ëĬĶ
Ġch oose
ëĭĺ ê»ĺ
Ġê²½ ìĺģ
text it
[ "
od ing
ì¹ ¸
ĠìŀĪìĹĪ ìĸ´ìļĶ
p ack
Ġíİ¸ ë¦¬
Ġmod ule
Ġprot ected
d at
pro p
ĠìŀĲ ê·¹
Ġê¸¸ ìĿĦ
ìŀ ĩ
F actory
âĶ ģ
Ġëĵ± ëĵ±
y nt
Ġpos itive
Ġtem per
iz es
Ġê¼¼ ê¼¼
ìĭľ ê¸¸
ë¦Ħ ìĿ´
íĮ ¡
Ġbeh av
N O
ĠìĦ± ê²©
íķĺìĺĢ ìĬµëĭĪëĭ¤
Ġì°¨ ìĿ´ê°Ģ
F l
ĠëĲĺ ìĹĪìĬµëĭĪëĭ¤
ê°Ģ ìŀ¥
ĠìĬ¤ íĨł
ëŀĢ ëĭ¤
V ersion
i qu
Ġh ours
ag ing
ë¬¸ ìłľ
Ġê±¸ ìĸ´
Ñ ģ
Ġê·¸ ëŀ¬
Ġê²ĥ ì²ĺëŁ¼
Ġh old
Ġnat ural
Ġr andom
Ġcon struct
n ers
ĠìĿ¸ ìĭĿ
ĠëĮĢ ìĥģìľ¼ë¡ľ
f ind
Ġinst ead
ab or
Ġìĥģëĭ¹ íŀĪ
Ġg e
Ġact iv
ìľł ìĿĺ
ê³¼ ìłķ
ë´ ħëĭĪëĭ¤
A ct
Ġcoun try
Ġë¶Ģ íĦ°
ê¸¸ ìĿĦ
Ġì¡° íķ©
ĠëĬ Ķ
ê·¸ ë£¹
ĠM ed
ìħ ĭ
ë¶Ī ìĸ´
p ush
Ġc ity
} );
Ġê¸° ì´Ī
ĠR eturn
Ġê²Į ìĭľ
ic ult
ch o
ëĮĢ ìĥģ
str ong
ë§¤ ìĿ¼
ound s
\ |
ìŀĲ ê³ł
Tr ue
ĠìĨĲ ìĿĦ
Ġfil es
p ol
íħĲ ì¸ł
íĬ¹ ë³Ħ
ìĤ¬ ê±´
Ġìĭľ ì¼ľ
Ġcontin ue
f irst
ĠF l
ap ter
ìĭ¬ ìĿ´
Ġë¶Ī ìķĪ
Ġì°¸ ê°Ģ
ë°ķ ìĬ¤
so ft
ot imes
ëĥĲ ê³ł
N D
um b
ìľĦ ë¡ľ
Ġë¶ĦìľĦ ê¸°
Ġ **
} )$
ëĿ¼ ë©°
' ve
Ġìŀ¬ ë°Į
Ġobtain ed
ĠĠĠĠĠĠĠĠ Ċ
Ġmult iple
Ġcorre ct
ê¸° ë³¸
ãĢ Į
Ġì§Ģ ìłģ
c i
Ġwho le
eg er
Ġìŀ¥ ìķł
Ġoff ers
ĠìĥĿ ê²¼
ĠëĿ¼ ëĬĶ
ë¬ ĺ
Ġì»´ íĵ¨íĦ°
st er
Ġë§ ģ
Ġam ong
6 9
ĠìĦ¤ ìłķ
ĠìĿ´ ê²Į
st atus
ĠP C
Ġeff ic
ĠëĨ ĢìĿ´
Ġëĥ ĦìĥĪ
Ġproble ms
Ġear ly
if ul
Ġhow ever
Ġ{ @
Ġê°ķ ëĤ¨
ĠìĥĪ ë¡ľ
ì²´ ê°Ģ
ĠìĤ¬ ìĿ´íĬ¸
oh n
ëĤĺ ìĿĺ
¼ Ī
ĠC al
ê°Ħ ëĭ¤
å Ī
ìĤ¬ìĿ´ ì¦Ī
Ġbl og
Ġíŀĺ ìĿĦ
Ġc ross
ëł ¬
ëĮĢ ìłĦ
ìĭľ ë¥¼
Ġt aking
íĸī ìĿĦ
ìŀĪ ìĸ´
ce ed
íķľ ëį°
$ {
ê²ł ì§Ģ
Ġbr ing
Ġë¶Ī êµ¬íķĺê³ł
ìĭľ ìĺ¤
ĠIn tern
out e
Ġë©ĭ ì§Ħ
ìĸ´ ë¡ľ
O ne
ìŀĲ ìĹ°
Ġì¤ĳìĭ¬ ìľ¼ë¡ľ
Ġdown load
L oad
ê¹Įì§Ģ ëĬĶ
F T
Ġfield s
ëĲĺ ë©°
ĠíĶĮ ëłĪìĿ´
ì ĮĢ
Ġw ait
Ġë¹ł ë¥¸
Com p
Ġac cept
ff er
Ġê°Ģ ìķ¼
ĠM ay
Ð¾ Ð
Ġcons ist
Ġë§Ī ì°¬ê°Ģì§Ģ
Ġsim ply
ac ity
Ġit ems
Ġp lease
RE F
Ġê²ĥ ìĹĲ
ĠCl ass
íķĺìĹ¬ ìķ¼
íĮĮ íģ¬
Ġëĭ´ ìķĦ
Ġë§Ī ê°Ĳ
Ġm ode
Ġindust ry
S I
âĹ ı
ock et
ìķ Ĺ
Ġë¶Ģë¶Ħ ìĿ´
ĠëĬ¥ ëł¥
ê²ĥ ìĿĦ
18 0
Ġíķĺ ìĿ´
U M
Ġbuild ing
Ġìĥģ ê¸°
ëķ ħ
Ġê°ĻìĿĢ ëį°
ê ¾
Ġallow s
Ġd ig
å į
Ġcorrespon ding
Ġst ore
Ġst ory
Ġl ines
ê³¼ íķĻ
ĠâĶ Ĥ
ì ı
âĺħ âĺħ
Ġì§Ģ íĤ¤
ê´Ģ ëł¨
a ctions
ëĥ Ī
ëĭ¤ ë¦¬
ens ions
ëŀ Ĳëĭ¤
íĶĮ ëłĪìĿ´
Ġcl aim
ëª© ìĿĦ
op s
Ġdef ine
Ġì¹ĺ ì¦Ī
Ġquest ion
Ġp rior
Ġf ail
Ġc atch
5 1
Ġê¸° ë¶ĦìĿ´
idd en
Ġp ick
Ġcon tribut
S o
Ġë¸Ķ ë£¨
ë°Ķ ëŀĮ
ìļ° ìĦł
ĠìĦŃ ì·¨
pecial ly
ìĺĢ ëĬĶëį°
ê°Ĳ ìĤ¬
Ġent ire
Ġreg ard
ĠìĿ´ ê±´
ĠìļĶ ì²Ń
ĠìłĦ ìŁģ
ëª¨ ëį¸
ĠD r
Ġim ages
ëħĦ ê°Ħ
Ġcontain s
Ġíģ¬ ë¦¼
ĠìŀĪìĸ´ ìķ¼
Ġdev ice
Ġmin utes
loc al
Ġë¬¸ìłľ ë¥¼
ìĿ´ ëĦĪ
Ġì§ ķ
lic k
ob j
ê´Ģ ìĿĢ
Ġíķµ ìĭ¬
Ġs cale
Ġan sw
ìĭĿ ìĿĺ
Ġë ĩĮ
ĠìĤ¬ ë¡Ģ
ĠëĪĪ ìĿĦ
ìĸ´ëĸ ¤
bt n
ëĵ± ë¡Ŀ
Ġ( (
ëĬĲ ëĿ¼
Ġìļ° ëł¤
re t
Ġëª© ìłģ
ĠìĺĨ ìĹĲ
Ġt aken
p ost
end if
7 00
Ġìĸ¸ ëĭĪ
íķĺê¸° ë¡ľ
ĠíķĺëĤĺ ìĿĺ
Ġst atus
ë¬´ ìĽĲ
ê¸Ī ìķ¡
ĠìĹ´ ë¦°
Ġê¸° ë°ĺ
Ġs ent
Ġm iss
Ġë¯¸ ëĭĪ
ë²ķ ìĿĦ
Ġun it
ê·ľ ëª¨
m on
Ġsub ject
ìłķ ì±ħ
h ost
ĠìĻ ¼
Ġê°ľ ìµľ
ìĿ´ ìļ©
Ġì¢ħ íķ©
E L
Ġíķĺ ìĺĢëĭ¤
Ġd ynam
Ġquest ions
Ġf requ
Ġë°ĶëĢ Į
or ing
C reate
ĠìļĶ ë¦¬
d r
m ain
ĠF e
ìŀĳ ìĹħ
u ary
P RO
Ġë¨¹ ê¸°
Ġíĸ ĩ
Ġthrow s
íĢ ´
N umber
ĠëıĪ ìĿĦ
Ġê¿ Ģ
Ġse ason
Ġcompan ies
Ġíı¬ ê¸°
ĠëĨĴ ìķĦ
Ġì§Ģ ìłķ
g ed
anc ial
m ber
íĸĪëĭ¤ ëĬĶ
ìľĦ ìĿĺ
ìŀħ ì°°
}} {
ë³´ íĺ¸
j ust
c ell
ìĬµ ëĭĪê¹Į
íŀĪ ëĬĶ
Ġê°Ģ ìłķ
g en
ëıĦ ìĻĢ
Ġë¬¼ ìĿĦ
ìĿ´ìĹĪ ìĬµëĭĪëĭ¤
Ġiss ues
Ġë ®¤
Ġm il
Fil ter
s rc
pr ivate
ĠìķĪ ëĲĺ
ë¶Ģ ëıĻìĤ°
st ream
Ġaut o
~ !!
ë© į
olog ical
ìĸ¸ ìłľ
Ġì¡° ìĦ±
ĠëĤĺ ë¦Ħ
Ġì°¾ ëĬĶ
ĠìĿ´ ë¥´
ĠíĶĦ ëŀĳ
ë°Ľ ìĿĢ
Ġëĵľ ë¦¬
ĠìķĦ ëĵ¤
Ġëĭ¤ íĸī
ëĤĺ ê°Ģ
Ġinclud es
ìĿ´ëĿ¼ ë©°
ë¦Ħ ìĿĦ
Ġìłĳ ê·¼
Ġus ers
R A
ìĩ¼ íķĳ
ch an
Ġíı¬ ìĿ¸íĬ¸
Ġacc ording
ìĦ¸ ê°Ģ
ê¸° ìĤ¬
ì¡° ìĤ¬
Ġline ar
9 7
ĠE X
Ġë°Ķ íĥķ
Ġë¬ µ
Ġform at
ìłĦ ê±°
Ġê´Ģìĭ¬ ìĿĦ
Ġa verage
Ġ url
Ġë§Įëĵ¤ ê¸°
/ \
S igma
Ġspec ified
Ġs olutions
Ġeffect ive
ĠìĭĿ ìĤ¬
Ġë°ĺ ìĺģ
Ġìĭ¤ ìłľë¡ľ
ĠìĹ° ìĬµ
Ġmanag ement
re ed
Ġd est
ë§Ľ ìĿ´
âĳ ¢
Ġmult i
ĠìĹ¬ ìłĦíŀĪ
Ġì½ ©
// /
Ġìłģ ìĿ´
Ġâĸ ²
Ġhapp en
c er
ë§İ ìĿ´
ì¼Ģ íĮħ
Ġë°Ķ ê¾¸
ìľ¼ë¡ľ ë¶ĢíĦ°
nav bar
non umber
Ġê² ¸
ìĭľê°Ħ ìĿ´
T ask
Ġì ĮĢ
ìĦ¸ íĬ¸
ìŀĳ ìļ©
íħ į
ìĪĺ ë¡ľ
Ġëª¸ ìĿĦ
ĠìŀĲìĭł ìĿĦ
Ġê±´ ì¡°
ĠM e
Ġs ample
Ġìĸ´ëĸ ł
ĠìĤ¬ìĭ¤ ìĿĦ
Ġup d
ìĺ¤ ê³ł
Ġb ed
Ġë§İ ê³ł
ĠG u
Ġl at
Ġìµľ ì¢ħ
ĠN one
st d
Ġt w
yp es
Ġve ctor
ĠìĺĪìłķ ìĿ´ëĭ¤
ìĭ¤ ìĿĦ
Ġevery thing
F irst
ĠìĶ »
P age
ìĪ ¨
il de
Equ als
Ġì² Ļ
ëħĦ ìĿ´
Ġide a
prot otype
f ont
Ġet c
> ,
Ġëį §
Ġìĭ¤ íĮ¨
Ġfri end
ë³ į
Ġcol lection
H el
av en
AB LE
ìĭľ ì£ł
Ġíķ ¸ëĵľ
ĠìĿ¼ ìľ¼
ë¬¼ ìĹĲ
ì°¸ ê³ł
Ġmat ter
ĠB r
Ġinter nal
ĠíķĦìļĶ ê°Ģ
Ġì¡° ìĭ¬
ì¦ Ĳ
Ġê°ĢëĬ¥ ìĦ±ìĿ´
Ġë§Ĳ íķľëĭ¤
ĠìĨĮ ìľł
ì» ·
Ġdid n
ìĸ¸ ëĭĪ
ëĭ¤ ë³´ëĭĪ
ìĿ´ ê±°
Ġent ry
Ġë¦¬ ë·°
ĠíĻį ë³´
ĠëĤ¨ ìĦ±
â ħ
Ġë¥ ¼
ĠëĮĢ íĺķ
Ġë°° ìĨ¡
Ġrun ning
Ġtechn ology
Ex t
ë¬¼ ìĿĢ
ìĨį ìĹĲ
ĠëĮĢ ìĿĳ
ĠêµĲ ì²´
19 5
ìĿ¼ ê¹Į
ig ger
Comm and
al t
Ġcon sum
ìĸ Ģ
ìľ¨ ìĿ´
is try
ur ance
ĠìŀĪëĬĶ ì§Ģ
Ġhe art
ëĭĪ ìķĦ
ë¶Ģ ëª¨
ê°Ģ ë¡ľ
Ġì¦Ĳ ê¸¸
ë İ
ic ial
. ***
ĠCom p
Ġëħ¸ ëıĻ
R ow
ìĭľ ìĬ¤íħľ
Ġcompon ent
des cription
IN T
Ġìŀ¥ ëĤľ
ì¤Ģ ë¹Ħ
Ġnot e
Ġìĭľ ìłĪ
Ġìķŀ ìĹĲìĦľ
Ġê¹ ľ
d ots
ì°¨ ê°Ģ
ê°Ģ ìĹĲ
cre t
in ner
Ġgiv es
Ġch oice
Ġì£¼ìĿ¸ ê³µ
Ġëª¨ë¥´ ëĬĶ
1 10
Ġì¶Ķ ìĸµ
ĠìĤ¶ ìĿĦ
ìĿ¼ ë¦¬
plic it
ëĲĺ ìĹĪìĬµëĭĪëĭ¤
Ġincre ase
ish ing
íķĺê³ł ìŀĲ
Ġê°Ģê¹Į ìļ´
ìľĦ ëĬĶ
Ġthe ory
im g
ì ¾Į
ê¹ Ŀ
F ONT
Ġcustom ers
Ġex tra
ê³ ±
ĠëĦĪ íĿ¬
ĠíĹ Į
le vel
sk ip
c el
16 0
ìĪĺ ë¦¬
Ġíģ¬ ë¦¬ìĬ¤
ĠíĻĶ ìĿ´íĬ¸
Ġë°©ë²ķ ìĿĦ
Ġíļ¨ê³¼ ê°Ģ
Ġhum an
U I
\ [
he et
ë¦¬ ê·¸
æ ĺ
T I
Ġdiff icult
//////// ////////
Ġë¹ĦìĬ· íķľ
ĠìķĬ ìľ¼ë©´
ë¶Ģ ìĹĲ
und le
ef ined
ï ¿
ìŀĲ ëĵ¤ìĿĢ
Ġê¹Į ì§Ģ
Ġreg ister
Ġr ather
ĠìĤ´ ê³ł
col umn
so le
ëĲ ¨
S ON
Ġëĵ¤ ìĸ´ìĦľ
ĠìķĬ ìķĦìĦľ
Ġsuccess ful
Ġc amp
ĠëĤ¨ ê²¨
Ġex press
íķ´ì£¼ ëĬĶ
ĠA ut
ĠëĨĵ ê³ł
íĻĶ ìŀ¥
Ġë¬ ĺ
ĠìĹĨ ëĭ¤ëĬĶ
ì ¨
Ġext ends
Ġíĸī ìłķ
Ġlang uage
ëį ©
ê°Ģ êµ¬
Ġal most
Ġh alf
em pt
ul y
Ġfr ont
ĠìĹ° ì¶ľ
Ġë¡ ¯
íļĮ ìĹĲ
Ġf all
âĸ ¼
Ġëª¨ ì§ĳ
ĠG L
a id
· Ķ
5 3
ë¬¸ ìĿ´
ì¡ ¸
idd le
ĠëĪĦ ê°Ģ
ĠíĹ¤ ìĸ´
ĠìŀĲ ëıĻ
Ġfil ter
O b
Ġper cent
ĠëıĦ ìŀħ
íķĺ ìĿ´
ĉ ĠĠĠ
Ġë²Į ìį¨
ìĬ¤ íĭ°
n ected
ìĸ´ ëĬĲ
Ġs em
Ġinter face
ĠìĤ¬ ìĿ´ìĹĲ
ëķĮ ëĬĶ
str act
Ġêµ¬ ë¶Ħ
Ġì¹´ ë©ĶëĿ¼
at tr
s cale
ĠëĲ Ĳëĭ¤
P O
Ġst ream
Ġe y
Ġìĭł ë¢°
Ġyou ng
Ġëĸł ëĤĺ
Ġhist ory
D B
Ġíķĺ ìĭľëĬĶ
Ġê »
al let
ĠL G
sign ed
Ġê´Ģê³Ħ ìŀĲëĬĶ
n um
Ġt akes
ĠíĬ¹ë³Ħ íķľ
Ġê°Ļ ìķĦìĦľ
ĠìķĮìķĦ ë³´
Ġc y
5 4
ëįĺ ëį°
Ġt ax
Ġpro of
Ġst ay
ê¹ ĥ
ë©´ìĦľ ëıĦ
Ġex ecut
ë¦¬ ìĻĢ
ī ìĿĢ
ĠD ef
Ġeng ine
ë¦¬ ë©´
S O
Ġknow ledge
Ġì£¼ ìĭĿ
adi us
Ġph ase
6 3
Ġwh ite
Ġb o
form at
Ġê²ĥ ê³¼
Ġwrit ing
Ġd ensity
che ma
ê¿ Ī
en n
ì¤ĳ íķľ
H O
ĠìłĦ ë¶Ģ
Ġë²ķ ë¥ł
Ġcl ick
Ġë¬¼ ìĸ´
Ġp ain
Ġê°ķ ëł¥
ìĽĮ íģ¬
" ]
ĠìŀĲ ëħĢ
Ġmonth s
. ^^
Ġíķ© ê²©
ê³³ ìĹĲ
Ġë¶Ģ ìłķ
Ġìŀ¥ ì°©
Ġt ell
ë²ł ìĿ´
Ġpartic ip
ĠìŀĲ ê¾¸
fil ter
Ġtrans form
ë°Ľ ê³ł
ĠíĨł ì§Ģ
a ur
ag n
C L
( &
Ġpat tern
S p
ĠS te
ĠëıĻ ìĥĿ
ĠA ss
Ġare as
Ġf ace
ĠìĪĺ ëĬĶ
Ch ild
m ission
ê·¸ ëĬĶ
Ġ ill
b ra
l ast
ë¦¬ íĭ°
u nder
ĠíĦ ¸
Ġë¯¼ ì£¼
ë©´ ìĿ´
Form at
Ġíķ «
Ġê°ķ íķľ
Ġn umer
ê³ł ê°Ŀ
Ġth ird
m eta
ì½Ķ ë¡ľëĤĺ
Ġíķ ĳ
ĠíĺĦ ìŀ¥
Ġconsider ed
Ġê³ł íĨµ
ĠëĽ° ìĸ´
Ġíĺľ íĥĿ
Ġëĭ¤ ë§Į
Ġdef inition
ìĹ¬ ë¦Ħ
ĠëĤ¨ ìĿĢ
Ġins ide
con tainer
ĠĠĠĠĠĠĠĠ ĠĠĠĠĊ
ìĤ¼ ìĦ±
R I
Ġìŀħ êµ¬
L ast
{ -
ê°Ħ ìĹĲ
ëĭĺ ê³¼
ĠG ener
Ġìķŀ ìĦľ
ë°Ķ ëĭ¥
m t
Ġë°Ľ ìķĺ
Ġê²ĥ ìĿ´ëĿ¼ê³ł
pro ject
ë¬¼ ë¡ľ
ëĶ ¸
íĽĦ ê¸°
Ġë³¸ ê²©
Ġìļ´ ìłĦ
Ġíľ´ ëĮĢ
wid et
S D
íļĮ ëĬĶ
. ~
Ġrem ove
R eturn
ë´Ĳ ìļĶ
Ġìµľ ìłĢ
Ġg round
Ġìŀ¥ ê¸°
ìħĺ ìĿĦ
ĠëĤĺ ìĺ¬
Ġìĭ¤ ëĤ´
Ġë¿Ĳ ë§Į
Ġsur face
ol id
Ġì¹ Ń
Ġíİ¸ íķĺê²Į
ìŀĸ ìķĦ
ĠM in
Ġë°° ê²½
S c
\ %
Ġex ists
ëį ľ
ëĭ¤ìĸĳ íķľ
Ġì¹´ ëĵľ
cl ose
ache s
ens ive
ìłĢ ëħģ
ëĶĶ ìŀĲìĿ¸
Ġìĭľ ì²Ń
Ġê²Ģ ìĤ¬
Ġcon nect
enc ies
Ġê·¸ ë¦°
igh b
íĿ ĳ
Ġë§Ī ìĬ¤íģ¬
Ġ! ==
Ġqu ite
Ġdirect ly
b uf
ĠìľĦ ë¡ľ
ì° ľ
Ġì¹ ł
i ans
Ġw ords
Ġíļ¨ê³¼ ë¥¼
ìĿ´ ê¸°ëıĦ
Ġest im
Ġf ive
: )
Ġê³³ ìĿĢ
âĺ Ĩ
ĠìŀĦ ëĮĢ
íķĺ ëł¤ê³ł
ĠãĢ İ
Ġtr a
ë§Ī ìĬ¤
it ing
ê³ł ë¥¼
Ġêµ¬ ì²´
ag ed
Ġê·¼ ë¬´
Ġêµ¬ ì¶ķ
ub e
cent ering
Ġíķĺ ê²łìĬµëĭĪëĭ¤
Ġìĺģ ìĹŃ
gr ad
ĠìĤ¬ ë§Ŀ
it ut
ìĽĶ ìĹĲ
ĠìĦł ë³´
Ġì¤ĳ ìĹĲìĦľ
íĺķ ìĿĦ
b b
Ġíĺ ģ
Ġprofession al
Ġs end
Ġë°Ľ ìľ¼
Ġë² ¤
Ġíĳľ ìĭľ
Ġì¡¸ ìĹħ
Ġë§ĺ ìĹĲ
íĶĦ ëĿ¼
Ġlik ely
Ġì¦Ĳ ê±°
ĠëĮĢ ìłĦ
ìĦĿ ìĿ´
ĲëŁ¬ ëĵľ
Ġz ero
Ġp ubl
B ox
ìĭĿ ëĭ¹
ĠìķĦëĭĪ ë©´
ĠëĤĺ ìĿ´
ĠH T
âĨ Ĵ
h ib
ĠìĿ´ë¦Ħ ìĿĦ
Ġê¸ į
Ġequ ation
Ġëª© ìĨĮ
Ġë§ŀ ì¶Ķ
ĠM ore
ì½Ķ ìĬ¤
ĠìĥĿê°ģ ë³´ëĭ¤
Ġê°Ģê²© ìĿ´
List ener
ition s
Ġset s
ty p
ur ch
Ġe conom
ìĿ¼ ë¡ľ
Ġest abl
Ġëĭ¤ ìļ´
n ov
li ke
ìĦł ìĿ´
Ġëł Į
ĠëĪĪ ìĿ´
L abel
Ġcol lect
Ġê·¸ ëł¤
Ġb i
ĠìĤ¬íļĮ ìłģ
Ġìĥģ ìĦ¸
ìĽĲ ëŀĺ
ìĦ± íĻĶ
Ġìĸĳ ëħĲ
ëĩ ¨
ĠìĿ¼ ì°į
ab s
wh ich
U P
Ġê°Ģ ì¹ĺ
Ġm illion
ë¦¬ ìĺ¤
ĠìĿĺ ìĤ¬
at al
Ġcon nection
ĠìłĦë¬¸ ê°Ģ
O ur
ĠìŀĪ ëĦ¤ìļĶ
Ġcomm and
ĠSt ate
Ġf ig
ĠìĿ¸ ëıĦ
pro cess
Ġcall back
Ġëĭ¨ ì²´
ë¦¬ íĬ¸
Ġê´Ģìĭ¬ ìĿ´
o on
Ġnecess ary
widet ilde
T P
ê°Ģ ë©´
íĸ¥ ìĿ´
íĦ° ë¦¬
ðŁ ĺ
ĠìĬ¤ íħĮ
ĠìĦ¤ ê³Ħ
ãĦ ·
ìŀ¥ ìķł
ë¯¸ ìĹĦ
Ġê¸Ī ì§Ģ
Ġëħ Ģ
Ġbe com
ë¬¼ ê±´
up date
ĠA PI
Ġw all
Ġimp act
ê»ĺ ìļĶ
ĠìĥĿê°ģ íķ´
ê³µ íķŃ
Ġdesign ed
Ġh ope
Ġìĺģ êµŃ
Ġiss ue
_ .
ê¸Ī ìľµ
Ġoper ator
Ġìŀ¡ ê³ł
R em
8 7
Ġa w
Ġc rit
ĠìłĦ ìļ©
íķĺ ìļ°ìĬ¤
ëł¸ ìĬµëĭĪëĭ¤
ëĨĵ ìĿĢ
Ġê´Ģëł¨ ëĲľ
rem ove
Ġset ting
Ġpre c
ĠëĪ Į
Ġfor ward
ìłľ ìĿĺ
ìŀĳ ìĿĢ
t tp
l ong
ê±° ìķ¼
ref ix
Ġcurrent ly
ul a
y t
Ġìĥ Ģ
ĠìłĦ íĻĺ
Ġc ame
ì¹ĺ ì¦Ī
6 2
ĠìķĬìĿĦ ê¹Į
ĠìĿ´ ëģĮ
Ġc e
ĠE uro
ind ing
Ġë¯¸ ìĪł
Ġf ixed
ĠR em
Ġacc ur
ìĸ¼ ë§Ī
ìłĲ ìĹĲ
c ing
ì§ ±
Ġgovern ment
g y
ĠíĻ Ģ
Ġìĸ¸ ê¸ī
Ġë¨¹ ìĹĪ
ĠìķĦìĿ´ íħľ
Cont roller
Ġê° Ŀ
Ġì·¨ ëĵĿ
ì¤ĺ ìķ¼
C P
c hen
Ġë¡¯ ëį°
) /
ĠG e
M et
Ġì¡° ìļ©
ry pt
íĮĲ ìĿĦ
C ON
Ġc ult
Ġd raw
\! \!
ìĸ´ ë¦°
Ġc ook
ê¸Ī ìĿ´
} -
ĠíĽ Į
Ġoper ation
é ģ
Ġrespect ively
m ing
ang ed
UR L
d ot
ic a
ĠìĹĨ ëĭ¤ê³ł
ĠM ark
ĠìĿ¸ ì¦Ŀ
ì§Ģ ìĸ´
n umber
D o
Ġto ok
ìĭĿ ìĹĲ
ìĬ¤ ì½Ķ
¨ ë²Ķ
m em
Ġì§Ģê¸Ī ìĿĢ
ĠíĨµ íķ©
âĢ ĵ
ĠìĪĺ ì¶ľ
ĠìĥĿê°ģ íķĺëĬĶ
Ġë³´ ê´Ģ
uf act
ram ework
ì¤ĳ ìķĻ
ĠTr ans
ĠìķĦ íĶĦ
ëĦ £
Ġë§Ĳ íķĺëĬĶ
Ġê¸° ìĤ¬
ĠìĿ¸ ê·¼
Ġs ays
ĠìĿ´ ëĤ´
pr ime
Ġar ch
Ġì° Į
L ength
ìĿ¸ ìľ¼ë¡ľ
ĠìĥĪ ë²½
ê³Ħ ìķ½
íķ´ ì§Ģ
ĠìĤ Ń
ìĬ¤ ìĻĢ
Ġm ix
. /
m ar
ĠìĿ¸ ìĥģ
ĠS er
ĠìĽ ¨
ĠA fter
ĠP art
Ġìł ĬìĿĢ
if act
Ġíİ¼ ì³Ĳ
Ġìµľ ìĨĮ
serv ice
Ġpol icy
ĠìĿĢ íĸī
ĠS im
ìĭľ íĤ¨
ë¿Ĳ ë§Į
ì¹ĺ ì§Ģ
Ġm ar
Ġes pecially
param s
Out put
Ġëĵľ ë¦½ëĭĪëĭ¤
íĻĶ ëĲľ
ĠíĴį ë¶Ģ
Ġt im
¤ ë²Ħ
B U
q l
m enu
Ġê³Ħ ìĭł
Ġëĭ¤ ìĿ´
Ġë³´ ë©´ìĦľ
Ġê°Ģ ë°©
Ġfri ends
ì£¼ ë¬¸
ĠëĦ Ĳ
ê±´ ìĦ¤
ê·¸ ëŀ¨
Ġìĭ Ń
Ġìĭ« ìĸ´
ê²° ê³¼
ê°ľ ê°Ģ
i pe
as cript
Ġqu ery
respon se
Ġf ast
Ġrelations hip
E m
8 4
Ġeas ily
ç ļ
ĠëĤĺ ì¤ĳìĹĲ
a a
b all
ul ations
ĠëĿ Ħ
æ °
Ġê³µ ê³µ
. $
Ġre ference
ìĨĮ ëĵĿ
ess ages
Ġin it
ĠëĬĺ ìĸ´
Ġcon str
Ġê²ģ ëĭĪëĭ¤
Ġâĺ ħ
ìĩ ł
Ġwrit ten
ĠC or
Ġg roups
ë¹Ħ ëĬĶ
ĠíĽĪ ëł¨
Ġíħ Ĳ
ĠìĨĶ ì§ģ
Ġinclud ed
c r
Ġexper i
f ill
Val id
re w
K E
m ore
ëıĻ ìĿ´
ëŀ į
ìĦł ìĥĿ
Ġëĸ ¨
íķĺ ëŁ¬
ìĭĿ íĴĪ
Ġdist ance
P er
ê¸° ë§Į
ìļ° ë¦¬ëĬĶ
Ġìĥģ ê´Ģ
ë© Ģ
Ġê¾¸ì¤Ģ íŀĪ
ĠìķĦëĭ ĻëĭĪëĭ¤
s pec
ìĿ¸ ëĵ¤ìĿ´
ê²° êµŃ
Ġm argin
Ġê¸Ģë¡ľ ë²Į
Ġbeaut iful
Ġë²Ħ ìĬ¤
Ġrece ive
Ġm ember
Ġact ive
Ġë©Ģ ë¦¬
h ing
ëĤ Ń
A A
ëħĦ ëĮĢ
Ġíŀĺ ìĿ´
ĠìĤ¬ëŀĳ ìĿĦ
Ġsh all
Ġìĭľ íĤ¤
ë¶Ħ ëĵ¤ìĿ´
M C
ë²Ī ìĹĲ
Ġ[ ]
ëĨ Ī
ìĤ¬ ì§Ģ
, -
ĠëĮĢ ì¤ĳ
ëĿ ł
Ġsec urity
il i
Ġë³´ ìĿ´ê³ł
Ġhand le
Ġëĭ¤ëħĢ ìĻĶ
íķĺë©´ìĦľ ëıĦ
ëĶ ľ
ìĺ Ĩ
ĠëĴ¤ ìĹĲ
Ġìĸ´ ìłľ
Ġ ir
istr ation
ìĬ¤ íı¬ì¸ł
íķĺ ì£ł
Ġê°Ģ ëģĶ
Ġro ot
Ġê¸° ê´Ģ
ì£¼ ë©´
ĠAmeric an
Ġfact or
Ġequ ip
lay out
ì¢ĭ ìķĦ
Ġê¸° ëıĦ
ffic ient
ist ics
R L
Ġëĭ ¦
ì¿ ¨
êµ¬ ìĿĺ
ent ry
ĠëıĻ ë¬¼
ìĦ °
* /
ì¦Ŀ ê¶Į
p ass
ì²´ ìĿĺ
ĠO F
Ġw r
Ġë© Ī
ëªħ íķľ
ê¾ ¼
ac ing
tab ular
er al
sel ves
I O
Ġëĵľ ëĬĶ
semb ly
at io
Ġal gorithm
ë¡ľ ëĵľ
ë°Ľ ìķĦ
ì±ħ ìĿĦ
Ġëĭ¤ìĿĮ ê³¼
6 1
ë¸ Ĳ
ĠìĬ¤ íı¬ì¸ł
th m
l en
Ġst at
am s
ĠS ince
o om
out put
ĠâĨ Ĵ
Ġëıħ ìĿ¼
7 2
ê±¸ ë¡ľ
ĠëĦĪë¬´ ëĤĺ
ëĤľ ëĭ¤
ĠêµĲ íĻĺ
Ġë§ ĳ
Ġent er
Ġth us
ĠI T
Ġë³´ ìĿ´ì§Ģ
ê²ł ëĦ¤ìļĶ
ight s
Ġwon der
em pty
ĠíĹ ¬
ìłķ ìľ¼ë¡ľ
Ġê° Ĵ
Ġë¶Ģ ë¥´
D A
Ġë§Į ìĹĲ
Ġrece ived
Ġë°ĺ ëĮĢ
Ġë§¤ ë§¤
t ag
ad a
Ġì§Ģ ì§Ģ
Ġíĸīë³µ íķľ
Ġfr ame
Ġappe ar
æ Ĺ
Ġtr avel
Ġf ont
êµŃ ëĤ´
S up
Ġpart s
z z
Ġêµ¬ ìĽĮ
ì¦ ī
Ġìŀĳ ìļ©
Ġëĵ¤ ìĹĪëĭ¤
ãģ «
c os
Ġê¹Ĭ ìĿĢ
Ġpro per
Ġdiffer ence
M ode
Ġì£¼ ë°©
Ġl iving
Ġìĸ¸ìłľ ëĤĺ
ĠëĤĺíĥĢ ëĤ¬ëĭ¤
Ġìħ ĭ
Ġìł ¤
ë§Ī ìĿĮ
Ġì§Ģ ìĭĿ
Ġìĺ¤ ë¹ł
ëĤĺ ìĿ´
ìĿ´ íķĺ
Ġê¹Ģ ì¹ĺ
Ġt ree
Col umn
ãģ Ł
Ġë¹Ħ ê°Ģ
ER R
ì§ĳ ìĹĲìĦľ
Ġlong er
M y
to ol
Ġt ag
ĠëĤ® ìĿĢ
B utton
P ol
Ġê²°ê³¼ ë¥¼
ê ¶
ìħ¨ ìĸ´ìļĶ
ĠëĮĢ ëĭµ
ĠìĹĨ ìĹĪ
\ ]
Ġíķĺ ìĺĢ
ĠY our
Ġed ge
Ġb ad
ĠìķĦìĿ´ ëĵ¤ìĿ´
ĠìĿ´ ìĤ¬
ĠD ata
ëĲĺ ë©´ìĦľ
Ġinteg r
Ġs qu
ol ve
Ġê°ĲìĤ¬ íķ©ëĭĪëĭ¤
ist ance
Ġs ens
c s
in stance
Ġ: :
Ġs ave
Ġëī´ ìĬ¤
âĪ ¼
ì²ĺ ë¦¬
Ġíĥ ģ
\ {
os p
ìĿ´ ìĿµ
Ġì¦Ĳ ê±°ìļ´
Ł ìķĦ
Ġbel ieve
G B
ìķĦ ë§Ī
on ly
Ġcustom er
ë°Ľ ëĬĶ
Ġë¨¹ ìĿĢ
ĠU p
ìĿ´ ëĦ¤ìļĶ
ë°Ķ ìĿ¼
p ri
Ġse lection
ëĵ± ìĿĦ
ĠT O
ĠìĪĺ ìļĶ
è Ģ
ìłĪ íķľ
Ġw ays
Ġpred ict
ä¸ Ń
ĠëŃ ĺ
íĨµ ìĭł
ĠP er
it ter
ìĹ° íķ©
ĠìķĦ ìī½
D et
ĠìĿ´ ë¤Ħ
e es
" ).
ĠìĨĮ ìĦ¤
ìĤ° ìĿ´
le ge
êµŃ ë¯¼
We b
ëĲĺ ê¸°
ĠíĿĺ ëŁ¬
s plit
ĠSe ction
Ġobject s
ëķ Ĳ
ì¡° ìĿĺ
Ġav oid
Ġìĭł ê·ľ
íļ¨ ê³¼
an a
ª ¼
Ġit er
Ġì¡°ê¸Ī ìĶ©
S pec
ĠëįĶ ë¶Īìĸ´
ê´Ģ ê´ĳ
sh ow
ĠíĿ °
ĠíĻĶìŀ¥ ìĭ¤
Ġìĸ´ ê¹¨
ëħĦ ë¶ĢíĦ°
Ġí ľ
Ġhe l
ł ì§Ģ
ëĭ¨ ìĿĺ
Ġus ually
Ġst e
Ġa ge
ho od
ER T
Ġout side
ìĺ¤ ëŀľ
Ġëĭ¤ ìĿ´ìĸ´íĬ¸
ĠëĮĢ ëĭ¨
ĠìĤ¬ ìłĦ
Ġ Â·
ĠëĪĦ êµ°
âĶģ âĶģ
e ff
ëĦ ī
< ?
Ġsome one
Ġíŀ Ĳ
ĠìŀĲ ë¦¬ë¥¼
le ctions
Ġeff ort
return s
Ń Ī
ë¹Į ëĿ¼
ĠA ct
Ġ& =
å °
k nown
ĠP ar
ìĽĲ ëıĦ
ë©´ ìłģ
ar ies
ë¦¬ ê²Į
not ation
ì£¼ ìĿ¼
h a
Ġë ±
ëĵ¤ ê³ł
ĠV al
ĠìĹ° ê¸°
Ġë¹Ħ íĸī
ĠëķĮë¬¸ ìŀħëĭĪëĭ¤
el se
ãħłãħł ãħł
E O
ìłľ íķľ
at rix
Ġê·¸ ê²Į
Ġê¸¸ ìĿ´
Ġíļ¨ ìľ¨
ë¶Ħ ìĿĢ
Ġíĺ¹ ìĭľ
æ Ń
m as
ìĹĲ ë§Į
ìħ¨ ëĭ¤
īìŀ¥ ê³ł
Ġê·¸ ë£¹
Ġê· ł
Ġopt im
ĠP ol
ĠëłĪ ìĿ´
Ġëįķ ë¶ĦìĹĲ
Ġê³³ ìĹĲìĦľ
Ġê²½ ê¸°ëıĦ
Ġw atch
Ġany thing
ìĹĲ ìĦł
æ Ŀ
Add ress
Ġinter n
ĠA g
t ty
Ġ !!!
Ġw ord
ï¼ Į
Ġìĭľìŀĳ íĸĪëĭ¤
ë³´ íĨµ
Ġn one
off set
ĠëĮĢíķľ ë¯¼êµŃ
Ġì° °
Ġlarg er
ìĹ¬ ìŀĲ
íħĲ ëį°
++ )
Ġsa f
ë§¤ ë§¤
Ġreturn s
ĠĠĠĠĠĠĠĠĠĠĠĠĠĠĠĠ ĠĠĠĠĠĠĠĠĠĠĠĠĠĠĠĠĠĠĠ
U rl
ë¯ ¹
F e
ì¤ Į
Ġ< !--
Ġê²½ìļ° ëĬĶ
Ġë§Įëĵ¤ ê³ł
ê±´ ì¶ķ
oper ator
Ġc am
íķ´ ì§ĢëĬĶ
7 9
8 9
Ġst aff
T YPE
ë¶Ħ ê¸°
å ±
ĠëĬĲëĤĮ ìĿĦ
ĠìĪĺ ìĥģ
ì³¤ ëĭ¤
Ġde ep
C ache
Ġse quence
ĠìĹ° ìĨį
Ġp ers
Ġíķ´ ìĦĿ
' ).
ĠS ee
comm and
ì£¼ ìĨĮ
ìłĲ ìľ¼ë¡ľ
ĠìķĪ ìĹĲìĦľ
ë´¤ ëĬĶëį°
Ġselect ed
Ġë¶Ģëĵľ ëŁ½
Ġfe ed
" ),
Ġê°Ģ ë³į
Ġsol id
ĠS T
ê²¨ ìļ¸
Ġì¤Ħ ìĸ´
it ory
Ġê·¸ ëıĻìķĪ
Ġ row
pl oad
ie ce
Ġê°ķ ìĿĺ
Ġë Ĥ¬
Ġê±° ì³Ĳ
ĠìĿĮ ë£Į
Ġw ent
10 1
ĠE q
ì «
ĠëĤĺ ë¨¸
ìŀĲ ê²©
B ack
Ġd am
ĠC LASS
Ġex ception
u it
z eta
Ġì·¨ ìĹħ
Ġb al
Ġë°ľ ëĿ¼
ĠC ity
Ġë³´ ëıĦ
íķĺ ê²łìĬµëĭĪëĭ¤
C ase
íĮĮ ìĿ´
ĠëĦĵ ìĿĢ
ĠíĶĦë¡ľ ìłĿ
ìĺ¤ ë¹ł
Ġê·¸ ëŁ´
Off set
ë¯¸ ê°Ģ
ë¯¸ ìĪł
Ġf avor
ê²ĥ ê°Ļ
Ġìĸ´ì© Į
æ Ī
ĠëĤĺìĻĢ ìĦľ
p th
E nt
íķĺ íķĺ
} +
ìŀ¬ ë£Į
#### ####
ëĭ¨ ìĿ´
Ġê±° ê¸°
íĥ Ĳ
Ġs ort
OR T
D F
ìłĢ ê¸°
Ġf oot
Ch ar
ê²½ ê¸°ëıĦ
Ġst ar
Ġin fl
ĠìĹĲ ìĦľ
ë¦¬ ë©°
Ġve h
Ġê¸° íļį
ĠìĻĦìłĦ íŀĪ
ĠíĻķìĭ¤ íŀĪ
Ġsh op
ĠEuro pe
ë° Ń
Ġmax imum
Ġbu ilt
ĠS K
f a
ãģ Ĺ
pl ing
ĠIn ter
Ġread y
ìĸ´ ìł¸
å ¯
Ġspe ed
äº º
ãģ ¦
ĠH REF
ìĭľ ëĮĢ
row n
ĠìĹ ī
ìĹ ł
u ed
Ġì¦Ĳ ê¸°
ãģ ª
ĠL icense
ìĺĪ ìĪł
íĥ ±
ìļ° ë¦¬ê°Ģ
Ġìłķ ìĿĺ
il er
ĠG l
ì¡° ìĦł
Ġëį ®
Ser ver
ĠìŀĪ ì£ł
ãĤ ĭ
ìłĦ ìĿ´
Ġr isk
ĠìķĦìĿ´ ëĵ¤
ĠíĴį ê²½
ê°Ģ ê²Į
ĠT ype
jav ascript
ìĸ´ ìłľ
íļĮ ìĹĲìĦľ
ĠìĬ¤ íİĺ
em ma
Ġê·¼ ìľ¡
Ġcomp ar
Ġcou ple
se qu
Ġfin ancial
Ġv irtual
Fr ame
A cc
Ġë¹Ħ íĥĢë¯¼
Ġìŀĳ ê°Ģ
b a
m iss
Ġoff ice
o ber
ĠR E
p df
i ol
Ġr ad
ĠThe orem
Ġloc ated
ê ½
Ġprodu ction
ëªħ ìĿĢ
Ġpop ular
ĠëĶ°ëľ» íķľ
Ġd rop
al ax
Ġëĵ¤ìĸ´ ê°Ħ
Ġì£¼ ëª©
Ġëļ ľ
Ġë§ŀ ê²Į
Ġgener ated
Ġë§Ľ ìĿĦ
he nt
Ġì§ģ ìĹħ
ëĵ Ń
Ġìĺ¤ ë¥´
Ġë¬´ ì¡°ê±´
ĠìĹĨ ì§Ģë§Į
ĠìĪ ²
Ġë´ ħëĭĪëĭ¤
19 4
refer ence
Ġê³¨ íĶĦ
Up date
Ġt our
ĠC heck
ĠìĤ¶ ìĿĺ
Ġë Įĵê¸Ģ
ĠUn ited
ë©Ķ ë¦¬
I R
Ġë¶Ħ ë¦¬
Ġëĭ¨ ì§Ģ
Ġeffect s
Lay out
Ġrec ogn
Ġê·¼ ë¡ľ
ĠìĻ¸ ë¶Ģ
ex pected
Ġcl ients
ëįĶ ìļ±
ìĹĲ ìĸ´
} ]
Ġìĥģ ì²ĺ
ĠìķĬ ëıĦë¡Ŀ
Ġcon tract
U s
Ġê³Ħ ìĤ°
`` `
íķĻ ìĬµ
ï¿ ½
Ġd oc
Ġc and
íķ´ ë¥¼
ëĤ Į
Ġë§Ī ìĭľ
Ġits elf
ëį ¤
; \
Ġëĳ Ķ
ĠM an
Ġê´ĳ ì£¼
ĠíĻľ ëıĻìĿĦ
Ġlead ing
Ġë§Ľ ìŀĪëĭ¤
Ġus es
Ġequ al
ic les
ĠëĳĲ ëł¤
íĬ Ģ
ĠN ational
Ġn av
Ġì±Ħ ìļ©
ãĢ ģ
ĠëĮĢ ì¶ľ
Ġgrow th
Ġíİ¸ ìĿĺ
ĠJ ohn
ê±´ ë¬¼
ë¶ ķ
ĠS m
ri ed
Ġtemper ature
Ġtreat ment
Ġë Į
ì²´ íĹĺ
Ġì¸¡ ìłķ
on al
ĠìŀĪìĿĦ ê¹Į
Ġs creen
Ġo il
ĠA b
Ġw omen
Ġê³ł ìłķ
ëĵľëł¤ ìļĶ
ìĿ´ìĹĪ ëįĺ
ĠìĿ¼ ìĿĢ
Ġass ign
è ¡
ĠìĥĿ ê²¨
ëħ ¹
k it
ĠëĮĢ íĻĶ
Ġide as
Ġl o
ëĤĺ ë§Ī
Ġëĭ¬ ëŁ¬
Q L
1 30
íķ¨ ê»ĺ
ìħ ī
ì© į
el t
Ġyour self
) =\
Ġë§Ī ìĭľê³ł
ìĿ´ìĹĪ ìĸ´ìļĶ
íĶ Ķ
Ġê·¸ ëĵ¤ìĿĺ
Ġcon tr
_ +
Ġê³ł ìĥĿ
ë¬¼ ê´Ģ
ĠìłĢëł´ íķľ
ĠëıĻ ëĦ¤
it ude
) }\
f ree
Ġê³¼ ìłķìĿĦ
ìĺµ ëĭĪëĭ¤
W idth
Ġ ãħ
ë¥ł ìĿ´
Ġê³¼ìłķ ìĹĲìĦľ
Ġg ames
Ġpl atform
R ep
Ġpre p
h y
} =\
} /
( _
Ġse em
ìŀ¥ ìĨĮ
enc ed
ìĸ´ ëĬĶ
ĠìĤ¬ëŀĮ ëĵ¤ìĿĺ
T ypes
í ĳ
ìľ Ī
Ġìĭ¤ íĹĺ
: </
Ġf ix
Ġu int
Ġìĭł ìĦł
Ġres ources
Ġso on
ìĿĮ ìĭĿ
w indow
Ġs n
ê³ł ëĬĶ
êµŃ ìłľ
Ġs ense
íķĺ ëĬĺ
ĠëķĮ ë§Īëĭ¤
Ġìĭľ ë¦¬ì¦Ī
M ax
ĠìĿ´ë²Ī ìĹĲ
ĠìĬ¤ íģ¬
ĠëĲĺ ëĬĶëį°
Ġ util
A fter
ë¡ľ ë¥¼
ot al
P T
u ate
Ġon es
Ġë°Ľ ìķĺëĭ¤
tr ies
Ġcompon ents
ì£¼ ìĭł
ĠAr ray
Ġre ach
ĠS chool
ĠìĦľë¹ĦìĬ¤ ë¥¼
ĠëĤĺ ìĻĶëĭ¤
CO L
Ġthrough out
ĠN ow
fil es
ĠS ome
ĠìĤ¬ëŀĳ íķĺëĬĶ
ĠìķĦë¬´ ë¦¬
Ġbas is
Ġê¸į ìłķ
ĠìķĬìķĦ ëıĦ
ê±° ëĿ¼
Ġë³´ ìĺĢëĭ¤
Ġìµľ ëĮĢíķľ
V ert
ak er
Ġêº¼ ëĤ´
ì¤ĳ ìĿ´
Ġob j
Ġë¹Ħ ë°Ģ
ìĤ´ ìĿ´
ĠìĬ¤ë§ĪíĬ¸ íı°
ë³´ ì¦Ŀ
Ġph one
AT ION
Ġê·¸ ë§Į
Ġë§ģ íģ¬
ìĽ ¨ìĿ´
ë¡ľ ìļ°
íĬ¸ ë¦¬
Ġnew s
ĠìłĦ íķ´
íĻķ ìĿ¸
ĠìľĦ ìĽĲ
ĠS u
íĶĦ ëłĪ
Ġê° ¤
Ġcom fort
ĠëĤĺ ìĹĲê²Į
F O
ê¸Ī ìĿĢ
íĬľ ë¸Į
ĠìĨĮ ìĨį
Ġìĭľ ê°ģ
ëħĦ ìĿĺ
ĠëĪĦ êµ¬ëĤĺ
V is
Th at
Ġphys ical
a fe
ìĽĮ ìļĶ
ë¿ Į
Pro vider
T ag
our nal
Ġì§Ģê¸Ī ê¹Įì§Ģ
{ (
ê²Ģ ìĤ¬
NA ME
Ġì§ģ ìŀ¥
Ġim medi
ĠëķĮ ëıĦ
A b
íķĺ ìļ°
êµ¬ ë§Ī
ìķĦ ë¹ł
Ġequ ival
ĠìĪĺ ë°ĸìĹĲ
pl i
M M
ail y
ĠìĦł íĺ¸
ìĿĮ ìķħ
Ġë¯¿ ê³ł
ëĵ± ê¸ī
Ġë ·°
ĠìĿĮ ìĭĿìĿĦ
ìĪĺ ìĽĲ
ĠìķĦìĿ´ ê°Ģ
Ġs ix
ìłĦ ê¸°
ĠP ark
Ġê°Ĳ ìĹ¼
ê²½ ì°°
Ġmem ory
Ġro t
Ġë¶Ģë¶Ħ ìĿĦ
un it
ì²ľ ìĽĲ
icro soft
ì£¼ ë§Ĳ
ëħĦ ëıĦ
íķŃ ê³µ
ìĻĦ ìłĦ
ìĭľ íĭ°
Ġë°Ķíĥķ ìľ¼ë¡ľ
B l
Ġk it
Ġìĸ¸ ë¡ł
ìĺ¬ íķ´
Ġê²Ģ íĨł
AR T
ê¸ ĭ
Ġëıħ ë¦½
ĠGo ogle
ê³Ħ ê°Ģ
ĠìĦł ë°ľ
ë¸Ķ ëŀĻ
Ġoff set
ĠìŀĳìĹħ ìĿĦ
if orm
ê¹Ģ ì¹ĺ
Ġê°ĸ ì¶Ķ
D ep
Ġê³ ģ
Ġmain tain
Ġìĺ µ
Ġprob ably
Ġì°į ìĿĢ
Ġdescri bed
ë¯¸ ë¥¼
ëħĦ ìĿĦ
st ore
D ev
Ġìĥģ ìĥģ
Ġìľł ìĿ¼
Ġs ymmet
Ġne ighb
ĠìķĦëĭĮ ê°Ģ
ĠN ote
L I
oo st
Ġì§ ±
ĠíĮ¨ ìħĺ
P A
íĨ ±
ĠD ep
N E
: "
Ġê³ ¤
ĠìłķëıĦ ìĿĺ
ĠëıĻ ìĺģìĥģ
Ġevery one
ĠíĻĶ ëł¤
ĠìķĦëĭĪ ì§Ģë§Į
ĠS up
Ġìĭľ ëıĦ
ĠìĿ´ ìĻĢ
( [
ot o
Ġì¡° ìłķ
Ġre plac
ĠìķĦëĭĲ ê¹Į
he l
Ġg as
**************** ****************
Ġh or
ĠìĥĿê°ģ íķĺê³ł
Ġíķ¨ ìľł
Ġexist ing
19 0
Ġê°Ģ ê¸°
Ġd irection
Ġëĭ¤ ë¥´ê²Į
y ear
ê³ł ê°Ģ
Ġc ause
ĠT able
$ )
êµ¬ ëĬĶ
lem ma
as et
ìĭ¤ ìĹĲ
B ut
val ues
Ġlevel s
ì£¼ ìĹĲ
Ġpro te
requ ire
Ġpract ice
S A
Ġíĸ¥ íķ´
Ġdel iver
at tern
r um
Ġì¦Ĳ ê²ģ
B undle
ë¥ĺ ë¥¼
ĠA cc
ìĺĪ ìķ½
it ect
ĠR ec
ĠíĿĶ ëĵ¤
ìĺģ ìĹħ
ĠëĤĺíĥĢ ëĤĺ
ë¡ ¬
Ġëĵ¤ìĸ´ ìĺ¤
T arget
Ġthere fore
íĬ¸ ëĤ¨
Ġê°Ĳ ìłķ
s cope
ĠëĮĢíķ´ìĦľ ëĬĶ
ve y
at ory
Config uration
ĠìĪĺ ìĺģ
) ^{
ì¡° ì°¨
10 2
íķĺ ìħĶìĦľ
N ow
ĠìķĬ ìľ¼
Ġdeg ree
ëł¥ ê³¼
Ġë³ĳ ìĽĲ
ĠëĶĶ ì§ĢíĦ¸
ë¬´ ë¥¼
ë¡ľ ëıĦ
Ġb oard
Ġup on
ĠF rom
ĠH igh
ĠíķŃ ê³µ
ĠëĤĺëĪ ł
Ġëĭµ ë³Ģ
Ġ ~~
Ġê¸°ì¤Ģ ìľ¼ë¡ľ
ĠìłĦ ë°ĺ
Ġìľł ìĿĺ
ĠëĮĢ ê¸°
P si
ëĵľ ìĿĺ
Ġìĭ¬ ë¦¬
ĠëıĮ ëł¤
Ġë¶Ħ ìĿ´
Ġìķ¼ ì±Ħ
Ġl en
ìĭľ ê³µ
ro y
ĠìĪĺ ìłķ
Ġvari ety
net ic
ĠW orld
ĠS outh
Ġarg s
ĠìĮ į
Ġë§¤ ìŀ¥
ĠS tr
ìłĦ ì²´
r ics
A pp
ë§Į ì¡±
st yles
Ġë¹Ħ ìĭ¸
Ġê³Ħ ìĭľ
ex ample
ĠY ork
Ġê·¸ê²ĥ ìĿĦ
Ġìĭľ ëĮĢ
M in
Ġconfig uration
Con tainer
Ġâĸ ³
çļ Ħ
A ccess
ĠìłĲ ìĿ´
ë§Ī ë¦¬
Ġfin ite
par se
le ep
Ġd imension
íķ¨ ìľ¼ë¡ľìį¨
Ġíİ ľ
ec ute
íĻĶ ìłĲ
Ġc apt
ĠH ere
ĠìļĶ ìĨĮ
Ġt emplate
ë± ħ
Ġìłģ ìĿĢ
íĦ° ë¥¼
Ġw ide
ãĦ ±
Ġãħłãħł ãħł
ìĽ ¨ìĸ´
Ġìŀł ê¹Ĳ
ard s
Ġê¸Ī ë°©
wide hat
am l
ĠíĨµ íķĺìĹ¬
ìħ¨ ìĬµëĭĪëĭ¤
Ġë§ º
pro to
ë§Ĳ ë¡ľ
Ġìĭ¤ ì²ľ
Ġf ully
Ġêµ ¿
ê±´ ì§Ģ
ĠA ust
fr ame
ì¶Ķ ê°Ģ
Ġde cl
Ġre li
erv ices
c it
ĠìŀĪìĹĪ ê³ł
Ġíķł ìĪĺ
ĠìĹĨ ìĸ´ìļĶ
] );
Ġì§Ī íĻĺ
æ ķ
ìĦł ë¬¼
ìĺ¤ëĬĺ ëıĦ
ìĿ¸ ìĹĲ
íĭ° ë¸Į
Ġë¶Ī ê°ĢëĬ¥
Ġëĵ¯ íķľ
ëĨ Ĵ
ìłľ ìŀĳ
ĠìĦ¤ ë¦½
Ġassum e
Ġëĵ¤ ëł¤
t emplate
Ġsw itch
ë³¶ ìĿĮ
ìĪ Ń
íı¬ ìĿ¸íĬ¸
ĠíĺĦ ì§Ģ
Ġë³´ìĹ¬ ì£¼
f loat
Ġë§¥ ì£¼
ìĥģ íĻ©
Ġìľ¼ ë¡ľ
Ġis n
íĥĢ ìŀĦ
Ġíıī ìĨĮ
ëĤ¨ ìŀĲ
Ġìĺ¤ëŀľ ë§ĮìĹĲ
Ġpro ced
Ġf ire
Ġme chan
st ar
ëĭ¨ ìĹĲ
ê°ĳ ëĭĪëĭ¤
Ġì¹ĺ íĤ¨
Ġcomp ared
ëĩ Į
Ġag o
Ġv s
ëģ¼ ë¦¬
ell ow
Ġs ession
Ġlay er
ìĤ° ìĿĺ
ĠS w
Ġë³´ ìŀ¥
Ġgo al
Ġpro posed
M D
ĠO R
Ġìłĳ ìĪĺ
Ġë¯¸ ìķĪ
}_ \
Ġì¢ĭìķĺ ìĸ´ìļĶ
Ġro ad
Ġë§Į ìķ½
ëŀ Ń
comm on
ĠëķĮ ê°Ģ
ìĭľ íĤ¬
}^ \
ĠìŀĲì²´ ê°Ģ
Ġê¸°ìĸµ ìĿ´
ëıĻ ìĹĲ
Ġê·¸ê²ĥ ìĿĢ
u int
ìļĶ íķľ
ë°Ľ ìĿĦ
rap per
ĠS k
Ġíķľ íİ¸
S L
ĠìķĦì§ģ ëıĦ
Ġì¢ĭìķĦ ìĦľ
ìĿĺ ìĽĲ
not e
ĠìĹĨ ìĿĮ
P L
ìģ ¨
íħĮ íģ¬
st ack
ìĦ¸ ê¸°
ëıĻ ìĿĺ
ro ot
ìĪĺ ìĹħ
Ġbr and
Ġcom ing
Ġë¬´ ìĦľ
Ġë¹ ħ
Ġansw er
ìĬ¤íģ¬ ë¦¼
Ġëĸ ¼
C an
ë¶Ħ ìĸĳ
íĬ¸ ìĿĺ
ê°Ĳ ìłķ
omet ry
Ġì¶© ê²©
å ¹
ĠìĹ¬ëŁ¬ ê°Ģì§Ģ
ì£¼ ìĭľë©´
, ,
Ġë§ĪìĿĮ ìľ¼ë¡ľ
E d
Ġìĭł ë°ľ
Ġdom ain
Ġë© ¤ë²Ħ
íķ´ ê°Ģ
ìĥ ĺ
ĠS ervice
ëį ´
ë´ ĩ
íĺķ ìĿ´
sh ould
t ask
Ġê±° ì£¼
íĺ¹ ìĭľ
Ġdes cription
ë¥ Ń
ìĤ¬ ìĿ´íĬ¸
ìĿ´ë²Ī ìĹĲ
Ġinterest ing
Ġabs olut
Ġë´Ĳ ëıĦ
ĠëĤł ìĿ´
Ġact ual
Ġtry ing
pl us
Ġclass es
ĠìłĲ ìĿĦ
ë¨¹ ìĿĦ
Ġíĺ Ĳ
Ġman ufact
Ġcon struction
it able
Ġobserv ed
Ġê·¸ ìłĢ
ê±° ê°Ļ
ìĿ¸íĦ° ëĦ·
ĠëħĢ ìĦĿ
ain ts
Ġì¢ ģ
S im
ĠíĴĢ ìĸ´
å ¾
b ool
ë³¸ ëĭ¤
Ġapplic ations
ëĵľë¦¬ ê²łìĬµëĭĪëĭ¤
ê±° ìĹĲìļĶ
th at
ìĮ į
Ġb re
Ġê¸°ëĬ¥ ìĿĦ
Ġcomput er
íķŃ ìĥģ
ìĥī ìĿ´
ĠN orth
ìĻĢ ëĬĶ
Ġnot hing
} |
Ġin fo
íĭ ¸
pro x
Ġpre vent
19 2
M B
íĺ¸ ìĤ¬
ëª¨ ìĬµ
anag ement
ë¦¼ íĶ½
ìį ¹
Ġìĭ¬ ê°ģ
Ġm ention
ri ef
ĠìķĬ ì§Ģë§Į
ĠìĿ´ìľł ê°Ģ
cd ots
â Ŀ
ëĤĺ ëĭ¤
Ġpart y
equ iv
Ġëĭ¹ ìĹ°íŀĪ
Ġê·¸ ë¥¼
m id
Ġìŀħ ì£¼
8 6
Ġë§Į ëĤľ
ĠëĲľ ëĭ¤ê³ł
m atch
Ġê°Ģê¹Į ìĿ´
ĠFig ure
Ġproject s
urre n
ë ·Ķ
Ġnum bers
s d
ìĦľ ë¡ľ
ìĹ ĳ
ë°Ķ ëĭ¤
ĠWe b
Ġle ave
Ġëĭ¤ ìĨĮ
ĠF ile
ìĭ¶ ìĿĢ
ãħ¡ ãħ¡
S H
Ġex pression
ĠìĭĿ íĴĪ
ì¼Ģ ìĸ´
Ġë°ĺ ì°¬
n ormal
ĠìłķíĻķ íķľ
Ġë³¸ ëĭ¤
Ġrecomm end
ìłĦ ìĿĺ
ëıĮ ìķĦ
et ch
Inter face
ĠìŀĲìĦ¸ íŀĪ
ìĿ´íģ¬ ìĹħ
at ively
ëł¥ ìĿĢ
Ġuse ful
Ġsh ape
Ġí ĳ
() ->
Ġëĭ «
ìĿ´ ê³³
ĠìĿ´ë¯¸ ì§Ģ
ir ing
C A
Ġê·Ģ ìĹ½
ĠìĽ ¹
íĺķ ìĿĺ
14 0
ĠìĥĿê°ģ íķ©ëĭĪëĭ¤
Ġìº ¡
Ġs ound
ĠìłĢ ìŀ¥
am ily
Ġì²ľ ìĹ°
Ġì°¨ ìĿ´
Ġ vers
ë°ĺ ê¸°
Ġëķ Ĳ
Ġch o
om orph
Ġì į¼
ĠëķĮ ìĹĲëĬĶ
j ection
Ġart icle
ì½¤ íķľ
Ġë¶Ī ê°Ģ
Ġa maz
ĠJ an
Ġpro p
En try
ê³Ħ ìĿĺ
Ġì¢ħ êµĲ
ĠìłĦ íĸĪëĭ¤
ĠìĦ± ëĬ¥
ìŀ¬ ë¥¼
Ġre str
l n
Ġin sp
Ġf ill
Ġst orage
ë´¤ ìĸ´ìļĶ
Ġopportun ity
íķ µ
íİ Į
Ġch annel
ìĭŃ ìĭľìĺ¤
ëĭ¹ íķľ
ĠìĿ´ ë¡ł
Ġvari able
Ġì§Ħ ì¶ľ
ct x
ë³´ ìŀĲ
inal ly
cript or
íĸĪ ìľ¼ë©°
Ġm or
ë¸Ķ ë¡ľê·¸
ëĭĪê¹Į ìļĶ
ĠS ub
O pen
ìĹĪ ìĿĦ
Ġstre ng
ê·¸ ëłĪìĿ´
Ġl iter
ì§Ħ ìĿ´
íĸī ë³µ
u ge
Ġê·ľ ìłķ
Ġread ing
Ġì´ī ì´ī
CO DE
ack s
ĠìĿ´ìļ© íķ´
Ġìĥģ íĺ¸
Ġrecent ly
r s
Ġrel ative
9 6
d i
ãĢ ĭ
ë°© ë¬¸
Ġíķĺ ìĭ¤
Ġb and
Ġìĭ¶ ìĸ´ìĦľ
ig en
Ġap plied
Ġì²ĺìĿĮ ìľ¼ë¡ľ
sup port
ĠìĤ¬ìļ© íķĺê³ł
Ġb ottom
Ġconc ern
es e
ĠëģĿ ëĤĺ
ëĶ° ëĿ¼
ìłľ ëıĦ
AC K
q quad
ge bra
text width
ĠìŀĲ ìłĦê±°
ĠB ar
ĠëĤĺìĺ¨ ëĭ¤
ìĬ¤ ì¹´
ar ant
at ives
ĉĉĉĉ ĉĉĉ
ë¹ Ķ
ìķ¼ ì§Ģ
ìĹ¬ê¸° ìĦľ
ĺ ¥
ĠìĹĲ ëĦĪì§Ģ
t hen
Call back
Ġíģ´ ëŀĺ
od er
con f
é ĩ
ĠT HE
al led
ĠìĿ´ ëķĮ
le ased
Ġì£¼ ìĭł
C R
oun ter
Ġc ool
Ġê±´ ëĦĪ
ĠR ep
ĠëŁ °
Ġíķľ ìŀĶ
ìĵ ¸
al le
T op
ĠìĿ´ìłľ ëĬĶ
X X
Ġsk in
Ġactiv ities
ĠN O
Ġìĭľê°Ħ ìĹĲ
íķł ìĿ¸
en ing
ìĭľíĤ¤ ê³ł
In st
ic ate
b reak
ly ing
Ġëª¸ ìĿ´
Ġìĭľ ìĪł
M em
ëĬĶ ê°Ģ
Ġbu ffer
Ġprob ability
ë©´ ìĹĲìĦľ
Ġess ential
ë§Ī ëĶĶ
ê´ĳ ì£¼
ĠC ount
art ment
Ġ\ {
Ġco ordin
ä¸ Ģ
Ġì¤ĳ ìĿ¸
ed ding
Ġeduc ation
ìĿ´ ëŁ¬íķľ
ad ow
on str
ĠìĥĿ ëªħ
ì¢ħ íķ©
{ }
ìĨĮ ê°ľ
ĠìĦł ê±°
Ġin dependent
Ġtool s
Ġê³Ħ ëŀĢ
ĠìĪĺ íķĻ
ou ter
ĠìĽĮ ëĤĻ
Ġì¢ĭ ì§Ģ
Ġcon ver
ĠW indow
Paramet er
Ġex am
Ġê³ł ìļ©
ĠìĬ¤ íĶ¼
ê¸¸ ìĿ´
t ree
ir it
ĠëĤ´ìļ© ìĿĢ
ë¯¼ ì£¼
ëŁŃ ìĭľ
ë¦¬ ëıĦ
app ed
Ġì§§ ìĿĢ
Ġë³´ ë©°
ëĭ¤ ëĵ¤
Ġë°ľ ëĭ¬
Ġappro pri
ĠL og
Ġse ems
cont rol
Ġê³ ±
Ġqu al
id get
ĠìĤ° ì±ħ
c up
AL L
Ġë§ŀ ì¶¤
Ġëª ½
Ġë¨¹ìĸ´ ëıĦ
Ġhapp y
Ġëª° ëŀĲ
aut hor
Ġf loat
Ġê·¼ ê±°
Ġprovid ing
é Ļ
Ġs low
Ġìŀħ ëł¥
Ġstart ing
{ {
C o
Ġìľł ì¹ĺ
Ġsp in
ìĺ¤ ìĿ¼
Ġexact ly
="../../../../ ../
Ġem pty
ĠìĪĺ ë§İìĿĢ
ìĪĺ ìĹĲ
Ġê´Ģ ëŀĮ
Ġarg uments
ad em
Ġ{ }
å ·
Ġìı ĺ
D D
Ġbehav ior
ab y
ìĤ¬ íķľ
) "
a res
ìľĦ íķ´
lay er
ĠíĨµ ê³¼
Ġcomp os
Ġm achine
Z E
C S
R ange
ĠìĨĮ ëĵĿ
ind ent
ä¸ į
Ġwor th
Ġpre tty
Ġê²½ìļ° ëıĦ
ter m
od ed
âĳ £
W rite
Ġê¼ ½
ĠëĴ¤ ë¡ľ
om an
Head er
s in
Ġp ark
oot str
S u
Ġìĥ Į
Ġê°ľ ìłķ
Ġbeh ind
Ġad min
ĠëĤ´ ê²Į
ĠìŀĲìĦ¸ íķľ
Ġê³³ ìĿĦ
Ġì¢ĭ ëĭ¤ê³ł
T ree
ed ge
ì§Ħ íĸī
Ġmaterial s
ìĿ´ìĹĪ ëĬĶëį°
d ocument
ĠëŁ¬ ìĭľìķĦ
C opy
air s
Ġal tern
Ġarg ument
d rop
Ġtrans ition
ë§Ī íĨł
ĠíĶĦëŀĳ ìĬ¤
% %
ĠC reate
Ġn ames
ĠìĿ´ ìģľ
$ (
ĠìĦ¸ íĬ¸
ìĦ¸ íķľ
. âĢĿ
Ġc ert
Ġë¶Ħ ëĵ¤ëıĦ
ĠìĹĦì²Ń ëĤľ
id ing
Ġdri ve
b uffer
Ġê³µ íķŃ
}) \
ot es
ì§Ħ ìĿĦ
ì¡° ìłľ
ĠReturn s
Ġìĸ ĩ
íķĺê¸° ìĹĲ
19 3
Ġë°° ì¹ĺ
Ġëª» íĸĪëĭ¤
ë© ľ
He ight
ĉ Ġ
Ġab ility
Le vel
ìķĺ ê³ł
% ),
Ġpro gress
ĠìĿ½ ê³ł
tain s
ĠìĻ ĢìĿ´
Ġê°Ļ ëĦ¤ìļĶ
ìĸ´ ëĶĶ
Ġtrans fer
Ġëĵľ ëĿ¼ìĿ´
íķ´ë³´ ìĦ¸ìļĶ
ä¹ ĭ
ìĬ¤ ëĿ¼
Ġë º
ĠìĪĺ ìĽĲ
Ġëĵľ ëĶĶìĸ´
Ġlat est
ìļ´ ëĵľ
b in
^ +
Ġrequ ires
U B
A PI
Pro cess
Ġì°¨ ë¥¼
íķľ ì§Ģ
l ish
Ġins urance
p g
ĠìĿ´ ìĿµ
ĠD E
ĠI S
ìķĦ íĬ¸
Ġìľł íĨµ
ë° ı
ĠëĪĮ ëŁ¬
? :
Ġ ãħľãħľ
Ġwh ose
Ġre nder
Ġëı ĭ
ĠJ ust
Ġë§İ ìĬµëĭĪëĭ¤
ĠìĦ¤ëªħ íĸĪëĭ¤
Ġal ign
Ġatt empt
íĻĶ ìĿĺ
Ġìķ ±
Util s
i et
ìĭ¤ ìĿ´
ĠìłľíĴĪ ìĿĢ
å¤ §
ìļ´ ìłĦ
Ġë³´ ìŀħëĭĪëĭ¤
Un it
Ġhigh ly
Ġê´ľì°® ìĿĢ
ìĹ¬ ìĦ±
il le
å ¿
us es
& &
Ġë¬¸ ìĿĦ
ĠíķĦìļĶ íķĺëĭ¤
ĠëĮĢ ë¡ľ
ëĭ¤ ë§Į
Ġre lease
Ġìŀħ ìĿĦ
IG N
ec urity
Ġìłģ íķ©
ĠìĨĮ íĻĶ
f s
W ork
ĳ ¥
' ),
Ġë§Ī ì¼ĢíĮħ
Ġpol it
Ġëĵ¤ìĸ´ ê°ĢëĬĶ
ĠíĬ¹ ìĦ±
s y
Ġìĭľ ê¸°
Ġíķĺ ëĭ¤ê°Ģ
Ġqu e
Ġìľł ìķĦ
ëĶ ĺ
Ġother wise
ì§ĳ ìĿĦ
25 5
Ġsal es
to ken
ìĺ¤ëĬĺ ìĿĺ
Ġd ed
Ġë¬¼ ìĿ´
ì£¼ ìĸ¼
Ġj oin
ìŀĦ ëĮĢ
Ġë¶Ģë¶Ħ ìĿĢ
ê·¸ ë¦¬
Ġsign al
ĠìĬ¤íĬ¸ ëłĪ
Ġchall eng
ë°© ìĿĦ
Ġê³³ ìľ¼ë¡ľ
8 2
f inal
ê¸° ì§Ģ
ĠëģĮ ìĸ´
Ġs un
m ut
ĠìŀĲ ëĬĶ
Ġì¹ľêµ¬ ê°Ģ
^ -
Ġì°į ê³ł
h am
Ġsm ooth
íĽĦ ìĹĲ
ous ly
Ġìł ĸ
Ġë¶Ģ ìĹ¬
ëĿ¼ ìļ°
ê¸° ì¡´
Ent ity
Ġsub s
ê²¹ ìĤ´
Ġìºł íķĳ
w ner
ìĭ¤ ìĹĲìĦľ
ìĿ¸ íħĮë¦¬ìĸ´
D at
ĠìĿ´ìľł ë¡ľ
Ġì°½ ìĹħ
ìĦľ ê°Ģ
Ġatt ention
ĠëĤĺìĺ¤ ê³ł
ìĥĿ ìĿĦ
Ġsk ills
ac ed
}} (
=" -
ĠëĤ ³
an sp
Ġê°Ģ ë¡ľ
i as
ĠWh ile
Ġë¯¸ ì¹ĺëĬĶ
ì²ľ íŀĪ
ul ated
Ġë³´ ìĭľë©´
êµ¬ ìĹĲ
Ġcon cept
Ġp ackage
Ġbas ic
Ġwant ed
ìļ´ ìĺģ
Ġë°° ê°Ģ
ĠíĶĦë¦¬ ë¯¸ìĹĦ
Ġìĸ´ ë¥¸
p atch
ëĮĢ íļĮ
Ġê±° ìķ¼
ĠìĥĿê°ģ íķľëĭ¤
Ġm en
ìĿ¸ ëıĦ
Ġexc ell
Ġìłľ ê¸°
Ġright s
ìĭľ ìĿĺ
ë¥ Ļ
ĠR ed
el oc
7 1
Ġë² ¨
Ġset tings
ì¸µ ìĹĲ
ĠìĹ¬ ê¸°ìĹĲ
at ically
Ġëª¸ ìĹĲ
du c
ë½ ķ
Ġg en
ootstr ap
ë³´ ëĵľ
ë°ĺ ì°¬
Ġê°Ħ íİ¸
ĠìłĲ ê²Ģ
ë²Ħ ë¦°
ìĿ¼ ëŁ¬
th on
Ġex cept
êµ¬ ë¡ľ
ë°° ìļ°
Ġë§ŀ ìĿ´
ìĿ¼ ë³´
v as
Cont rol
c ache
Ġìļ° ìĪĺ
íŀĪ ê³ł
Ġì´Ī ê¸°
Ġsupport ed
Ġy ield
ë¦ İ
Ġëĭ ĺ
ìķĦ ë¦¬
ar p
Ġclos ed
ĠO ut
B A
ĠìĹ¬íĸī ìĿĦ
Ġë§Ĳ ìĿ´ëĭ¤
ĠìĿ½ ìĸ´
ĠAr t
Ġê²ĥ ë§Į
Ġbut ton
: (
íĶ¼ ìķĦ
Ġë°© ì§Ģ
ĠR ead
7 6
Ġfil m
ìĦľ ìĹĲ
he st
ìĿ¸ ìĹĲê²Į
Ġs eg
âĹ Ĩ
ãĤ Ĵ
ìĹĪëĭ¤ ê³ł
we et
res ource
au gh
Ġpr inc
ĠëĤ´ìļ© ìĿ´
ëĦ¤ ìĿ´ë²Ħ
ë¬´ ìĹĩ
Ġê°ľ ë´ī
Ġë°©ë²ķ ìĿĢ
AN D
g n
ĠCent er
class es
Ġquick ly
ë¨¼ íĬ¸
ì§ģ íķľ
ar ily
}^{ (
ĠW ork
Ġìĺ¬ëĿ¼ ê°Ģ
Ġìĭł ì²´
ĠA pr
Ġs il
r ad
Ġ Ã
ìľł ë¥¼
ìĭľ ìĬ¤
Ġpresent ed
ĠĠĠĠĠĠĠĠĠĠĠĠĠĠĠĠ ĠĠĠĠĠ
Ġì¤ĳ ìĨĮ
ĠíħĮ ìĬ¤íĬ¸
ìļ© íĴĪ
Ġë§Ĳ ìĹĲ
Ġhe ld
m es
Ġincre asing
Ġrepresent ation
c ur
ed ia
ìĿ´ ìĤ¬
erv ed
íļĮ ìĽĲ
Th read
íĸ¥ ìĿĦ
ĠìĥģíĻ© ìĿ´
Ġbl ue
â ľ
Ġ ..
Ġcomm it
r ule
ãģ ¨
ĠìĿ´ìļ© íķĺìĹ¬
ĠìĬĪ íį¼
Ġì¡ ±
íĺ¼ ìŀĲ
Ġëģ Ħ
ìĦľ ê´Ģ
ê´ Ħ
Ġê±° ìĺĪìļĶ
Ġëª» íķł
ĠìĿ¸íĦ° ë·°
Ġcre dit
ê¶Į ìĿ´
ĠìĨĲ ìĹĲ
Ġdec ision
E M
Ġê°ĢëĬ¥ íķĺëĭ¤
ìĿ´ ì¦Ī
ê°Ģ ìĬ¤
im ages
ut h
ol es
ĠìķĦ ëĤ´
ì¢ħ ìĿĺ
Em pty
Pos ition
Ġchar ge
art ifact
Ġëĸł ìĺ¤
ëĮĢ ì²´
ĠP lease
Ġëĭ¹ ìĹ°
ëĭ «
Ġvari ables
Ð »
Ġíķĺ ëĬĶëį°ìļĶ
ĠìĺĪ ë»Ĳ
ìķĦ ëıĦ
ê²½ ìĺģ
Ġr ound
Ġê³ °
ĠíĻķ ìłķ
ëĵ Ģ
ĠP re
ëļ Ŀ
ec ause
ĠìĿ¸ê°Ħ ìĿĺ
ĠíĻĺ ìŀĲ
Ġb all
Ġë¬´ìĹĩ ë³´ëĭ¤
Ġreturn ed
Ġd og
et ime
Ġë°© ìĭĿ
S K
Ġë°° ëĭ¬
ìĦ± ë¹Ħ
Ġë³µ ìŀ¡
Ġê°ľ ë³Ħ
ĠI P
Ġ> =
Ġê³ł ë§Ī
Ġë©´ ìłĳ
ìĹ ī
Ġìķ ¨ë²Ķ
Ġre lation
12 3
Ġdem onstr
Ġw ood
ĠìĿ´ ëŁ¬
Ġê³¼ ìĹ°
ìķĪ ìĿ´
um in
Ġê³µ ê¸°
Ġíĺĳ ëł¥
Ġì°¨ ê°Ģ
ĠìķĦ ìĭľìķĦ
Ġp refer
ple te
ĠíĬ¹ ìłķ
ĠëĤ´ ëħĦ
Ġê·ĢìĹ¬ ìļ´
Ġìĸ¸ ìĸ´
ĠëĶĶ ìŀĲ
ĠìĥģíĻ© ìĿĦ
Ġì²Ń ëħĦ
Ġdevelop ed
a o
ì¤ĳ ìĿ¸
& =
lev ant
Ġê³µ ê°Ĳ
Ġsmall er
ëĬ¥ ëł¥
Ġcomplet ely
Ġì£¼ ìĨĮ
Ġmod ern
ĠìĨĮ íĨµ
7 4
ìŀĪ ëĬĶëį°
Ġì°¸ ì¡°
UL T
Ġê±° ì§ĵ
Ġíķľ ì°¸
Ġì¤ĳ ê³ł
ë¥´ ê¸°
Ġk ids
íĳľ ë¥¼
} :
ĠF irst
ë¬¸ íķĻ
ëŀĺ ìļĶ
Ġallow ed
V AL
Ġëħ¸ íĬ¸
ìļ© ìľ¼ë¡ľ
Ġach ieve
ëĮĢ ìĹĲìĦľ
ĠìķĪ íĥĢ
´ íĳ¸
Ġan g
ì¹ĺ íĤ¨
ê°Ĳ ëıħ
Ġìĥģ ì§ķ
Ġì²ł ìłĢ
ëĮĢ ë¹Ħ
ëĤ¨ ëıĦ
Ġêµ ½
ë¥´ ì§Ģ
ru pt
Ġd ark
êµŃ ìĿ´
Ġë¹Ħ íĮĲ
ĠëĦ ī
Ġl ock
ĠTh us
Ġë°©ë²ķ ìĿ´
S earch
I F
Ġëª¨ ìŀĦ
ë° ĸ
Ġëħ¸ ì¶ľ
7 3
ìĪĺ ìĪł
Ġat tribute
Ġa ud
ìŀ¥ ëıĦ
b ound
Ġê³¼ ìĿ¼
Con st
íİ Ļ
Ġg reen
Ġ$ (\
o res
Ġh olds
íķ¨ ê³¼
En c
Ġsa fe
ãĢ İ
ĠëĤ´ ëĤ´
íģ¬ ë¡ľ
ang er
ĠìķĮ ìķĺ
Ġìĸ´ëĶĶ ìĦľ
Ġíķĺ ìŀĲ
ëĵ¯ íķľ
ìĹĦ ì²Ń
ëĳ ĳ
Ġëĵľ ë¦´
ê²¼ ëĭ¤
ĠìĿµ ìĪĻ
Ġerr ors
\ "
im ately
{ {\
Ġlim ited
íĺ¸ ë¥¼
ì¤ĳ ê³ł
M e
Ġê¹ĶëģĶ íķĺê²Į
Ġcost s
struct or
ìĥģ ê³¼
Ġì¢ĭ ìķĺëĭ¤
ĠìķĦë²Ħ ì§Ģ
ĠìĽĲ ì¹Ļ
íķĺëł¤ ëĬĶ
Ġíļ į
Ġì³ Ĳ
Ġch arg
Ġê¸° ë¦Ħ
ĠL O
ĠìĥĪ ìļ°
Ġëª¨ ìĹ¬
ì¡° íķ©
ĠìķĦ ìĭľ
Ġìļ° ìĬ¹
ĠE l
Ġl if
T ER
clus ion
Ġë© į
ĠìĹ´ ìĸ´
ê²½ ìļ°
p a
ĠëķĮ ê¹Įì§Ģ
l ate
Ġëħ¼ ìĿĺ
ĠìĿĺ ìĽĲ
Ġë°Ľ ì§Ģ
íĬ¸ ìĽĮíģ¬
D ec
Ġë³´ ìĦ¸ìļĶ
el i
ĠW ill
du le
iz ont
B O
ë°© ìĹĲ
ðŁ Ĵ
set s
Ġoff icial
ĠíķĺëĤĺ ìĶ©
ĠAl so
ëļ ľ
util s
Ġìī¬ ìļ´
av y
ëŀ« íı¼
it ation
ë¯¸ ë¦¬
Ġê±´ê°ķ íķľ
b ut
Ġë¶Ħ ë¥ĺ
ìŀĲ ëıĦ
Ġê·¸ ëĵ¤ìĿĢ
9 4
Ġìĺ Ģ
íķĺ ê²łëĭ¤
J son
Ġë³´ ëŁ¬
ĠìĤ¬ ê³¼
re et
Ġë¶Ī ê³¼
S ince
Ġëĸł ìĺ¬
ìĽł ëįĺ
ç Ľ
êµŃ ê°Ģ
Ġdat abase
Ġê°Ģ ë²¼
íķ´ ìł¸
Ġbro ad
Ġëª¨ ìķĦ
Ġh on
íĬľ ëĶĶìĺ¤
ëĭ¤ ìĿ´
b and
Ġsh ip
ĠìķĪ ëħķ
ìķŀ ìľ¼ë¡ľ
math sf
íĺ¸ ìĦł
V ari
ë° ĳ
íģ´ ëŀĺ
Ġì§ĳ ìĿĦ
8 1
ĠìķĪ ìĭ¬
ë§Ī ìĿ´
Set tings
Ġm obile
= {
ëĭ¬ ëĿ¼ê³ł
Ġprogram s
Ġcon nected
9 1
ê¸° ìŀĲ
Ġn odes
ĠëĤł ìĶ¨ê°Ģ
ang es
Ġtr ust
ĠëĲĺ ê¸°
Mod ule
ì§Ī íĻĺ
P arams
Ġdeterm ine
u el
ĠíĸĪ ê³ł
H ash
Ġ ign
Ġun c
Ġfor ce
ë®¤ ëĭĪ
N et
Ġê°ľìĿ¸ ìłģìľ¼ë¡ľ
âĺ ŀ
cl os
ĠH is
9 2
}\ \
Ġë§Ĳ ìĿĢ
Ġlook s
ëĨ ¨
ĠìĤ¬ì§Ħ ìĿĢ
Ġup per
Ġìĭ¤ íĸī
x x
Ġì¦Ĳ ê²¨
ëĲľ ëĭ¤ê³ł
Ġë©Ķ ìĿ¸
Ġt ouch
F C
ĠìĿ´ìļ© íķľ
ìľ¨ ìĿĦ
Ġë¬¸ìłľ ëĬĶ
ĠìĨĮ ë¦¬ê°Ģ
oc ation
Ġh it
Ġë°ĺ ë©´
ad es
Ġë°Ķê¿ Ķ
Ġquant um
ot a
ëĤ ®
ë°° ë¥¼
L S
am ent
ĠíĻķ ì§Ħ
ëĵ± ìĿ´
S cript
er ve
o z
ĠìĿ¸ ë¬¼
Ġm ount
ĠAs sert
ìĭ¬ ìľ¼ë¡ľ
ĠíĨµ ìĭł
? '
ĠëĤ´ ìĿ¼
Ġst eps
íĴĪ ìĿ´
cre te
00 1
íĥĢ ê²½
Ġê¸° ê³Ħ
if i
ëª© ìĿ´
Ġìĭľ ì¼°
Ġìĸ´ì© Ķ
Ġelect ron
Ġê³Ħíļį ìĿ´ëĭ¤
ì°¨ ëĬĶ
Ġì§ĳ ìľ¼ë¡ľ
ir th
Ġsc en
ìĭľ ìŀĳ
N ote
Ġì¶© ìłĦ
ìĮ Ī
Ġc ore
ĠìĬ¤íĬ¸ ëłĪìĬ¤
ìĹŃ ìĿĦ
r ate
ĠìĪĺ ë¦¬
Ġëģ Ī
ĠìĥģíĻ© ìĹĲìĦľ
ìķĦ ëĬĶ
íĻĶ ë¡ľ
ĠíĽĮ ë¥Ń
ìĭľ ì¼°
íķ¨ ìĹĲ
ĠâĢ ¦
Ġì»¤ íĶĮ
ê°Ģ ìŀħ
ĠìĤ¬ ìŀ¥
Ġì²ŃìĨĮ ëħĦ
Ġa x
b order
ĠíļĮ ìĿĺ
" ))
N N
ì¡Į ìĬµëĭĪëĭ¤
H ttp
ì¢ħ ë¥ĺ
a e
for ce
íĹ ¬
le br
Ġë²Ĺ ìĸ´ëĤĺ
ify ing
Ġê² ī
ĠSt ates
Ġcon duct
Ġëĭ ¿
ëĮĢ ì¶ľ
Ġinvol ved
Ġm er
Ġë°©ë²ķ ìľ¼ë¡ľ
re ement
ĠN e
Ġstrateg y
Ġp arams
íĶĦ ë¡ľê·¸ëŀ¨
ul ate
ĠëĤ Ń
ĠO ff
Ġë© °
íĻķ ìĭ¤
Ġë§Ī ì£¼
ĠìłĢ ìĿĺ
N one
ìŀĲ ì¹ĺ
ëĶĶ ìħĺ
Ġíķľ ìłķ
Ġì§Ħ ëĭ¨
Ġë°° ì¶ľ
íķĻ ìłģ
Â·Â·Â·Â·Â·Â·Â·Â· Â·Â·Â·Â·Â·Â·Â·Â·
ìķĦ ìķĦ
Ġíķĺ ìĭł
un t
Ġì½ĺ íħĲì¸ł
Ġì¥ Ĳ
Ġcreat ing
ìĿ´ ë¦Ħ
Ġs ources
3 50
O ption
line ar
Ġmarket ing
ìĭľ ì¦Į
ê¶Į ìĿĺ
Ġweek s
Ġì¦Ŀ ê±°
s v
íĶ¼ìĬ¤ íħĶ
IN E
ma ke
8 3
íĻĶ ìĹĲ
ëį° ìĿ´íĬ¸
ĠìĤ¬ì§Ħ ìĿ´
ìĽĶ ëĵľ
b on
ic ol
ĠìĿĺ ë¬´
Ġs cope
Ġn ice
ĠL emma
Ġíĸ¥ íĽĦ
Ġìį °
de bug
ĠíĻķìĿ¸ íķł
ë¶Ħ ìķ¼
ĠP e
ìĭ¤ ë¡ľ
ì¿ Ħ
Ġìķł íĶĮ
re es
ĠU se
ĠëĮĢ ë°ķ
iz ations
Des cription
d imension
Ġê¸° íļĮë¥¼
Ġìłľ ìķĪ
Ġth read
ĠN S
ë£ ¬
Ġto ld
ĠìŀĲ ê°Ģ
ì´ ¬ìĺģ
Ġpat ients
ì§ģ ìłĳ
ĠìķĦë¦Ħ ëĭ¤
Ġìĭł ëŀĳ
íĮĲ ìĹĲ
ĠM c
he t
Ġìŀ¥ ë©´
Ġíĥľ ìĸĳ
is ions
ĠëĤĺë¨¸ ì§Ģ
ìľł ê°Ģ
f oo
ĠìĿ´ê²ĥ ìĿĢ
ĠìķĬ ìķĦìļĶ
ou l
Ġv ac
Ġë¶Ļ ìĹ¬
Ġë§Ī ì¹ĺê³ł
PE CT
êµ° ìĿĺ
ê¸° íĥĢ
Ġmin imum
Ġmed ical
Ġann oun
ê² ¸
ve ctor
Ġst ock
ë§Ĳ ìĿĦ
Ġëĵ¤ ìĹ¬
Ġs ell
ìĪĺ ìĪĺ
ê¹Įì§Ģ ëıĦ
Ġg alax
ĠA ir
Ġc as
ĠêµĲ íļĮ
ìº Ķ
Ġn ature
Ġcontain er
Ġë²Ħ íĬ¼
Ġì§Ī ë³ĳ
ìĽĲ íķľ
Ġamaz ing
ĠP res
ìĭľ ë¡ľ
Ġact ivity
ent ity
Ġredu ce
ëıĦ ìļ°
Ġë§Į íķľ
ud get
as ons
Ġì±Ħ ìĽĮ
Ġëı ķ
ĠSt ud
íİ Ģ
íķĻ ìĿĦ
ĠìĪ «
Ġì Ńī
Ġê°Ģ êµ¬
ĠìĹ ĳ
ĠìĪĻ ìĨĮ
íĻĶ ìŀĲ
Ch ange
us iness
íĥĢ ìļ´
' .
ê¸° ê¸°
Ġund efined
Ġht tps
ë¶Ħ ëĵ¤ìĿĢ
Ġìĭľìŀĳ íķľ
æ ³
ìĭľ ê¹Įì§Ģ
ĠìĺĪìģĺ ê²Į
Ġíķ¸ëĵľ íı°
Ġë°Ŀ íĺĢ
Ġë§ŀ ìķĦ
Ġx ml
Ġrequire ments
en ge
ĠíĶĦ ëłĪ
íģ´ ëŁ½
19 1
ëĵľ ëĶĶìĸ´
p op
Ġë°© ìĭĿìľ¼ë¡ľ
mat rix
Ġìĭ¶ ìĸ´ìļĶ
Loc ation
ĠM od
ìĺ ´
Ġê·¸ê²ĥ ìĿ´
Ġcom ment
Ġp anel
Ġr ates
ĠA c
ãħ ħ
Ġë§¤ ìļ´
Ġíķľ ëĭ¬
ë° ´
equ al
D P
íĺ¸ ê°Ģ
M I
Ġê°Ĳ ìĥģ
Ġëĵ Ŀ
Ġë¶Ļ ìĸ´
ĠìĿĺë¯¸ ë¥¼
ms g
we ight
ë¯¸ ëĭĪ
ìĺ¤ëŀľ ë§ĮìĹĲ
a ign
íĥĿ ë°°
Ġto wn
ĠìĨĮ ìļĶ
Ġto wards
ĠN A
] $
Ġë³´ ì§Ģ
ë¸Į ë¦¬
ìłĢíĿ¬ ëĬĶ
Ġpro ve
Ġì¶ľ ì²ĺ
ðŁ ĳ
ĠìĦľ ìĦľ
à ¸
Ġcrit ical
ëĭĺ ëĵ¤ìĿ´
Ġì²ĺ ëŁ¼
Ġst age
ĉĉ Ċ
ĠThere fore
Ġë§ĲìĶĢ ìĿĦ
on ic
Ġíķĳ íģ¬
ì¦ Ļ
ĠíĿ¡ ìĪĺ
b ind
Ġinfl u
Ġpass ed
Ġì§Ģ êµ¬
ĠìĪĺ ìļ©
Ġp an
ĠëĦī ëĦī
sc r
Ġbound ary
Ġê²° íķ©
Pro perties
Ġë§Ĳ íķ´
Ġexp and
Ġê·¸ ë¦ĩ
Ġbecom es
ĠD ay
Ġ& \
izont al
ëªħ ìľ¼ë¡ľ
Ġp adding
ĠíķĺëĤĺ ëĭĺ
ern el
â Ħ
re st
in y
ĠíĥĢ ìŀħ
ìĿ´ ëŀįëĭĪëĭ¤
ì§ģ ìĽĲ
Ġì ¾Į
Ġë¬´ ê²Į
ĠíĺĦ íĻ©
Ġê·Ģ ì°®
ĠìĿ´ íĥĪ
Ġë¦¬ ëįĶ
Ġbook s
}\ ,
ĠB uild
Ġcand id
ur g
ĠE d
Ġs ymbol
ìĦ¤ ì¹ĺ
ĠìĥĪ ë¡Ńê²Į
Ġstud ent
Ġr ule
ĠëıĮìķĦ ê°Ģ
ĠìĿ¸ ìĬ¤íĥĢ
Ġt ick
os en
ëŁī ìĿĢ
Ġ* )
Ġìĺ¤ë¥¸ ìª½
us ion
Ġì²´ ê²°
cit et
ëıĻ ìĥĿ
Ġr ules
Ġvol ume
ê±° ë¦¬ëĬĶ
Ġíķł ë¨¸ëĭĪ
Con nection
Ġchang ed
dev ice
Ġa im
> .
ìĦ¸ íı¬
é Ģ
' $
Ġp ool
i os
ìĥģ ê°Ģ
ĵ Ĵ
Ġíĸ¥ ìĥģ
ë¦ ħëĭĪëĭ¤
è ¨
A re
D ir
Ġme as
iqu es
ĠìĿ¸ ì§Ģ
ĠìĤ¬ìļ© íķ´
ìĸ´ëĸ »ê²Į
ĠìĬ¤ íĭ°
Ġíķ© ë¦¬
ĠíĻľ ìĦ±íĻĶ
COL OR
as ic
artifact Id
Ġìĭł ìļ©
Ġì¶ķ íķĺ
Ġê³ł ê°ľë¥¼
Ġres id
Ġb lo
P G
Ġíĥ ĵ
ìĤ° ë¬¼
Ġê±° ë¶Ģ
Loc al
ĠìĤ¬ëŀĮ ëĵ¤ìĹĲê²Į
Col lection
Ġrem ember
Ġtrans port
ĠìĪĺ ìĪĺ
Ġs ong
Ġëĭ¤ìĿĮ ìĹĲ
h ash
Ġdisc over
H ere
íķ´ ì§Ģê³ł
ì²´ ìľ¡
ĠëģĿ ê¹Įì§Ģ
ĠO pen
y ing
Ġgu arant
ag ment
vari ant
ĠS ch
ĠëĤ´ ë¦¬
m itted
Ġprot ect
Ġadv ant
Ġì§ĳ ëĭ¨
ìľł ë¦¬
Ġe p
co very
íķĺìĺĢ ê³ł
ers hip
D S
ĠìłĢ ëłĩê²Į
ëĭĪ íĦ°
ë¶Ģ ìŀ¥
irect ory
Ġen h
ìĭł ë¬¸
o e
ĠìĹĦë§Ī ê°Ģ
ĠëıĦ ìĽĢ
Ġpurch ase
urs or
Ġëļ «
ĠëĲľ ëĭ¤ëĬĶ
Ġë¬´ íķľ
Ġëĳĺ ì§¸
Ġsub st
9 3
Ġë³´ ëĭ¤ëĬĶ
ĠìĦľ ë¥ĺ
Ġappropri ate
Ġì·¨ ìĨĮ
ìĭľ íĶ¼
Ġin f
Ġë§Į ëĤł
Ġê²Ģ ì°°
Ġwork ed
Ġë²Ķ ì£Ħ
Ġstud ies
Ġìŀ¬ ë°°
ê³µ ìĹ°
a ul
.. ..
C urrent
Ġë¬´ ì²Ļ
ê°ľ ìłķ
F ont
ê± ±
Ġgiv ing
Ġë¬ ¶
ap prox
Ġro b
@ ***
Ġl ate
Ġì£¼ ê±°
x space
Ġgo es
ì»¬ ëŁ¬
Ġìĸĳ ìĿ´
Ġë¬¼ ìĹĲ
ìĨĮ ìŀ¬
) +
om ic
Ġpress ure
b efore
ĠIn c
Ġëª¨ ë°ĶìĿ¼
ìķ ī
Ġê³µ ìĤ¬
ib ly
umer ate
t ure
ãģ Į
ĠìŀĪ ìĿĮìĿĦ
Ġover ride
ĠìĤŃ ìłľ
Ġreport ed
Ġë²Į ìĸ´
êµ¬ ìĿ´
ĠìĦ¸ íĥģ
Ġìĸ¼êµ´ ìĿĦ
Ser ial
ê²° íĺ¼
Ġìī½ ì§Ģ
u a
ĠìĻ¸êµŃ ìĿ¸
ĠìĨĮ ê¸Ī
ìĺ¨ ëĭ¤
ê·¸ ëķĮ
ë¯¸ íĦ°
i ation
ë´¤ ëĭ¤
ìĦł íĥĿ
Ġto ken
ĠN OT
ê°ķ ëĤ¨
% ;
2 20
ĠíĶ¼ ê³¤
Ġê¸° ìļ¸
pon ents
Ġintern ational
Ġp iece
íĸ ĩ
ëĬĲ ëĤĮ
ĠìĪĺ ë¶Ħ
íħĮ ìĿ´ë¸Ķ
Ġê³Ħ ìłĪ
ìĤ° ìĹĲ
ëŃ Ķê°Ģ
ìķĦ ìĽĥ
al es
ê³ł ìļĶ
ê¸Ģ ë¡ľ
Ġpict ure
The n
ë ĺĳ
ìĸ¼ êµ´
yn ch
c ar
ĠC oun
ê±´ ëį°
c at
ë§Ĳ ìĿ´
Ġì¶ ¤
Ġëĭ¤ ë¦¬
Ġn et
ĠìĺĪ ìłĦ
v ol
Ġê·¸ëłĩ ì§Ģ
Ġì£¼ ìĭľ
ãģ §
íķĺìĭľ ê¸°
Ġs s
Ġì¶ľ ìĭł
op h
êµ¬ ìĦ±
S ign
ĠG roup
Ġê¸°ëĭ¤ ë¦¬
it ute
ĠìĿĺ ìĭ¬
ĠíĻķ ìŀ¥
ìĤ° ëıĻ
ìķĦ ê¸°
íĭ° ì§Ģ
íķ´ ëĭ¹
Ġref lect
ë°© ìĿ´
ot ed
St ore
íķł ê¹Į
Ġëĭ¬ ìĦ±
over n
Ġl ives
ìĽĶ ë¶ĢíĦ°
ëĵľ ëł¸
ë²ķ ìĿ¸
Ġlink s
m ode
ìļĶ ë¦¬
ë³´ ìĿ´ëĬĶ
Ġë¨¸ ë¦¬ë¥¼
Ġì¤Ģ ëĭ¤
}} {\
Ġê·¸ëħĢ ìĿĺ
ì§Ģ íķĺ
ëĤĺ ìĻĢ
- _-
f it
ĠC r
ì¹ĺ ê²Į
Ġneg ative
c opy
ìľ¼ ìĭľ
Ġê°Ĳ ëıĻ
íĮĲ ìĿ´
Ġeffic ient
Ġequip ment
ĠìĨĮ ë¦¬ë¥¼
Ġde cre
Ġoper ations
Ġê¸° íļĮ
Ġsit uation
å Ľ
Ġë° ´
ë¦¬ ìĬ¤íĬ¸
anc y
Ġë©Ķ ìĭľ
ST R
ĠìĦ¸ ìĥģìĿĦ
sh ip
H P
ĠD O
Ġìłķ ê¸°
Ġor d
Ġìĸĳ íĮĮ
Ġëª¨ë¥´ ê³ł
Ġë¬´ ìĭľ
ĠìĥģíĻ© ìĹĲ
ëĶ° ëĿ¼ìĦľ
ĠìķĦìĿ´ íı°
ì§Ģ ë©´ìĦľ
Ġpur pose
ìłľ ìĹĲ
ì§Ī ìĿĺ
Ġíķ´ ì£¼ëĬĶ
Ġìı ŁìķĦ
Ġì°¨ ëĭ¨
Ġìłģ ìĿĳ
Ġì°¨ ë³Ħ
Ġë§Ī ìĿ´
operator name
ĠD i
Ġfinal ly
c p
ìĿ¸ ì¹ĺ
ĠëģĿ ìĹĲ
ĠU K
K ind
Ġê°Ħëĭ¨ íķľ
em p
ì§Ģ ëĭĪ
ab ilities
íĿ Ķ
cri be
Ġë§Ī ëĬĺ
at ur
P o
ark s
ĠëĨĢ ëŁ¬
ë§ Ļ
Ġany one
Ġê·¸ ë§Įíģ¼
am a
ì² ©
iction ary
Ġwe ak
Ġë ¼Ī
ãģ ¯
ar io
Ġìľł ê¸°
P ort
U se
íĺĳ íļĮ
íĨł ì§Ģ
à ¤
ìŀ¡ ê³ł
Ġh air
Ġê°Ģê²© ìĿĢ
å º
ìĪĺ ìĻĢ
ĠìķĦ ê¹Į
ìī Ĳ
ê³ł ìĿĺ
l a
ĠO b
group Id
Ġìĥ ĺ
ug ins
Ġl ov
Ġf resh
D C
ĠìŀĪ ìľ¼ëĤĺ
Ġë¯¼ ê°Ħ
ë§Ī ë£¨
Ġask ed
re ct
s pect
Ġì¡° ê°ģ
T C
ëĭµ ê²Į
Ġëķ ¡
n y
() :
Ġì¶ľ ê·¼
Ġget s
Ġexcell ent
íĥĢ ìĿ´
íĶĮ ëŁ¬ìĬ¤
ĠìķĦë¬´ ëŀĺëıĦ
íĺ¸ ìĻĢ
M ult
ë¹Ħ ìĹĲ
íĬ¸ ìĹĲ
h space
) |
Ġsit es
ê±¸ ìĿ´
ĠW est
g est
E Q
Ġë¯¸êµŃ ìĿĺ
ìĸ´ ìļ©
H ost
Ġcoun ter
12 8
Ġëªħ ìĿĺ
Ġëıħ íĬ¹
ĠìĤ¬ëŀĮ ëĵ¤ìĿĦ
pre t
Ġcl uster
D own
Ġg ir
ĠEx ception
D ocument
ëł¥ ìĿĺ
back ground
Ġhel ps
! )
ë¸Ķ ë£¨
Ġë¬´ìĹĩ ìĿĦ
ĠëĲĺ ê²Į
M on
ĠD on
" ));
doc s
ìĦľ ìĿĺ
N G
Ġhe at
} +\
ĠìķĦ ëıĻ
k ind
Ġê³µ íı¬
k er
Ġìĺ· ìĿĦ
Ġì§Ģíķĺ ì²ł
Ġë¹Ħ ìĭ¼
ëįĺ ì§Ģ
ĠìĤ¬ëŀĮ ëıĦ
ĠíķĺëĤĺ ë¡ľ
ìĿ´ íĶĦ
ĠìĥĿ ìĿ¼
ĠB G
Ġì²Ń êµ¬
t im
ë²Ħ ê±°
ĠApr il
ĠëĤĺ ë©´
R ight
Ġexper t
li er
G e
ĠìķĪ ëĲĺëĬĶ
ĠO ct
Ġbenef its
ynt ax
Ex pression
Ġmeet ing
com ing
ìĪ ²
oci ety
ê³Ħ ìĹĲ
ĠìŀĲìĹ° ìĬ¤ëŁ½ê²Į
Ġdig ital
ìĤ¬ ìĹĲìĦľ
ìĥī ìĿĦ
ê» ĳ
Ġpro file
Ġpr imary
Ġstate ment
Ġìļ´ ëıĻìĿĦ
Ġext ension
uss ian
ëľ ©
ëĬ ¦
ìłľ ìĿ¼
ê¹Ķ ëģĶ
ĠA m
ĠëĽ° ìĸ´ëĤľ
Ġê¸°ëĭ¤ ëł¤
Ñ ĥ
Ġê°Ĳ ê°ģ
Pro ject
ê°Ģ ìĿĦ
Ġíĺ¸ íĿ¡
ĠëĤ ¸
ĠíĬ¹ ìĪĺ
ëĬĶ ê²Į
Ġb ath
ĠëĨ Ī
P tr
ì§Ģ ëĤĺ
ë³¼ ê¹Į
Ġr ank
Ġíıī ìĥĿ
ĠíĤ¤ ìĽĮ
Ġl oop
ëĿ¼ ê°Ģ
ê°ĲìĤ¬ íķ©ëĭĪëĭ¤
Ġë© ¸
Im pl
Ġthem selves
Ġinterest ed
a fter
ì£¼ ë¯¼
Ġìĸ´ìļ¸ ë¦¬ëĬĶ
Ġkit chen
g u
ê° ĸ
in ternal
== =
Ġëĵ± ìĿĢ
Ġê°ľ ìĿĺ
Ġgener ate
ëıĦ ì²´
êµ ¿
As ync
ê¸° ëĭ¤
ì¼ĢìĿ´ íģ¬
="../../../../ ../../
Ġin j
ĠìŀĲ ë¦¬ìĹĲ
DI R
Ġíı¬ íĨł
ìĤ° ìĿĢ
ĠìĭľìĽĲ íķľ
K e
Ġden ote
ĠC he
st ep
ëŁī ìĿĺ
Ġê±¸ ì³Ĳ
Ġst ress
ĠëĬĲ ê¼
Ġsaf ety
íĹ¤ ìĸ´
ĠEng lish
con nect
ĠO f
Ġprodu ce
ag ger
ë²ķ ìĽĲ
ë°© íĸ¥
ì°Į ê°ľ
Ġenc our
t ex
Ġë¯¼ ì¡±
Ġass ist
S ession
íĶĮ ëĿ¼
Pro t
Ġf ine
Ġì¤Ģë¹Ħ ë¥¼
ì¶ľ íĮĲ
n eq
ĠìĿ´ë¦Ħ ìĿ´
ĠíķĺëĤĺ ê°Ģ
ple t
Ġìĸ» ìĿĦ
=" _
ĠìĦ¸ ìĽĮ
ì§ĳ ìĿ´
ym pt
ëĭ¹ ìĿ´
d im
íħĮ ìĿ¼
re nder
i ef
L G
ĠCh ar
Ġë§Į ëĤ¨
ĠìĹ° ì£¼
Ġë© ĺ
ĠCount y
íķĺ ëįĶëĿ¼êµ¬ìļĶ
é Ľ
Ġpl ant
ë³´ ë©°
ìĦ¤ ëªħ
ĠëĦĺ ëĬĶ
ĠAust ral
ĠIntern ational
Ġëª¨ë¥´ ê²ł
Ġëĭ ®
Ġë¹ Ļ
Ġcent ral
ĠëĬĲëĤ Ģ
ib er
AT A
act ers
ĠìłĲ ìĿĢ
Ġover all
Ġch ance
r ange
T e
Ġê³ł ì¶Ķ
k a
Ġì²ľ ì²ľíŀĪ
ard en
Ġl ost
( *
M atch
Ġfil ename
Ġdo or
Ġhas h
Ġë¶Ģì¡± íķľ
Ġf air
å ¸
ê°Ĳ ëıĦ
ìĸ´ ì©
10 5
ê²½ ìĿ´
Ġê¿Ī ìĿĦ
M enu
el come
ĠT ime
ìķĦ ìĿĺ
Ġdescri be
Ġëª¨ ìŀĲ
Ġê²° ë¡ł
cl ick
Ġì ĩ
ĠS O
ĠìĤ° íĸī
C lick
ëĵľ ë¦¬ëĬĶ
Ġde lete
T A
ì§Ģ ì»¬
Ġëľ ¯
Ġë¨¹ìĸ´ ìķ¼
Ġíĭ Ī
ĠWindow s
j oin
end ar
Ġì£½ ìĿĮ
Ġrem ov
Ġíĳ ¹
Ġequ ations
ìłķ ë¦¬
ĠL ED
íĻĶ ëĬĶ
( {\
Ġìĸ´ëĸł íķľ
íĤ¤ ëĬĶ
Ġaff ect
ĠìķĦ ê°Ģ
Ġë³´ ê²Į
Ġra ise
ĠíĮ¨ íĦ´
Ġsum mer
de lete
CT ION
typ es
ê°Ħ ëĭ¨
ë©Ķë¦¬ ì¹´
Ġf ra
Ġìļ° ìļ¸
Ġtrad itional
I A
Ġì Ł
Ġë§Ĳ íķł
ri ver
ĠH am
__ __
ëıĻ ë¬¼
Oper ation
ĠìĤ¬ëŀĮ ìĹĲê²Į
Ġì¢ĭ ê²łëĭ¤
ĠìĿ´ ìĻ¸
ìĺ¤ ëĭĪ
k ing
M W
ì£¼ ìĿ¸
å Ĭ
ĠìłĦ íĪ¬
Ġë³´ ìĭ¤
Ġë¯¿ ìĿĮ
Ġtest s
Ġwr ong
ĠìĺĪ ë¥¼
Ġìłľ ëª©
íĤ¤ ì§Ģ
a ight
ig hest
et imes
ë¥ ¨
Ġìĥ ĲëŁ¬ëĵľ
Ġim m
ĠëĤ ¼
Ġv eloc
se cond
Ġìļ¸ ìĤ°
Ġw ave
ĠDes ign
ìłľ ê³µ
Ġê·¹ ë³µ
ë§Į ìľ¼ë¡ľ
Ġfa iled
ì¤ĺ ìĦľ
Ġìµľ ìĦłìĿĦ
ìķŀ ìĹĲ
Ġë¯¸ ìĦ¸
Ġë¶Ģëĵľ ëŁ¬ìļ´
Ġc ategory
Ġëĳĺ ìĿ´
inter face
ind er
O p
il led
ĠëĤĺ ìģľ
ĠìĨĲ ìľ¼ë¡ľ
Ġperform ed
Ġìĺ¤ ë©´
ĠE m
Paramet ers
ĠìĻ¼ ìª½
Ġíİ ´
ĠìĺĽ ëĤł
Ġë©´ ìĹŃ
il ies
ĠíķĺëĤĺ íķĺëĤĺ
ĠìĿ¼ ìļĶìĿ¼
ĠëĮĢë¶Ģë¶Ħ ìĿĺ
ë¶ģ ëıĦ
ç ¾
ct ors
ri ve
S l
ê³Ħ ìĨį
ograph y
ìľł ë¡ľ
âĨ ĵ
Ġinvest ig
ì°¨ ë¡ľ
Ġmov ing
Ġd im
ĠíĮĮ ëĬĶ
ì¤ĳ ê°Ħ
ìķĪ ëĤ´
ê¸° ê¹Įì§Ģ
t og
Ġì¹´ ì¹´ìĺ¤
ë°¥ ìĿĦ
íĸī ìłķ
ë¿ į
Ġdev ices
Ġê¸° ìŀ¬
al y
ìłģ ìĿ´ëĭ¤
ìĭł ìĿĢ
Ġunderstand ing
Ġë¥ ĺ
Ġì·¨ íĸ¥
P R
est s
Ġê¹ĶëģĶ íķľ
ĠHe alth
Ħ ë¦¬íĭ°
Ġëª¨ëĳĲ ê°Ģ
Ġëª» íķ´
ìĨĮ ìĦľ
Ġ Î
ie ved
Ġìķ Ļ
Ġëį§ ë¶Ļ
íķ´ì£¼ ê³ł
ĠìĹ° ìŀ¥
Ġm id
Ġ( -
Ġì¤ įëĭĪëĭ¤
Ġad just
act or
ĠìĿĺ íķĺìĹ¬
ì¥ Ĳ
ĠëĬ¦ ê²Į
ìĺ ¹
ĠíĨł ìļĶìĿ¼
Ġìŀĳ ëħĦ
Ġre levant
G E
Ġd aily
Ġnot ice
ìĬ¤íĥĢ ìĿ¼
Ġide al
Ġìŀ İ
Ġplay ers
ìŀĲ ëĵ¤
ĠëĿ¼ ìĿ¸
Ġb ank
Ġëĭ¹ ì²¨
Ġplay er
Ġìŀħ ì°°
ĠìĨĮ ëħĢ
ĠíĥĦ ìĥĿ
ê³ °
The se
Ġìĺ® ê²¨
Ġê²Ģ ìĿĢ
ê° ¤
Ġê°Ģë³į ê²Į
OR D
0 10
Ġdet ail
Ġìķł ëĭĪ
Ġëį° ëł¤
ĠìĿĳ ìĽĲ
Ġëī´ ìļķ
re q
ì½Ķ ë¦¬ìķĦ
G o
il es
ĠìłľíĴĪ ìĿ´
Ġas pect
ëĭ¨ ìĿĢ
Ġst ars
Ġest imate
ta il
ĠìŀĲ ë³¸
Hel per
ĠìłĦ ê³µ
ĠìĻ¸ ìĹĲëıĦ
Ġíķĺ ëįĶëĿ¼êµ¬ìļĶ
ĠëĤ ļ
ëĵľë¦´ ê²ĮìļĶ
Ġë¶Ī ë²ķ
ìĦł ìĿĺ
om s
ĠĠĠĠĠĠĠĠĠĠĠĠĠĠĠĠ ĠĠĠĠ
Ġcoun tries
íı¬ íĬ¸
ond on
Ġê²ĥ ìĿ¸ê°Ģ
c ard
Ġëª° ëĿ¼
Ġì¤ ĺ
ĠM arch
Ġtr ain
Ġn ational
is ation
alle l
Ġëĵ¤ìĸ´ê°Ģ ìĦľ
ë¶Ģ ìĻĢ
Ġíķľëĭ¤ ë©´
y ond
ĠìĦłìĥĿ ëĭĺ
ot ion
c f
ë°Ķ ë¥¸
Ġv iol
param eter
Ġê²½íĹĺ ìĿĦ
res ents
Ġìŀ¥ ìłĲ
ì¹ĺ ìĿĺ
Ġì°½ ì¡°
ìĤ¬ ìŀ¥
ĠìĨĮ ì¤ĳíķľ
Ġì¸ µ
p ict
ĠìĻĢ ìĿ¸
Ġtrans action
Ġs ale
ê²ł ì§ĢìļĶ
ê°Ģ ìĬ´
Ġìĸ´ëĸ ¨
Ġì°¨ ë¡Ģ
ĠìķĪ ëĤĺ
P ass
25 6
ĠêµĲ ê³¼
Ġpl ans
Ġimplement ation
Ġfavor ite
ìĨį ëıĦë¡ľ
Ġc ache
ìĦ± ëıĦ
Ġíļ¨ ëĬ¥
p ers
ë§Ī ì¼ĵ
ĠëıĻ ìŀĳ
ĠìĺĪ ì¸¡
ìĥĪ ìļ°
Ġì±Ħ ëĦĲ
Ġê´Ģ ì°°
ĠëģĿ ëĤĺê³ł
styles heet
Ġv an
ĠìĿ´ ìĬ¤ëĿ¼
Ġë¨¹ ìľ¼ëŁ¬
íĳ ¼
ĠC ON
gl obal
Ġì§Ģ íĺľ
os ing
} -\
ĠEX PECT
Ġì¢ħ ëª©
Ġgreat er
en v
ĠU RL
Ġê²ĥ ìĿ´ëĿ¼ëĬĶ
ĠëķĮ ìĹĲ
ìľ Ĺ
erc ial
Ġê°Ī ìķĦ
Ġë¬¼ ë¦¬
ens es
Ġë¬´ ë¦¬
ist ory
ĠëĦĪë¬´ ëĦĪë¬´
Le ft
rom ise
ê³ł ì¶Ķ
Ġce lebr
ĠìĿ´ìĬ¤ëĿ¼ ìĹĺ
Ġs cript
ìĿ¸ ëĵ¤ìĿĺ
g raph
o es
Ã ¡
Ġp ages
S M
ìī½ ê²Į
Ġë¨¹ ìĹĪëĭ¤
P U
íĺ¸ ìĿĺ
Ġìłľê³µ íķĺëĬĶ
Ġsh ared
ê²ģ ëĭĪëĭ¤
R el
co in
ī ĺ
i ency
Ġì²´ ê³Ħ
mod al
Ġë¬´ ë¦İ
Ġìłľ ëıĦ
Ġëĵ ¬
the orem
ERR OR
Ġìĭ¶ ìĬµëĭĪëĭ¤
Ġê·¸ ëĵ¤ìĿ´
Ø §
h aps
Ġìłģ ìĸ´
ëłĪìĿ´ íģ¬
ìĿ´ íĽĦ
Ġflo or
Ġë© ľ
ëĤĺ ë¥¼
ĠR un
an i
Ġë§ ¹
ë¹ ¼
ĠìľĦ ë°ĺ
ĠíĶĮ ëŀ«íı¼
Ġplan ning
ìłĲ ìĭ¬
Ġr atio
ĠìĦ¼ íĦ°
om ial
Ġëĭ¹ìĭł ìĿĺ
ìĺĢ ê³ł
Ġê½ ī
ì¢ħ ìĿ´
Ġê°Ĳ ìŀĲ
Ð º
Ġim plies
ĠíĮĮ íĭ°
Ġë¯¸ ì¹ľ
ĠíĥĿ ë°°
S k
Ġìľł ìļ©
Ġfl at
Ġëķ Ģ
ëĤ¸ ëĭ¤
17 0
) }{
ìĸ´ ìĿĺ
Ġsur pr
c il
Ġdis e
Ġorgan ization
Ġs us
Ġê²ĥìĿ´ ê³ł
Ġprocess es
s es
v ents
Ġê·ľ ì¹Ļ
ĠìĺĪ ë¹Ħ
Ġëĭ¹ ìĿ¼
Ġë¬´ ì§Ģ
ë¡ľ ê°Ģ
ĠëĨĢ ëĿ¼
id ge
Ġre nt
wo od
] \
ĠëĨĴ ìĿ´
; ->
í ľ
Int eger
ëĵ± ìĿĺ
P RE
Ġstr ict
ĠìķĦë¬´ ê²ĥëıĦ
ìŀĪ ëįĺ
================ ================
Dev ice
ê°ľ ë¡ľ
I ter
Ġë§¤ ìĪĺ
Ġw ish
ick er
íķ ı
ĠìĪĺ ê°ķ
Ġìĺ¤ëĬĺ ëıĦ
Ġimmedi ately
Ġíķ© ìĿĺ
Ġstreng th
Ġìĺ¤ ëŀ«
11 1
ĠëłĪ ëĵľ
ĠìĭĿ ë¬¼
C ore
ì£¼ ë³Ģ
ĠìĿ´ ë¥¸
Ġin c
Ġarch itect
ĠF ace
Ġë´Ĳ ìķ¼
ĠëĬĲê»´ ì§ĢëĬĶ
Ġëĭ¤ìĸĳ íķĺê²Į
trans form
Ġstr aight
rom e
item ize
ìĦ± ìľ¼ë¡ľ
ìłĢ ê²ĥ
ìĻ¸ ë¡ľ
s ystem
12 5
ê³¨ íĶĦ
Ġëĭ¨ ëıħ
ìĭľê°Ħ ìĿĦ
ç ¥
by te
Ġin du
Ġì¹ĺ ë£Įë¥¼
ëĵľ ëĿ¼ë§Ī
ë¯¸ ëĦĲ
ic ated
en umerate
Re ference
aut h
ë¥´ íĬ¸
ĠëĮĢ ë¦¬
Ġmean ing
ĠìŀĪ ëįĶëĿ¼êµ¬ìļĶ
ç Ħ
ëĤ¨ íİ¸
Ġass ess
ĠìĤ¬ìĹħ ìĿĦ
ĠìķĦì¹¨ ìĹĲ
ëª¨ ë¥¼
Ġëĭ¨ ë°±
ê³³ ìĹĲìĦľ
G l
= (
Ġs aw
Ġë°ľìĥĿ íķĺëĬĶ
Ġì´Ī ë°ĺ
ĠëŃ Ķ
ê´ĳ ìĹŃìĭľ
ĠìĹĲìĸ´ ì»¨
ìĨĮ ëĬĶ
ĠëĬĲëģ¼ ëĬĶ
Ġphot os
ë¬´ ë£Į
' >
Ġco e
ĠA ug
ë²ł ë¦¬
ë§Ĳ ê³ł
ê°Ĳ ê³¼
ĠâĻ ¥
Ġ- \
åŃ Ĳ
Ġn amespace
ìķĦ ìĭľìķĦ
ë¯¸ ëĬĶ
ëĦ ¬
Ġf ramework
Ġs av
Ġem erg
íģ´ ë¦Ń
E ach
ful ly
Ġìĸ´ ëĳĲ
ãĢ ĳ
Ġì ª¼
Ġn orm
Ġì¶Ķ ìłķ
ap an
ĠìĹĶ ì§Ħ
_ ;
Ġíı °
h r
Ġë³Ģ íĻĶë¥¼
Ġdeterm ined
Ġfact ors
ë¯¸ ìļ©
ë²ķ ìĹĲ
ëĲĺìĸ´ ìķ¼
ê¶ģ ê¸Ī
ĠìŀĬ ì§Ģ
Ġpr ices
h igh
Ġtest ing
Rec ord
ĠH ouse
Ġê³ł ê³ł
dimension al
è ¦
Def inition
Ġìľł ëĭĪ
İ Ħ
Ġ" \
ĠíķľêµŃ ìĿĺ
Nav Bar
Ġì¢ĭ ê²Į
s pecial
all ow
Ġíģ¬ ê³ł
Ġdec or
ê² Ł
ĠM ap
ìħĶ ì¸ł
ë¦¬ ë·°
ìľ¨ ìĿĢ
Ġìķī ìķĦìĦľ
Ġëĵ¤ìĸ´ ê°Ķ
Ġë¶ĦìľĦ ê¸°ë¥¼
. *
ĠíķĺëĤĺ ëıĦ
ĠíĿ ī
ìĬ¤ ë§ĪíĬ¸
leg ate
Ġíķ´ëĭ¹ íķĺëĬĶ
ĠìĿ¸ ê³µ
v space
Ġleg al
ĠE ach
ĠìĨĲ ê°ĢëĿ½
n es
ìŀĦ ìĿ´
Ġê³µê°Ħ ìĿ´
Ġìľł ë°ľ
ìĭĿ ìĤ¬
ê°ķ ìĿĺ
Ġparent s
Ġì¹Ń ì°¬
ĠAss oci
Ġde ath
Ġin form
íķĺ ëĭĪê¹Į
ĠíĬ ¼
ĠìĦ± ë¶Ħ
Ġëĵ¤ ìĹĪ
no indent
Ġmor ning
S U
ound ation
ëĪĪ ìĹĲ
N ames
ĠëĮĢ ì¶©
ë¶ĢíĦ° ëĬĶ
Ġbe yond
ìĦ¸ ìĥģ
Ġac qu
íĺķ ìľ¼ë¡ľ
Ġë§¤ ìŀħ
ìĬ Ĳ
Ġë¶Ģíĥģ ëĵľë¦½ëĭĪëĭ¤
Ġr out
íķĺëĬĶ ê²Į
) {\
ro s
ëŀ ĢìĿ´
Pre vious
Or der
o ch
add ress
ê¸° ë¦Ħ
Ġm icro
ãĥ ¼
ìłķëıĦ ë¡ľ
Ġt en
ëĬ ¬
ì§Ģ ìĹĲìĦľ
Ġcar ry
Ġex plicit
ĠA ND
Ġ ãħĭãħĭãħĭ
Ġê·¸ ìĹĲ
è ĩ
ìĦ± ìŀ¥
ic ip
ex ports
ë©´ ìĿĺ
ëĭĪ ê°Ģ
ĠìĽĶ ëĵľ
âĪ Ļ
ĠëĤĺ ê°Ī
ë³¶ ìĿ´
ĠíŀĲ ë§ģ
ĠëĤ «
D R
ê³µ ë¶Ģ
Ġì»¤ ë²Ħ
Ġëĭµ ëĭµ
ë§Į ëĵ¤
wid get
ë¹Ħ ìĿĺ
Ġch ain
ë°ľ ìĿĦ
ë§Ŀ ìĿĦ
ìĦ° ëĭ¤
Ġfig ure
ì§ľ ë¦¬
Ġâĸ ¶
Ġê°Ģ ìĪĺ
or ig
ĠíĽĦ íļĮ
ĠëĤ´ ê³ł
to String
ë´Ĳ ëıĦ
ëĵ¤ ìĹ¬
ĠF orm
ìĤ¬ëŀĮ ìĿ´
W E
Ġcl oud
( :
ê¸° ëħĲ
ëĤĺ ë¬¼
Ġsl ight
ì¹ĺ ìĹĲ
Ġìķŀ ëĳĲê³ł
ê´ ľ
ĠíĮ Ŀ
ĠìĹ´ ê³ł
Ġin nov
ĠëĤĺ ìģĺ
Ġrem ain
ëĭ¤ ëŀĢ
in ated
ĠìĦ¸ ìĽĶ
Ġdirect ory
Ġform er
Ġext rem
pre c
ìĦľ ëıĦ
eta iled
h ad
f aces
ĠìĦ¸ ìĥģìĹĲ
ĠìĹ° ìĺĪ
Ġìŀħ ë§Ľ
êµĲ íļĮ
Ġìłľì£¼ ëıĦ
ĠTe chn
ĠìłĦ ìĦ¸
Ġê³ł ìĸĳ
ë³µ ìĿĦ
ãģ ĭ
ìĿ¸ ë¶Ħ
_ *
ĠíĮĮ íĬ¸
ic ons
Ġpar se
Ġì£¼ ê´Ģ
in ct
Ġì¶ ĺ
v m
Ġì§Ħ ìłķ
ìĦł ìĪĺ
ĠëĬ¥ ëł¥ìĿĦ
íĶĦë¦¬ ì¹´
ì§Ģê¸Ī ìĿĢ
Ġìķ ¤
é ĸ
Ġê°ķëł¥ íķľ
c lear
êµ° ìĿ´
ĠíĬ¹ ìĿ´
t w
Ġill ust
In valid
Ġcare er
f ocus
OR M
ĠíĹĪ ìļ©
ìĻĶ ìĸ´ìļĶ
ëłĪ ìĿ¸
Ġë²ł íĬ¸ëĤ¨
Ġro ll
ë°ľ ìłĦ
ther n
Ġê¸¸ ìĹĲ
Ġh ighest
Ġplay ing
Ġëį° ë¦¬ê³ł
ĠìĨĮ ìĭĿ
Ġëĸ¨ìĸ´ ìł¸
ìĤ¬ìļ© ìŀĲ
ìľ¼ ìĭ¤
ìľ¼ ëł¤ê³ł
W S
ĠF ree
j o
ìľ¼ ë¯Ģë¡ľ
Ġë°¥ ìĿĦ
) }$
Ġíı¬ìĬ¤íĮħ ìĿĢ
Ġì¹ľ íĻĺê²½
ì¡° ì§ģ
ãħ ģ
ëŀ ´
Ġequival ent
æ ī
hand le
ìĹ¬ëŁ¬ ë¶Ħ
ĠìĿ¸ ê¸°ê°Ģ
G ET
íķ´ ì§Ī
Ġëĭ¤ ìĦ¯
å Į
Ġë°Ľ ê²Į
Ġpubl ished
sq l
Ġaut h
ìĺ¤ ë©´
Ġìĥģëĭ´ ìĿĦ
ëłĢ ëĭ¤
ìĭľê°Ħ ìĹĲ
ìľł ëŁ½
Ġc op
ph ere
ĠC all
ĠM us
ĠBl ack
ìµľ ìłĢ
Ġform s
ĠìķĪ ë³´
Ġap i
ìĨĮ ìĬ¤
ë¶Ģ ë¡ľ
Ġrest aur
Ġëĭ¤ ë£¨
en um
ĠH ome
ìĬ¤ ëŁ°
æĹ ¥
Ġim ag
Ġì³ Ĳëĭ¤
Ġë¹¨ ê°Ħ
ëłĮ ì§Ģ
ĠìłĲ ìĹĲìĦľ
Hand le
T ool
ëĳ ł
A g
ìłĢ ìĶ¨
ĠN ame
ìŁģ ìĿ´
ĠìĤ¬ ìĦľ
ĠìĹĲ ëĦĪ
ëħ¸ ëŀĺ
Ġ-- -
SE T
Ġë°Ķ ëĶĶ
Ġh uge
Ġë¨¸ ë¬¼
Ġsom etimes
ĠìĨĮ ìĬ¤
Ġphot o
ëĵ £
if ies
Ġ[ '
ìĺĪ ìłķ
s end
ĠìĻ łì§Ģ
Ġdec ided
ë£Į ê°Ģ
ìĺ¤ ëŀĺ
Ġë¹Ħë¡¯ íķľ
Ġìŀĺ ëĿ¼
Ġì» µ
æ Ļ
ph one
w s
Ġëĵľ ë¦¬ê³ł
ìĨĮ ìĿĺ
ìĹŃ ìĹĲìĦľ
Ġìĺ¤ëĬĺ ìĿĺ
h over
Ġ( '
E C
ĠìķĦìĿ´ ìĬ¤íģ¬ë¦¼
ì¹ĺ ë¡ľ
ĠìĦ± ìĿ¸
Ġf lex
ëĭĪ ëĿ¼
êµĲ ìĤ¬
Ġë§¤ ëħĦ
S chema
Ġa ware
An y
ĠAmeric a
ìļ¸ ìĤ°
ĠíĻĶìŀ¥ íĴĪ
Ġfrequ ency
as er
Ġspect rum
ĠìŀĲ ìķĦ
Ġspe ak
Ġveh icle
Ġgl ass
ìłľ ê±°
Ġë³´ëĤ´ ê³ł
ĠìĿ´ê²ĥ ìĿ´
ìłķ ìĥģ
Ġf urn
ĠAn y
ìı ĺ
ĠëĦĺ ëĤĺ
Ġno ise
Ġre v
Ġê¼¼ê¼¼ íķĺê²Į
D L
Ġt ast
ĠA R
f n
ri al
ëĿ¼ ìĿ´íĬ¸
T emplate
Ġcomm ercial
ëĮĢ ë¬¸
g an
ex port
Ġì¢ħ ì¢ħ
Ġcon ven
ì£¼ ê¸°
Ġm iddle
R ect
Ġê³µ ìŀ¥
ix el
ĠíĮ ©
ìĬ¤ íĤ¤
Ġh our
ar ter
init ely
ĠëĮĢíĳľ ìłģìĿ¸
Ġê°Ģ ëł¤
ĠíĻķ ìĤ°
\ ,\
ë¯ ¿
ĠìķĦ ìĺĪ
Ġl ibrary
ĠR ef
Ġë¬¸ ìŀĲ
Ġlarg est
u ations
íĸī ìĤ¬
Ġì£¼ ìĸ´
ĠíĶ¼ë¶Ģ ìĹĲ
Ġê¸°ëĭ¤ ë¦¬ê³ł
su per
Ġë©Ķ ìĿ´
ë§Į ìķ½
Ġr adi
Ġex tract
ëı¼ ì§Ģ
ëĭĪ ê¹Ĳ
ëħ¸ ëıĻ
med ia
ac cess
Ġê¸° íļĮê°Ģ
ĠíĪ¬ ìŀħ
l ap
ill a
Ġì§Ħ ìŀħ
F alse
ãĦ ´
íĪ¬ ìĸ´
Ġëĥ īìŀ¥ê³ł
V ector
ĠíĮĮ ìĽĮ
ĠìĶ ¹
ĠE nd
Ġíľ´ëĮĢ íı°
ĠìĿ´ ëĵ¤
Ġê²° ìłľ
es ter
Ġg old
ĠíķĺëĤĺ ëĬĶ
cl es
oc al
ëĮĢ ìĻĢ
Ġmag netic
Ġê³ł ìĨĮ
ë¸Į ëŀľëĵľ
Ġíı¬ìĬ¤íĮħ ìĿĦ
ë¹Ħ êµĲ
Ġë§Įëĵ¤ìĸ´ ì§Ħ
AT H
Ġì¢Ģ ëįĶ
as c
ĠíĨ ¡
ex ception
Ġìı Ļ
ro ad
com ponent
w in
ĠD irect
B R
Ġdi agram
Ġle d
ìŀ¬ ìĥĿ
íĽĪ ëł¨
Ġcon vert
ĠSe pt
Ġne ut
ĠêµŃ ë¦½
íĨł ë¦¬
ë¶Ģ ëĭ´
ĠI sl
equ als
ë¹ ħ
Ġìĭ¤ ìłģ
ĠíĺĪ ìķ¡
ê´Ģ ìĿĺ
ê°Ĳ ìĿĢ
}} _
Ġìĺģ íĺ¼
Ġê¸° ìļ´
ëħĦ ìĥĿ
' d
n orm
P i
ìĭł ê³ł
T im
ĠTr ue
ĠìŀĪìĹĪ ì§Ģë§Į
ìŀĳ ê°Ģ
Ġs plit
Ġtri p
ê¸° êµ¬
Ġs amples
Ġìĥī ê¹Ķ
ynch ron
Ġì°¾ ìĿĦ
G S
ëł¥ ìĹĲ
ë£ °
ĠS an
$ }
L ong
ê²Į ëĭ¤ê°Ģ
-- >
Ġë¶ īìĿĢ
ë¡¯ ëį°
' ],
Ġì¼ ľ
íĻĶ ìĻĢ
ìłģìľ¼ë¡ľ ëĬĶ
Ġìĭ ¹
ì¡° íĬ¸
Ġì¶ķ êµ¬
Ġhead er
Ġì°¾ ê³ł
b o
ĠíķĻ ìĽĲ
Ġpart ial
3 60
Ġì¤ĳ ëĭ¨
âĢĿ .
Ġë³´ ì¡°
I con
ìĻ ¼
B ody
u ple
n ce
ĠìĿ´ìļ© íķł
b ootstrap
Ġë¿Į ëł¤
Ġíķľ ê°Ģ
ìŀĪ ìĿĦ
Ġìĭľ ëĤ´
Ġ _{
Ġê·¸ ê±´
Ġê³µë¶Ģ ë¥¼
Ġê·¸ ëĤł
ĠìŀĪ êµ¬ìļĶ
Ġupd ated
ĠíĨł ë¡ł
Ġpl aces
ent y
por ary
pl ugin
Ġê²° ì½Ķ
ĠìĿ¸ ìĹ°
ĠìĹ° ê³Ħ
ìĸĳ ìĿĺ
s cal
íĺķ ìĿĢ
Ġëĸ¨ìĸ´ ì§Ħ
ë¥ ľ
Ġb udget
ans ion
ê¸¸ ìĹĲ
ìĿ¼ ìĿĺ
ëĪĪ ìį¹
ê³³ ìĿ´
Ġex amples
ìĻĦ ë£Į
Ġcons ult
ìĭľ ë¯¼
it ure
ìłķ ìĭł
Ġìĭľê°Ħ ìĿĢ
olog ies
ìĪĺ ìŀħ
Ġë°ľ ê¸ī
ìĦ¤ íĮħ
âĶĢâĶĢâĶĢâĶĢ âĶĢâĶĢâĶĢâĶĢ
Ġê¸´ ìŀ¥
ëł¥ ìľ¼ë¡ľ
Ġmy self
Ġrestr ict
Ġëľ¨ ê±°ìļ´
Ġcomplet ed
ĠHT ML
Ġbegin ning
ĠCh ina
ê±° ìĿĺ
ĠìĬ¤ ì¼Ģ
ĠìĤ¬ íĥľ
Ġì§Ģ ëĤ´
Ġì£¼ ëıĦ
math scr
Val ues
Ġìľł íĬľë¸Į
ĠìķĮëł¤ ìł¸
ì»´ íĵ¨íĦ°
Ġin cor
ìĿ´ì§Ģ ìļĶ
ì£¼ ìĭĿ
Ġë§İìĿĢ ëį°
ìį ¬
web kit
E rr
Ġëĭ¬ ëĭ¬
f ord
ĠìŀĪìľ¼ ë¯Ģë¡ľ
ìľĦ ìĹĲìĦľ
Ġê°Ļ ê³ł
ĠO ver
ĠJ une
Ġë§Ĳ ë¡ľ
al ysis
Ġsh ift
est amp
ĠD av
Ġìĥģíĥľ ìĹĲìĦľ
ĠëıĻ ìĿĺ
Ġìĸĳ ëıĦ
ëĦ ĵ
ĠD ate
ìŀĪ ìĹĪëĭ¤
Ġw ar
Ġgu ide
ĠM A
Ġê·¸ëŁ¬ ë©´
ë§Īì§Ģë§ī ìľ¼ë¡ľ
ìķĦë¬´ ëŀĺëıĦ
Ġëľ» ìĿĦ
Ġìħ Ī
ì¨ Į
Ġre pe
U RE
Ġvis ual
s ession
Ġindividual s
ĠíĮĮ ìĬ¤íĥĢ
mult icol
Ġì§Ģ ë°°
err y
Ġë³´ ì¦Ŀ
ìĻĶ ìĬµëĭĪëĭ¤
Ġê º
Ġser ious
Ġpre m
Ġì»¤ ë®¤ëĭĪ
ìļ°ë¦¬ ëĤĺëĿ¼
fr am
ìĦĿ ìĿĦ
ĠëĬĺ ìĸ´ëĤĺ
2 40
ãħİ ãħİ
call back
Ġì½ľ ëĿ¼
Q ue
ê³µ ìŀ¥
ĠK e
Ġë°©íĸ¥ ìľ¼ë¡ľ
Ġë§Īì°¬ê°Ģì§Ģ ë¡ľ
Ġev olution
ìĤ° íĻĶ
Ġex hib
Ġê°Ħëĭ¨ íķĺê²Į
ë© ĭ
Ġê¹¨ ëĭ¬
Ġm aster
Ġì£¼ íĸī
d x
Ġíİĺ ìĿ´ìĬ¤
Ġê´Ģ ê°Ŀ
ĠìĤ¬ìļ© íķĺìĹ¬
Ġdr ink
è ª
c ustom
Ġm enu
Ġw arm
ìłķ ê³¼
ì¹ĺ ê¸°
ì¦Ī ë¥¼
g s
Ġb ul
Ġpres ence
Ġì¶Ķ ì¶ľ
ĠíĶĦë¡ľê·¸ëŀ¨ ìĿĦ
Ġíĳľ ì¤Ģ
Ġsup ply
Ġë¯¸ ìļ©
& #
Ġê²ĥ ë³´ëĭ¤
Ġëĵ¤ìĸ´ ê°Ī
Ġhand s
Ġì¶Ķ êµ¬
Ġê²½ìļ° ìĹĲ
Ġê²ĥ ëĵ¤ìĿ´
ack et
Ġë©Ķ ëª¨
Ġíķĺ ëįĶëĿ¼ëıĦ
âĢ §
Ġtechn iques
As sert
uct ure
Ġcontain ing
Ġìħ Ķ
ĠëŃ ī
ìłĦ ìļ©
íķĺ ê¸´
Ġíĺĳ ìĿĺ
Ġê¸° ìĹ¬
D om
ìĦ¤ ë¹Ħ
Par ser
ëĵ± íķĻìĥĿ
ur i
Ġchar acters
Ġì§ĢìĨį ìłģìľ¼ë¡ľ
ëĵľ ìĹĲ
Ġìĺ¤ íĨł
ìŀĲ ìľł
Ġ+ +
íı¬ ìŀ¥
íķĺê¸° ë¥¼
| ^
Ġê°Ħ ëĭ¤
ë§¤ ìŀ¥
Ġê´Ģê³Ħ ë¥¼
Ġsu fficient
ìĿ´ ìĽĥ
ì¡Į ìĸ´ìļĶ
ìĿ¸ ê°Ħ
em ents
LE D
Ġe cho
Ġëĳ ¥
multicol umn
Ġrel ax
ëıħ êµĲ
au ge
Ġsche me
Ġíĸ¥ ìĿ´
ĠR equ
ìĹħ ë¬´
ë²Ħ ëł¸
ìĭ ¹
ot ic
ë°° ëĭ¬
Ġë§Ĳ ëıĦ
Read er
ëķĮ ë§Īëĭ¤
ê¿ Ģ
R ender
Ġë¬´ ëł¤
b al
ìĭ¤ ìĿĢ
ĠìĤ´íİ´ ë³´
Ġíŀĺ ëĵ¤ìĸ´
ë©´ ìľ¼ë¡ľ
Ġex ternal
ĠA fr
Ġìľ µ
Ġìŀ¥ ë¹Ħ
ĠìĦ¸ íı¬
in ate
Ġlead s
Ġìľ Ī
Ġëĭ¹ íĻ©
aw s
Ġ{ };
ê¸Ī ìĿĺ
ë§Į ëĳĲ
Ġë¶Ģ ì²ĺ
Ġê·¸ëħĢ ëĬĶ
íķľ ê±°
íĻľ ìļ©
od ay
Ġíģ¬ ë¡ľ
ĠìĹĨ ëĬĶëį°
íıī ê·ł
Ġëĭ´ ê²¨
ing ton
dis abled
l ook
ĠíħĮ ë§Ī
ĠìĿĳ ëĭµ
Ġìĥģíĥľ ë¡ľ
íħ Ģ
ĠL ondon
Ġpop ulation
Ġtask s
Ġê°Ģ ì£½
ann els
Ġìļ° ìľł
Ġincre ased
ìłĦ ëŀµ
## #
ìłĢ íĬ¸
ĠĠĠĠĠĠĠĠĠĠĠĠĠĠĠĠĠĠĠĠĠĠĠĠĠĠĠĠĠĠĠĠ ĠĠĠĠĠĠĠ
ìĬ¤ íĭ±
Ġì´Ī ëĮĢ
Ġinteg er
ĠJan uary
vent ion
ĠM odel
ĠíĴĪ ì§Ī
Ġì§Ħíĸī íķĺê³ł
Ġìĺ¤ ê³ł
( @
ë¸Į ëĿ¼
Ġd ry
P arent
ëł ĺ
ìŀħ êµ¬
ĠëĤ´ ëĬĶ
Ġanal y
Ġre ve
P P
ìĨį ìĹĲìĦľ
Ġde part
íĥ ł
ìķĪ ìĿĺ
Ġon to
ĠH ar
Ġë³´ ê±´
Ġf irm
ĠìĻĶ ìĸ´ìļĶ
ĠìĿĺê²¬ ìĿĦ
Ġgener ally
ëĭ¤ ë³´ë©´
ìĬ¤ íĶ¼
Ġíķł ê¹Į
Ġhe ar
id a
Ħ ê¹ĥ
Ġres olution
N on
vir t
Ġìľ ¨
r d
Ġmet ric
ëį° ìĿ¼ë¦¬
Ġcomp are
ëŃ ĩ
` .
ìĦĿ ìĿĢ
íĤ ·
ì§Ħ ìĿĢ
Ġíİĺ ìĿ´ì§Ģ
resh old
sh ift
D r
ìĿ´ ë²¤íĬ¸
ĠO ther
Ġëĭ¤ìĿĮ ëĤł
ĠëĲĺ ìĸ´ìĦľ
ìĬ¤íĨł ëŀĳ
íķľ ê²Į
Ġëª¨ìĬµ ìŀħëĭĪëĭ¤
Ġë¶Ħ ìĿĢ
å± ±
Ġdistribut ed
Ġë¶ĦìľĦ ê¸°ê°Ģ
\ }$
ĠT H
t n
ìĿ´ ìĺĪìļĶ
¬ ë½ķ
ëĤĺ íĥĢ
ëģĦ ëŁ¬
Ġst ack
ĠA ng
Ġ} )
Ġcall s
ĠU s
Ġcamp aign
ĠB rit
Ġp i
ëħ Ķ
ĠA re
ĠV alue
ĠëıĪ ìĿ´
Ġby te
A pi
Ġìļ°ë¦¬ ë¥¼
re place
ĠìŀĪ ê²ł
ëĮ Ħ
Ġëª© ìłģìľ¼ë¡ľ
Ġpart ners
Ġëį° ìĿ´íĬ¸
im ent
ĠìĪĺ ìĤ¬
Ġì¦Ŀ ëªħ
Ġìļ°ë¦¬ ìĹĲê²Į
Ġìłķë¶Ģ ìĿĺ
Ġche m
Ġeas ier
ìĭ¤ ìłľë¡ľ
Ġëĭ´ ìĿĢ
æ Ģ
ĠG erm
Ġíı¬íķ¨ íķľ
ag ue
Ġìī Ĳ
Ġì°¾ ê¸°
M ark
Ġê·ľ ìłķìĹĲ
ë³´ ë¥¼
ec es
Ġsm art
Ġë¶Ģë¶Ħ ìĹĲ
Ġgrow ing
Ġcommun ication
ro t
Pol icy
p et
ëĬĶ ê±°
ë¥ł ìĿĦ
Ġal though
ĠíĽĦ ë°ĺ
Ġíĺģ ìĭł
Ġë§Ľ ìĿĢ
Ġ ut
u y
ìĬ¤ íı¬
ĠìķĦìĿ´ ë¥¼
ëĭ¨ ìľ¼ë¡ľ
Ġë¶ ĵ
ìĸ´ë¦° ìĿ´
Ġatt ack
ĠìķĦ ìļ°
Ġìĺģ íĻĶë¥¼
Ġë³´ ëĭĪê¹Į
Ġì§ģ ë¬´
rou ght
10 8
Ġíķĺ ëįĺ
ĠìĥģíĴĪ ìĿĦ
ĠìĦ± ìłģ
Ġ$ .
Ġproced ure
Ġdepend s
ser ve
Ġthink ing
p ite
Ġì¤ĳ ìĿ´ëĭ¤
ìĥģ ëıĦ
Ġ$ {
Ġê³ł ìĸĳìĿ´
b oolean
ĠC D
ĠíĺĦ ê¸Ī
B r
V er
Ġcell s
Ġëªħ ëł¹
Ġrem oved
Ġíĺķíĥľ ë¡ľ
Ġintrodu ced
H as
d ict
Ġs leep
Ġbec ame
å ¼
Ġsp end
ĠBG COLOR
Ġíķĺ ìĸĢ
T itle
ĠëıĻ ë°ĺ
ìĭ¬ íķľ
\ '
Ġì¢ĭ ëįĶëĿ¼êµ¬ìļĶ
ê³ ½
ìĪĺ ì¤Ģ
Ġì¤Ģë¹Ħ íķ´
ĠM ake
Ġíķ Ģ
ëĦ Ľ
g ar
$ _
ë°ľ ìĿ´
ê³µ ìĿ¸
ìķĺ ì§Ģë§Į
= -
ific ations
S R
O K
Ġ ing
Ġëŀ ľ
z er
Ġinter action
ĠL a
Arg ument
Ġì« ĵ
Ġsim pl
ĠPro gram
ëħĦ ê¹Įì§Ģ
ĠëĤĺ ìķĦê°Ģ
ĠìĥĿ ê¸°ëĬĶ
h older
ç Ļ
- )
Ġì¢ħ ë£Į
ĠëıĻìĿ¼ íķľ
êµ° ìĿĢ
Ġc os
Ġíķĺ ëĬĲ
atal og
Ġìĥģ ê°Ģ
reg ister
Ġo wner
M eta
Ġìĥ¤ ìĽĮ
ĠìĥĿ ìĦ±
ê²° ìłķ
Ġë¶Ģ ë¶Ģ
set tings
> ();
ĠìķĦìĿ´ ëĶĶìĸ´
ìĬ¤ íĦ´
Ġelect ric
re al
AG E
ĠU ser
Ġíķĺ ìĺĢìĬµëĭĪëĭ¤
Ġì¡° ë¦¬
b ing
Ġrep resents
ë²Ħ ë¦¬
ĠíĽĦ ê¸°ë¥¼
ìļĶ ê±´
ë°ĶìĿ´ ìĺ¤
Ġbenef it
Ġê½ Ĥ
ëĿ½ ìĿĦ
ë°© ìĿĺ
Ġëļ Ŀ
ĠM ath
ĠRes earch
ang ing
ple ments
ìŀĲ ëĵ¤ìĹĲê²Į
u ated
Ġfam ilies
Ġíģ´ ëŁ½
et ers
in et
Ġpl us
Ġêµ³ ìĿ´
Ġre leased
ĠëĦ¤ ê°Ģ
Ġcompar ison
under line
Ġprodu ced
ĠInd ia
Ġresult ing
ëļ ±
ĠìķĬ ê¸°
Ġì¡° ëªħ
Ġdem and
ë²ķ ìĿ´
ê·¸ ëħĢ
Ġprocess ing
ë¹¨ ë¦¬
l ines
N um
Ġë°ľ íĸī
R ed
h ere
Ġcomb ination
c are
Ġap pre
def inition
êµŃ ìĿĦ
ìº ¡
el er
ë§Į ìĿĢ
ĠC our
Ġun its
ì½ ķ
ĠI O
wh ile
ëĥ ĦìĥĪ
Ġë¹ Ĺ
Ġë§Ī ì¹¨
ĠA L
ic o
ĠëĤ´ ìĹĲ
ĠìłĦ ëĤł
Ġj av
Ġëĵł ëĭ¤
c a
Ġë³¶ ìĿĮ
Ġex erc
att le
Ġby tes
ĠComm un
}} }
Ġp ush
ìĦ¼ íĬ¸
Ap plication
ĠF in
c ut
ì Ńī
Ġíķľ ëį°
ash ion
Ġtre nd
min us
Ġm is
ĠB ook
ill ing
Ġf ab
ìĦł ê±°
-------------------------------- --------------------------------
ip eline
Arg s
Ġg ar
ĠìĻĦ íĻĶ
Ġê°ķì¡° íĸĪëĭ¤
Ġdat aset
ìĭľ ë¶ĢíĦ°
ĠëĨĵ ìĿĢ
Ġsur round
Ġë°ĸ ìľ¼ë¡ľ
Ġthan k
Ġìķ¼ ìĻ¸
v est
Ġch osen
P ost
Ġê²¨ ìļ°
Ġìļ° ì£¼
ad o
By tes
ìĦ¸ ìĿĺ
ë¥´ ë¥´
ific ate
al ing
Ġìĺ¤ ìĿ¼
ĠìĪĺìĹħ ìĿĦ
ëĤ´ ê¸°
ìĬ¤ íĮĮ
Ġê°Ģ ë¦¬
ĠìĪĺ ëĤ©
Ġro ck
Ġê°ĸ ì¶ĺ
Ġm ut
i am
ar a
Ġsp aces
Ġveloc ity
Ġì¶Ķê°Ģ ë¡ľ
Ġëªħ íĻķ
ë³´ ê±´
ĠE rror
ìĹĲ ìĿ´
cl oud
ĠJ SON
ap sh
ĠFace book
Ġëı¼ ì§Ģ
Ġser ve
Ġë³´ìĹ¬ ì£¼ëĬĶ
ë°Ķ ëĿ¼
íĬĢ ê¹Ģ
Ġëħ¸ëŀĺ ë¥¼
ìĽ¨ ëĶ©
ĠM r
oth ing
ĠìĽĲ ìĿ¸
ê·¸ ë¦°
I E
Ġê°ķ ìķĦì§Ģ
Ġcam era
ĠìŀĲ ëĿ¼
Ġp ul
ìĨĮ ìĹĲìĦľ
ìŀ¬ ê°Ģ
ĠìľĦ ìĿĺ
ĠìĦ¤ íĥķ
ìĬ¤ íİĺ
ìłĦ ìĭľ
ì§Ģ ë°©ë²ķ
Ġh arm
St ack
Ġì¦Ĳ ê¸°ëĬĶ
Ġì£¼ ìĭľë©´
ëł ·
ynam ic
Ġíİ Ģ
Ġë³µ íķ©
ëĦ Į
ĠìĿ¸ ìĪĺ
Ġparticular ly
ĠìĤ¬ìļ© íķľ
Ġdr ug
ëĭ¨ ëĭ¤
Ġal gebra
ìĤ¬ê±´ ë²Īíĺ¸
Ġbusiness es
ê» į
ëĦ ¥
ĠíĿ¥ ë¯¸
field s
Ġcomp act
if orn
ĠíĬ¸ ëłĪìĿ´
IT Y
~~ ~~
Ġun less
ĠíĶ¼ ìŀĲ
Ġë§Ľ ëıĦ
d est
ĠëłĪ ìĬ¤íĨłëŀĳ
Ġemploy ees
ë½ Ģ
êµ¬ ë¦¬
ĠP ort
TE ST
Ġregard ing
ìĪł ìĿĦ
Ġíģ¬ ê¸°
ìķĪ ìĹĲìĦľ
Ġëĵ¤ ìĿĦ
f ull
ìļ° ê¸°
d ouble
Ġëį ©
Ġê°Ģ ì¹ĺë¥¼
ì§ķ ìĸ´
Ġë°± ìĭł
Ġë¬´ ëĦĪ
ĠH er
fram ework
Ġë¡ ¤
Ġê³¨ ëĿ¼
Ġê³¨ ëª©
Ġun signed
Ġreg ions
Ġfin ish
ë°ķ ìĿ´
C ustom
Ġìłķ ë¹Ħ
Ġbeg an
model s
ë¶Ħ ìľĦ
il ton
pro duct
Ġident ify
Ġmot ion
ìĻ¸ êµŃ
ĠE very
ìłĦ êµŃ
Ġìłķë¶Ģ ê°Ģ
íķł ì§Ģ
ìĿ´ ëĵł
De cl
G r
Ġê²ĥìĿ´ ë©°
ãģ £
ê¸° ë¡Ŀ
su ccess
Ġê³µ ìłķ
es ome
ĠM ost
Ġd ream
Ġë§Ī ëĿ¼
por ate
Ġo s
ĠíĮĮ ìĿ¼
Ġìľł íĸī
Ġë§ĽìŀĪ ìĸ´ìļĶ
Ġresp ond
Ġadd ing
ìĭĿ ê³¼
s ive
ĠëĳĲ ë²Īì§¸
Ġin ner
er ies
ol ved
ë¯¸ ëĶĶìĸ´
ì½Ķ ëĵľ
Wh ile
ing er
ĠA N
ëª¨ ê°Ģ
ĠE vent
Ġrem ains
Ġn uc
ĠëĦ¤ íĬ¸ìĽĮíģ¬
ìĪľ íĻĺ
ĠìľĦ ìĹĲìĦľ
Ġmin im
Ġì ŃĪ
Ġì§ĢëĤľ ëĭ¬
ĠíĺĲ ìĿĺ
^^ *
Ġw ind
Ġìº Ķ
íķĳ íģ¬
Ġgo als
S w
he lp
ĠìĺĪ ìĤ°
if ically
p anel
ĠíĮĲ ê²°
=" /
Ġë°ĶëŀĮ ìĹĲ
Ġëĭ¹ ìŀ¥
âĢ¤ âĢ¤
wh ite
ê·¸ ë¦ĩ
Ġìĭ¤ íĺĦ
ë°° ê°Ģ
Ġê·¸ ê±¸
ant ic
Ġë°ĶëŀĮ ìĿ´
ê¹ ¥
ĠìĿ´ìķ¼ ê¸°ê°Ģ
ìĥĪ ë¡ľìļ´
âĸ ¡
ëĸ ł
æĸ ĩ
Ġe arn
ĠW ar
Ġê¹ľ ì§Ŀ
Ġê°Ģê²© ìĹĲ
Ġtr ade
Ġíķľ ë§ĪëĶĶ
ëħ¸ íĬ¸
Ġìĸ´ëĬĲ ìłķëıĦ
Ġev idence
ĠëĤĺíĥĢ ëĤĺëĬĶ
ë¹Ħ ìķĦ
Ġn amed
Ġpr iv
at ial
AC E
pro du
Ġëª¨ë¥´ ê²łì§Ģë§Į
Ġa ctions
ĠìĿĺ ë¢°
Ġcon v
ëĿ¼ ë¦¬
ĠìĬ¹ ë¦¬
ĠìłĦ ìĽĲ
Ġêµ¬ìĦ± ëĲĺìĸ´
Ġë¶Ħ ëĵ¤ìĹĲê²Į
ĠêµŃë¯¼ ìĿĺ
Ġìĺģ ê´ĳ
ĠìłķíĻķ íŀĪ
ĠëĤĺ ìķĦ
Ġë²ł ìĬ¤íĬ¸
ãģ Ļ
Ġdiscuss ed
ĠìĿ´ ë¦¬
d el
M ore
ĠìĬ¤ íĮĮ
ĠM et
` ,
Ġ\ |
ì¹´ ìĿ´
Ġ< =
ĠìĿ¸ íķĺìĹ¬
b ul
10 3
ĠìĿ¼ ìĹĲ
ì ·
íĥĢ ìŀħ
Ġey e
36 5
} "
ë¹ Ĺ
ĠâĹ ĭ
h old
f ast
ĠP y
ĠĠĠĠĠĠĠĠĠĠĠĠĠĠĠĠ ĠĠ
Ġê³µê°Ħ ìĿĦ
ìĿ´ìķ¼ ê¸°
Ġë§Īì§Ģë§ī ìľ¼ë¡ľ
Ġë§ŀ ìĿĢ
ĠP ost
ĠìĽĶ ìļĶìĿ¼
Ġmap s
ĠìķĦ ë¥´
Ġê¸° ìģ¨
Ġìŀ¬ ìłķ
Met adata
ìĶ¨ ìĿĺ
Ġsp ent
By te
Ġë²Ī ìĹŃ
ê³ §
Ġìŀħ íķĻ
ĠíĦ ±
h ome
ĠI I
Ġan im
ĠìķĮ ìķĺëĬĶëį°
Ġëĵ± ê¸ī
Ġìĺ¤ ìĹ¼
Ġì¢ħ ìĿ´
d eg
êµŃ ìĿĢ
H z
Ġëª ¬
ìĦ± íķľ
Ġëĭ¨ ìĸ´
in itial
Ġì¦Ŀ ìĥģìĿ´
ìĦ¸ ìļ©
ĠS ervices
. <
Ġh ous
ì¢ħ ìĿĦ
ĠìĦ¤ëªħ ìĿĦ
A ss
H D
Ġê²ĥ ìĿ´ëĿ¼
Ġìĭł ìķĻ
Ġh op
ĠìĿ´ ìłł
ĠìĹ ł
Ġëį° ë·Ķ
Ġin line
Ġìĩ¼íķĳ ëª°
Ġautom atically
Ġopportun ities
Ġhigh light
Ġdri ver
l or
Ġ( *
ëĭ¤ íĸī
íķĺ ìħĶìķ¼
Ġê¸°ì¡´ ìĿĺ
bit r
ri p
ic ed
Ġre asons
Ġìļ´ íĸī
ĠìĿĺë¯¸ ê°Ģ
Ġde pth
ĠëĮĢ íļĮ
Ġìĺµ ìħĺ
Ġp ull
iforn ia
Ġ ),
HT ML
Ġìĸ¼êµ´ ìĿ´
ìŀĲ ë©´
ĠíĶĦë¡ľìłĿ íĬ¸
Ġe igen
ê´Ģ ìĹĲ
Ġìį ¬
Ġhealth y
B oolean
Ġsc ore
ĠS NS
foot er
S ION
om b
ìĥĿê°ģ ë³´ëĭ¤
Ġredu ced
p adding
ìĺ¤ íĽĦ
au ght
Ġìĥģíĥľ ë¥¼
ĠD et
agn ost
ê³µ ëıĻ
Ġì£¼ ê¸°
Ġj ud
Ġwonder ful
Ġê°Ķ ëĬĶëį°
Ġrespons ible
Ġëĵ¬ ë¿į
Ġkey s
De bug
ĠíĻľ ë°ľ
ĠëĤł ìķĦ
Ġìŀ ī
ĠD ec
ĠìĹĨ ìĹĪëįĺ
Ġê¸°ìĪł ìĿĦ
ìĦ¸ ë¡ľ
Ġear lier
ìĬ¤ ìĹĲìĦľ
ê°Ģ ì§Ģê³ł
ìĨĮ ë¹Ħ
Ġì¼ĢìĿ´ íģ¬
ĠìŀĲê²© ì¦Ŀ
clus ive
ìĽĲ ê³¼
Ġoper ators
Ġdam age
ĠìĽ¨ ëĶ©
æ Ľ
Ġê´Ģ ë¦¬ë¥¼
ê·¸ ëıĻìķĪ
ê²© ìĿĦ
ä ¿
ìĪĺ ìĿµ
ĠìĿ´ ëĵ¤ìĿĢ
P aram
Ġê¹Ĭ ìĿ´
ëĭ¹ ìĿĢ
Class es
Ġíĳ¸ ì§Ĳ
C I
ìĿ ½
he ll
ë¬¼ ê³¼
Ġ icon
b um
ìĤ¬ ë¦¬
C al
ìĿ¼ ê¹ĮìļĶ
ĠìĦ± ê²½
Ġì§Ħ ìłķíķľ
Ġê°Ģ ë³´
íķŃ ìĹĲ
or ge
ĠìķĦë¬´ ëıĦ
Ġíķł ì§Ģ
ìĿ´ ëıĻ
Ġê°Ģ ìĿ´ëĵľ
ol ar
íĺĦ ì§Ģ
ìĤ° ìĭľ
ëĭ¤ ìĿ´ìĸ´íĬ¸
ĠT w
Ġë³¼ ìĪĺ
ë ¼Ī
__ (
ì²ľ ìĭľ
Ġ' /
Ġìŀħ ìĿĢ
Ġst uff
ĠJ apan
ãĤ Į
ĠíĨµ ì¦Ŀ
Ġunc ertain
av ity
ëĮĢ ìĭł
Ġtr ansp
E CT
h ouse
d ro
Ġpost ed
ìĿĺ ë£Į
Ġë¦ ½
ë²ķ ìĿĢ
íĿ ĺ
St orage
ed d
ĠêµĲ ìĤ¬
2 10
ìĥī ìľ¼ë¡ľ
, .
ĠìĽ ħ
ìĿ¸ ì¦Ŀ
ìķĶ íĬ¼
Ġd etailed
ãĥ ³
ce mber
How ever
ìĸ¸ ìĿĦ
Ġê¾¸ ë©°
Ġëħ¸ íķĺìļ°
ĠëĦ£ ìĸ´ìĦľ
ì¹´ ëį°
ì°¨ ìĹĲ
ff ee
D U
íĻĶ ìĿ´íĬ¸
ĠìĹĨ ìķł
ĠPro ject
ê±´ ì¡°
Ġdef initely
ĠíĿ ł
íĨ ¨
ëĮĢ ì§Ģ
ìłģ ìĿĺ
ëĭ¹ ìĿĺ
Ġs old
Ġìŀ¬ ìĤ°
Ġì¦Ĳê²ģ ê²Į
ì³Ĳ ìĦľ
pro d
C M
Ġê³Ħíļį ìĿĦ
ĠìĿ´ ëŀĺ
ë¹Ħ ë¡ľ
ĠìĿ´ë¯¸ ì§Ģë¥¼
Ġhist or
ëħĦ ìĹĲëĬĶ
Ġê°Ļ ìķĺëĭ¤
1 12
ĠíĮĮ ê´´
es h
ìĺĪ ë¥¼
Ġen able
ĠChrist mas
ëĵľ ë¦°
Ġë¬´ ìĸ¸
Ġê°ĢëĵĿ íķľ
Ġê±° ìĭ¤
Ġmon itor
ĠìĿ´ ìĬĪ
Ġìľł íĺķ
ol ic
Ġat tract
Ġë» Ķ
ĠëįĶ ë³´ê¸°
ren ch
Ġun iform
ìĥī ìĿĺ
ĠíĶ ½
}} ,
Ġë³´ ìĥģ
Ġëª¨ ë¥¸ëĭ¤
Ġestabl ished
De lete
Ġê°Ħ ìĿĺ
Ġl ack
Ġadvant age
Ġal t
Ġëª¨ë¥´ ê²łëĭ¤
é Ŀ
ìĿ¼ ê°Ħ
ãģ Ĩ
Ġinvest ment
ģ ëĭĪëĭ¤
ëĦ¤ ìĿ¼
Ġnetwork s
depend ency
in i
Ġj son
ad er
an notation
Ġvert ex
Ġíĩ´ ê·¼
ìĿ¸ ëĵ¤
Ġform ula
Ġconsist ent
aut o
ìļ ¤
ì¹´ ë©ĶëĿ¼
ĠíĹĪ ë¦¬
Ġb irth
rid ay
Ġfollow ed
result s
ìĪľ ìľĦ
ì°¨ ê²Į
Ġpay ment
íķ «
Ġê²ĥ ìĿ¸ì§Ģ
W riter
Ġëĭ¤ëĭĪ ëĬĶ
ë¬¼ ì§Ī
u ps
10 4
ë³´ ìĿ´
Ġëª¨ ëĭĪíĦ°
ĠìĨĮ ìĨ¡
Ġë³´ ìĿ¼
Ġë°ľ íľĺ
Ġcontinu ous
R ule
Ð° Ð
D oc
bl ack
Ġh olid
ĠG reen
Ġìĭ¤ ìĭľê°Ħ
ìĿ´ ìľł
ĠìĨĮ íĶĦíĬ¸
ì¤ĳ ê°ľ
ë©´ ìĿĢ
at tribute
Ġì¶Ķì²ľ íķ´
Ġë£ ¸
Ġìĸ» ìĸ´
Ex p
ĠìĭĿ ìĤ¬ë¥¼
Ġë¬´ë£Į ë¡ľ
The ta
Ġ$\ {
ë¶Ħ ê°Ħ
ê¶Į ìĿĢ
Ġìŀ¬ ìĥĿ
Ġíķ´ ìĨĮ
ìĺµ ìħĺ
Ġhy per
Ġbel ong
ĠìŀĲ ê³ł
Ġsqu are
ĠìĬ¤ íĤ¨
Ġê¸°ìĹħ ìĿĺ
ĠìĦ¸ ì¢ħ
anc ing
Ġm essages
Ġinter net
ë¡ľ ìĽĮ
ë°Ķ ì§Ģ
Ġë©Ģ íĭ°
Ġì§ Ŀ
] ]
ĠM ac
ad min
Ġth erm
ĠêµĲìľ¡ ìĿĦ
ìĤ¬ì§Ħ ìĿĦ
E l
ê¸° íķľ
Ġíģ¬ë¦¬ìĬ¤ ë§ĪìĬ¤
W D
Ġm ill
En abled
Ġë¬´ìĹĩ ìĿ¸ê°Ģ
Ġìª½ ìľ¼ë¡ľ
ļ ê½ĥ
ove mber
Ġde ad
Ġìłģ ìłĪíķľ
ĠëŃĲ ê°Ģ
ĠJ uly
On ly
Ġê³µ íĨµ
ĠìĨĲ ìĿ´
ìĹĪëĭ¤ ëĬĶ
Ġìŀ¥ ìĭĿ
ìķĦ ë¦Ħ
Ġë¹ ļ
ê°Ģê²© ìĿĢ
@*** .***
Test s
ĠìĬ¤ ìľĦ
M ock
c ategory
ìĿĺ ëıĦ
Ġìĭ¶ ìĹĪëĬĶëį°
íĥĢ ê³ł
çĶ Ł
Ġìĺ¬ ë¦¬ê³ł
Ġc ash
Ġì¦ī ìĭľ
ĠãĢ Ĭ
Ġë¬¼ ì§Ī
ê°ĳ ìŀĲê¸°
ĠĠĠĠĠĠĠĠĠĠĠĠĠĠĠĠ ĠĠĠĠĠĠĠĠĠ
Ġmanag er
ĠëĪĪ ìľ¼ë¡ľ
ĠìĹĨ ìľ¼ë©´
Ġag reement
ĠìłĪ ë°ĺ
ĠíĨµ ìĿ¼
ĠC opy
te e
ĠìĥĿíĻľ ìĿĦ
text tt
Ġcur ve
Ġëĵ£ ëĬĶ
Ġpr im
g ence
ur t
ë°© ìļ¸
ë¡ľ ìĿĺ
Ġbal ance
in sert
pos es
ol f
ì²´ ìĹĲ
ĠìķĬìķĺ ì§Ģë§Į
is hes
ë° ¸
ĠìłĢ ìŀĳ
ĠK ing
Ġdel i
Ġocc ur
Ġê±¸ ëł¤
íĬ¸ ëĿ¼
Ġad apt
re y
êµ¬ ëĭĪ
P M
T F
ë°ķ ë¬¼ê´Ģ
ĠìĦ± ê³¼
âĸ ·
Ġëĭ¹ìĭł ìĿ´
Ġíĭ° ì¼ĵ
I B
ĠìĪĺ ë¡Ŀ
ing le
ĠSept ember
Ġblo od
D raw
ĠS M
ateg ories
Ġcol ors
íİ¸ ìĿĺ
ìĦł ìĹĲ
Ġì§Ģê¸Ī ëıĦ
Ġíıī ë²Ķ
ap os
ìĦ¼ ìĬ¤
ĠíĬ¸ ëłĮ
n one
ì²´ ëĬĶ
ĠìŀĪìĸ´ ëıĦ
Ġassert Equals
Ġmag n
ë³´ ëĭ¨
Ġë§Į ëĤ¬
Ġh osp
ĠDep artment
Ġfind ing
Ġë¹Ħë¡¯ íķ´
Ġìĵ° ëłĪ
Ġìĭł ì¶ķ
ed eral
ra z
ĠëĤĺ ê°ĢëĬĶ
Ġident ity
{ $
ĠìĻĶ ìĬµëĭĪëĭ¤
maz on
íķĺìĺĢ ìľ¼ë©°
ĠìĤ ½
íĺķ íĥľ
ë²Į ìį¨
ëĤ ©ëĭĪëĭ¤
con s
ê³µ ê¸ī
as hed
Ġpict ures
et te
ëĿ¼ íħĮ
Ġë©° ì¹ł
ri end
íĴ ĢìĿ´
ë¥ĺ ê°Ģ
ĠC ons
ĠK ore
Ġì¡° ë¡Ģ
ĠìĥĿê°ģ ìĹĲ
R oot
ĠìĪĺ ë¦½
~ $
ëĮĢ ìļĶ
ëĬ Ħ
ê²Į ëıĦ
ì´Ī ëĵ±íķĻêµĲ
ĠìĹĺ ë¦¬
ë§Ī ëĬĺ
Ġg ave
ìĭľê°Ħ ìĿĢ
íķĺê¸° ê°Ģ
ĠE ven
ĠK ey
Ġì¶©ë¶Ħ íķľ
ìĿ´ ëķĮ
ì½ľ ë¦¿
íı¬ íĨł
ëĴ ·
ìĹĲê²Į ëıĦ
ìĸĳ ìĿĦ
Ġì£½ ìĿĢ
Ġman if
Ġë¹ĦêµĲ ìłģ
Ġê³ł ë§Ļ
ìłľ ìĻĢ
ìĿ¸ ìĽĲ
Ġag ent
Ġì¤Ģë¹Ħ ëĲĺìĸ´
Ġë°Ķë¡ľ ê°Ģê¸°
Ġpe ak
Ġset up
ĠC ode
v ille
ëĤł ìĿ´
Ex ecut
; <
Ġgener ation
est ed
ìŀĲ ê¸Ī
Ġmention ed
íĥĢ ìĿ´ìĸ´
Ġëĭ ¥
Ġë°ľìĥĿ íķľ
ë°± íĻĶìłĲ
Ġê°¤ ëŁŃìĭľ
ĠìłĦ ê°ľ
Ġview s
íķľêµŃ ìĸ´
Ġê³µ ëª¨
T X
Ġìŀĳ ëıĻ
ĠíĬ¹ ìľłìĿĺ
íĤ¤ ë¡ľ
ìĭľ íĬ¸
ãģ ¾
KE Y
yn omial
@ ****
ê¶Į ìĹĲ
Ġinv oke
Ġíİ¸ ì§ĳ
g reg
Ġ( "
ë§Ī ê°Ģ
. >
íķ´ìĦľ ëĬĶ
ĠA S
Ġì´Ī ê³¼
ĠâĹ Ģ
Ġb aby
Ġìľł ëıĦ
ĠëģĿ ëĤľ
ë¶ģ íķľ
ìĦľ íĬ¸
Ġë¬¸ íķĻ
Ġb ur
íİľ ìħĺ
Tr ack
ne ctions
Ġë§Į ëĵľ
W idget
ĠDe velop
ëł¸ ëįĺ
ìĤ´ ìĿĦ
Ġsepar ate
Ġì¹ ¸
ëĭ´ ëĭ¹
Ġíĸī ìľĦ
Ġe at
ĠK BS
ĠOct ober
Ġj our
íĮĮ íĭ°
Ġb inary
ĠíĬ¼ íĬ¼
ìĦł ìĿĢ
Ġì¤ ¬
Ġê·¼ì²ĺ ìĹĲ
ĠìĦ± ëł¹
ĠëıĻ ê¸°
Ġê´Ģ ìłĪ
point s
Ġê³ł ëĵ±íķĻêµĲ
@**** .***
: \
Ġê²Ģ ì¦Ŀ
ìŀĲ ìĽĲ
urren cy
st op
Ġin fin
Ġst ation
leg al
ĠìĻ¸ ìĹĲ
Ġë°Ķ ë¥¸
Ġì¤ĳìĨĮ ê¸°ìĹħ
Ġì°½ ìĿĺ
ach ing
Ġoffer ing
íĺ¸ ëĬĶ
Ġë§ĲìĿ´ ì£ł
ëĲľ ëĭ¤ëĬĶ
ì¡° ë¥¼
Ġë°° ëł¤
E dit
ëªħ ìĹĲ
Ġìĥī ìĥģ
Ġëħ¸ ëł¥ìĿĦ
íķ´ ìĻ¸
Ġb rowser
Ġdeli very
ë§Ī íģ¬
ë¬´ ìĬ¨
Ġíķĺ ìĭľê³ł
ìĿ¸ ëĵ¤ìĿĢ
ot hes
Ġinst alled
Ġìĸ´ íĶĮ
Ġë§¤ ê°ģ
ĠëĮĢ ì²ĺ
íļĮ ìŀ¥
Ob j
r ated
ìĹĲìĦľ ë§Į
Ġê·¸ëŁ¬ íķľ
Ġë°Ŀ ìĿĢ
å ¥
ad s
Ġh yp
ìĺ¤ íĶĪ
ê²ł ìĸ´
key s
Ġêµ¬ ë©į
ĠëĴ¤ ì§ĳ
gr ade
s n
ĠíıŃ ë°ľ
ĠëģĿ ëĤ´
ìĺ¤ ë¥¸
ĠìĿ´ íĺ¼
ĠS und
} '
s ite
Ġíļį ëĵĿ
Ġcertain ly
Ġìĺ¤ ì§ģ
ëŀĳ ìĿ´
ĠëĤ´ ì§Ģ
ĠìĹ° ëł¹
Ġchall enge
Ġìĺ¤ íĶĦ
ëłĮ ì¦Ī
ìĤ¬ íķĻ
Ġhe nce
Ġíģ Ĳ
íĦ° ê°Ģ
ëĵľ ë¦¼
ĠëĪĪ ë¬¼
m ock
ê³µ ê°ľ
ĠV is
Ġë½ Ģ
Ġëĭ¨ìĪľ íŀĪ
w rit
tr m
Ġdiscuss ion
ĠíĬ¹ íĹĪ
Ġê¸Ī ìļĶìĿ¼
Ġc ast
Ġê¶Į ë¦¬
ĠìŀĳíĴĪ ìĿĦ
Ġê·¸ëŁ¬ ë¯Ģë¡ľ
z ero
ìłĦ ìĿĢ
ple x
< \
D ialog
ĠìķĦëĭĮ ëį°
ĠH ol
ĠìĥĿ ê¸¸
ĠH ot
Ġëªħ íĴĪ
ĠëĲľ ëĭ¤ë©´
Ġìĭł ìĨį
ëĭ¹ ìĿĦ
Ġh idden
íĮĮ ìĿ¼
ĠP ublic
Ġmiss ing
Ġf elt
ì°¨ ë¡Ģ
Ġê±° ëĵŃ
ì¡° ìĹĲ
Ġì§Ħ ë£Į
ìŀĲ ìĤ°
ĠíĨµ ê³Ħ
Ġcap acity
Ġnear ly
ì¸ Ħ
Ġë§Ĳ ëĿ¼
Ġëĭ´ ê¸´
import ant
ĠìĿĢ íĺľ
Ġcom ments
b es
Ġì§Ģ ëĭĪ
ĠìľĦ íĺĳ
ê±° ì§Ģ
ĠT op
Ġëĵ¤ ìĿ´
ĠB usiness
ìŀĲ ëĵ¤ìĿĦ
Ġë§Ĳ íķĺê³ł
ìł ĵ
ĠìĽ ¨ìĿ´
Ġabsolut e
Ġì£¼ ì§Ģ
ĠìĿ´ìĥģ ìĿ´
Ġë¯¼ ê°Ĳ
Ġthan ks
Ġê³µ ë¬´ìĽĲ
Ġextrem ely
ë³´ëĭ¤ ëıĦ
Ġë¶Ģ íĴĪ
íĥĢ ìĽĮ
ĠíĴįë¶Ģ íķľ
ìĭ¤ ëĤ´
ì¡° ìłĪ
Ġíķĺ ìĭľë©´
Ġê¹¨ ëĭ«
ìŀ¬ ë¡ľ
ram es
ë©Ķ ìĿ´ìħĺ
ĠìĻĦë²½ íķľ
ìĿ¸ ëĵ¯
ĠPres ident
Ġê´Ģê´ĳ ê°Ŀ
Ġê» į
B efore
ç ī
ë¹Į ëĶ©
Ġë¹Ħ ì¦Ī
íĺ Ķ
ĠëĤ ¯
ìĿ¼ ìŀĲ
f ony
Ġcoll abor
Ġë©Ķ ìĿ´íģ¬ìĹħ
ĠG reat
Ġth er
)) )
ri a
Ġcult ure
block List
Ġë¬´ ìĦł
âĳ ¤
://*** )
ĠìĪĺ ìłľ
ĠìŀĦ ìĭł
ĠìĦ¸ ëĮĢ
ĠìłķëıĦ ëĬĶ
se ct
at ible
ìĬ¤ ëłĪ
inst all
Ġsp read
P lease
ĠA pp
EX T
ĠìĥĿê°ģ íķĺë©´
Ġê ¾
ap y
ir r
Ġìĺ¤ëŀ« ëıĻìķĪ
Ġë§İ ìķĺëĭ¤
ĠìĤ¬ ìĥģ
Ġhot el
ëĿ¼ ìĿĺ
ëł Ĳ
}^{ -
ĠìĿ¼ ì£¼ìĿ¼
ì¹´ ì¹´ìĺ¤
ĠëĤ¨ ëħĢ
H A
ĠëıĻ ë£Į
ĠìķĦ íĮĮ
ĠìłĢëł´ íķĺê²Į
subset eq
ë§Ī ë¥¼
ĠëĦĺ ìĸ´ê°Ģ
ĠíĢ Ħë¦¬íĭ°
ê²ĥ ìĿ´ëĭ¤
âĿ ¤
Ġê¸¸ ê²Į
ym fony
Ġìĭ¬ íķľ
ëĦĪ ìĬ¤
Ġì¤ĳìļĶ íķĺëĭ¤
Ġcl ub
Ġhe avy
ĠM O
ĠíĿĶ íŀĪ
ĠíķĺëĤĺ ëĭĺìĿ´
ìĺģ ìĽħ
ĠíĶ¼ë¶Ģ ë¥¼
Ġë³¸ ìĿ¸
ë©Ķ ìĿ´
4 50
Ġpass word
Ġfin ished
ìłĦ ìĹĲìĦľ
íķ´ ë³¼
V ol
Ġíķĺ ëł¤ê³ł
ìłķ ì¹ĺ
z a
Ġp aid
ber g
ĠComp any
Ġ\ ;
Ġd u
Ġd ress
ìĺĢ ì§Ģë§Į
íĶĦ ë¥¼
ĠIntern et
ê¸° ìĿ¼
ì°¨ íĶ¼
tex trm
Ġêµ° ìĤ¬
ĠM ich
d en
oc r
ìĿĮ ë£Į
Ġìĭ¬ ìĤ¬
Dis play
ë§Ī ìĬ¤íģ¬
ĠìķĦ íĶĪ
sh ort
Ġa ward
Ġopt imal
Ġaccur acy
Ġê°Ģ ê¹Ŀ
Ġìĭ¶ ìĿĦ
íĸĪ ëĭµëĭĪëĭ¤
Ġn ut
ĠíĻį ì½©
Ġg ift
ëĳ¥ ìĿ´
Ġo k
Ġcomp ute
ë§¥ ì£¼
Ġìµľ ìĭł
ĠM BC
it ary
Ġgr ant
íĺĦ íĻ©
íĺĳ ìĿĺ
ĠìĿ¸ ê¸°ë¥¼
Ġìĺ¬ ë¦°
ëį §
ĠìľĦì¹ĺ íķ´
ĠCal ifornia
Ġsp ot
ĠíķĦìļĶ íķ©ëĭĪëĭ¤
ì¹ «
ìĹ°êµ¬ ìĨĮ
J ob
com ment
Ġdis k
Ġëħ¸íĬ¸ ë¶ģ
ĠC ustom
Ġíıī íĻĶ
ìĪĺ ìļķ
Ġant i
Ġprov ider
ĠìłķíĻķ íķĺê²Į
ĠíĨµ íĻĶ
ëĤĺ ì¤ĳìĹĲ
ìľ Ļ
Ġprevious ly
an o
st at
ëłī ìĬ¤
Ġb right
Ġëĭ¬ ìķĦ
Ġ$ |
Ġëª¨ìĬµ ìľ¼ë¡ľ
Ġìĺ¤ ë¦¬
Ġp en
ìĺ¨ ëĿ¼ìĿ¸
Ġat tr
Ġì§Ģ ìĥģ
ë§¤ ê°ģ
Ġë³´ ìķĺ
Ġfl ag
ìļĶì¦ĺ ìĿĢ
ì¤ĳ ìĿĦ
Ġtri ed
ë¬¸ ìĿĢ
ĠìłĢ ëŁ°
Ġì¿ ¨
ìĭ¶ ëĭ¤
ê´Ģ ìĹĲìĦľ
Ġ" /
ĠH D
ĠëĤĺ ìĺµëĭĪëĭ¤
ĠJ es
Ġëıħ ìĦľ
a iled
as y
Des criptor
sh ape
ìĥĿ ìĤ°
ĠM em
Ġpolit ical
Ġwas n
Ġaff ord
Ġê°Ħ ìĭĿ
V ar
Ġë¹ł ì§Ħ
Ġë³µ ì§Ģ
Ġed ges
Time out
put e
Ġë¶Ī ë¦¬ëĬĶ
Ġìĭ¬ ì§Ģìĸ´
ë¡ľ ìį¨
Ġë¸Į ëĿ¼
íķĺìĭľ ê¸¸
Ġder iv
Ġë¶Ģ ì°©
Ġë°Ķ ë³´
Ġê±± ìłķìĿ´
Ġad vert
lim its
ìĸ´ ë§Ī
ag raph
Ġì¹ľêµ¬ ëĵ¤
ë£¨ ìħĺ
h s
Ġj oint
Ġexperi enced
ĠíĸĪ ëįĶëĭĪ
ê³ł ë¯¼
Ġmay be
ìĨĮ ìľł
ī ģ
p ay
am ing
Ġappe ars
ìĺĪ ìłĦ
ç Ł
ĠìĹ´ ë§¤
ì£¼ ë°©
iv ial
Ġsp irit
ëĮĢ ê¸°
Ġm sg
íģ¬ ë¦¬ìĬ¤
stru ctions
íķĺëł¤ ë©´
Ġëĭ¤ ë¥¼
ĠM ag
I ST
íĸĪ ìľ¼ëĤĺ
Ġì°© íķľ
êµŃ ìĹĲ
Ġrun s
ap id
ìĺ¤ ë¦¬
ĠO per
ent er
Ġpat ient
ë¦¼ ìĿ´
ĠH and
ìĮ ¤
ĠTh anks
Ġdepend ing
Ġì¤ĳêµŃ ìĿĺ
gr id
m argin
Ġshow ing
ap plication
Ġê²½ ëł¥
ë²Ħ ìĦ¯
~ !!!
ë§Ī ìłĢ
ĠâĻ ¡
ĠìłĦ íĻĶë¥¼
Ġoffer ed
ë§Į íŀĪ
Ġê·¸ë¦¼ ìĿĦ
W A
Result s
ë³¸ ë¶Ģ
M sg
íĮ Ł
al ed
å ī
Ã Ń
íĻľ ëıĻìĿĦ
Ġappre ci
Ġ ul
in n
foot note
virt ual
ë§Ī ìĿĺ
Ġext ended
ĠìĽĲ íķĺìĭľëĬĶ
ĠìĤ¬ ë¡ľ
ĠëĮĢ íķĻìĥĿ
cm d
ĠëĲĺ ë©´ìĦľ
ëĮĢ ë¶Ģë¶Ħ
ĠíĻĶ íķĻ
ĠInst agram
D i
w rap
Ġì¢ĭìķĺ ëįĺ
ĠíĿ Ļ
ìĽĶ ìĿĺ
Act ive
ì¢ħ ìĿ¼
Ġlist en
ê´ĳ ê³ł
EN D
" (
10 6
Ġmed ium
ì£¼ íĸī
ìħ¨ ëĬĶëį°
Ġìĺ ³
íķĺ ë¯Ģë¡ľ
ì§Ģ ë©°
m os
ëŁ¬ ë¦¬
ĠìĦł ë°°
Ġì±Ħ ê¶Į
ìĦ¸ ëĬĶ
ĠìķĦë¬´ ëŁ°
ìķĦ ëħ¸
ë¯¸ ëŀĺ
Ġì²« ì§¸
ëłĪ ëĵľ
Ġëª¨ë¥´ ê²Į
def ined
Ġì¡°ê¸Ī ë§Į
Ġì¡° ë¦½
de c
ĠF riday
ub y
il ing
íĸĪ ê¸°
ew idth
ĠV iew
Ġë©Ī ì¶Ķ
ë§Ľ ìŀĪëĬĶ
ë°Ķ ëĶĶ
ìĬ¤ íĤ¨
ĠAug ust
r is
ĠU N
ìłģ íķľ
Que ue
Ġê°ĳ ëĭĪëĭ¤
Ġsignificant ly
Ġ ens
Ġwe ather
Ġëģĵ ìĹ¬
T ab
ãĤ ī
ĠìķĮëł¤ ì§Ħ
ì°¸ê³ł ë¡ľ
Ġë³´ ìķĺëĭ¤
ê° ±
Ġëĵł ëĵł
Ġìłģ íĺĢ
ëİ ħ
ĠëĲ ¨
Ġì£Ħ ìĨ¡
Ġinstance of
FA ULT
ä¸ Ĭ
had oop
Ġìłģê·¹ ìłģìľ¼ë¡ľ
Ñ ı
Ġlist ed
ìĸĳ ëħĲ
Ġê²Į ëĭ¤ê°Ģ
íİ¸ ìĹĲ
Id ent
ãĢ Ĳ
eff ect
ĠG a
ĠëıĦ ë§Ŀ
ëıĦ ìĸ´
Ġëħ¸ ìĿ¸
w ell
Ġë° ¸
Ġre place
Ġplay ed
ìħ¨ ëĤĺìļĶ
Ġw allet
ì¹¨ ëĮĢ
ĠíĶĮ ëĿ¼
ê°Ģ ìķ¼
em ail
ë¹Ľ ìĿ´
Ġëĭ´ ê³ł
se quence
ĠDe cember
m aterial
ĠSu per
Ġp aint
ĠE ar
Ch anged
ĠEurope an
Ġëĵ¤ ìĿĢ
Ġar bitr
íİĺ ìĿ´
Ġê·¼ ë³¸
Ġad opt
ten ance
is ms
Ġíĸ Ħ
Ġìĩ ł
ĠCol lege
Ġê°Ĳ ìķĪ
ìĬ¤ëŁ½ ê³ł
ì¤ĳ ìĹĲìĦľ
Ġfeel ing
Ã ³
ĠìĦ¸ ëł¨
ëĲĺ ëĬĶëį°
Ġë¬´ ê¸°
ore t
ìĪĺ ê¸°
ĠìĹ° íķ©
Ġê³ł ë°±
ëĭ¹ ìĭľ
ĠE qu
ĠëĲĺ ìĹĪê³ł
Ġìĸ¸ìłľ ëĵłì§Ģ
Ġìłģ ë¦½
ë¯¸ ìķĪ
Ext ension
Ġseg ment
Ġad ult
ched ul
k y
Ġan gle
Ġl oved
miss ions
ĠâĢ ¢
ì°½ ìĹħ
item s
êµ¬ ì²Ń
Ġlet ter
r adius
bl ue
íĶĦ ëĿ¼ìĿ´
íĤ ´
ìļ° ëŁ¬
Ġì¼ĢìĿ´ ë¸Ķ
set minus
Ġì§ĢìĹŃ ìĿĺ
Ġd ou
ëıĮ ìĿ´
b i
Ġal one
ìĺ Ľ
Ġc old
ick s
ìĹŃ ìĹĲ
}} _{
Ġê³Ħ ìĹ´
v ision
X ml
Ġë³´ ìĭľ
Ġobserv ations
Sh ow
ĠìŀĲ ë£Įë¥¼
Ġëĸ¨ìĸ´ ì§ĢëĬĶ
Ġinter pret
do or
ì¼ĢìĿ´ ìħĺ
Ġexperim ent
Ġë³´ ìĪĺ
Ġdet ect
Ġtra ffic
Ġë¶Ħ ëħ¸
ĠíĻĶëł¤ íķľ
ĠĠĠĠĠĠ Ċ
Ġëĵ± ê³¼
ë¡ľ ìĹĲ
Ġê²°ê³¼ ê°Ģ
ot ing
f lo
ĠH el
ĠíĿĲ ë¦Ħ
ìĨĮ ìĨ¡
c pp
Ġì±ħ ìĿĢ
ĠM anagement
ì¡° ìłķ
Ġin sert
ĠìĤ¬ì§Ħ ì°į
ë²ķ ìĿĺ
Ġadv ice
ĠíĥĢ ìŀĦ
3 20
ä ¾
Ġë¬´ ëĮĢ
ĠM ethod
ìĬµ ëĭĪëĭ¹
íķĦ ìļĶ
reg ion
ic ies
Ġl ots
ìª½ ìĿĢ
h i
å ĳ
æ µ
ĠPl an
ed s
Ġì± Ķ
Ġeconom ic
Ġê²½íĹĺ ìĿ´
ĠëĦĺ ê²Į
ìķĦë²Ħ ì§Ģ
Ġë¶Ģ ê³¼
Ġp le
ĠìĨĲ ëĭĺ
ìķĦë¬´ íĬ¼
Ġsecond s
Ġpower ful
Ġìĥģ ëĮĢë¡ľ
ê³µ ìľł
S cope
N etwork
ì§Ħ íĿ¥
Ġb orn
Ġë°Ķ ìģĺ
Ġìµľì´Ī ë¡ľ
ì¶ķ ìłľ
ãĤ Ĥ
ëĭ· ì»´
êµ ½
Ġrem aining
ìķ¡ ìĿĦ
ĠíķĺëĬĶ ì§Ģ
ëª¨ ìŀĦ
Ġê¸° ìķĦ
ĠìŀĲ ìĽĲ
ĠëĲĺ ìĹĪìĸ´ìļĶ
Ġì´Ī ì½Ķ
tog gle
ĠV ol
íķĺì§Ģ ëĬĶ
Ġë§¤ ëĭ¬
hent ication
ĠM icrosoft
ì¡° ë¦¬
ë´ī ìĤ¬
ĠëĤĺíĥĢ ëĤľ
ĠìĿ´ë¦Ħ ìĿĢ
ĠìłĦ ì£¼
ĠG ood
Ġfail ure
Ġìŀĺ íķĺëĬĶ
ole c
ĠìĿ´ ë»Ĳ
ĠíĸĪ ìĿĦ
) ),
Ġca ref
ĠìĿĢ ê·¼
ë³´ ë¦¬
Ġìĭ¤ ë§Ŀ
Ġat tributes
ĠìĿĺ íĺ¹
Ġschool s
Ġëĵ Ģ
ĠíĪ¬ ëªħ
Ġíİ¸ìķĪ íķľ
Ġë¶ ķ
ol ver
d y
Ġë²Ī íĺ¸
ëĥ ł
ĠĠĠ Ċ
L D
Ġëĭ¨ ëĭ¨
ìŀ¬ ìĿ¸
ê°ľìĿ¸ ìłģìľ¼ë¡ľ
Ġë§Į ëĤĺëĬĶ
P ackage
use um
ìľ¼ ëł¤
18 9
ĠíĻĺ ìĺģ
Ġg ain
íĺ¸ ë°ķ
in line
S m
íķĺ ëĿ¼ê³ł
ê¸° íļį
s che
Ġì¦Ŀ ìĥģ
Ġsec ure
ëĮĢ íĸī
Ġinter view
Ġë¬´ ëĭ¨
ëĥĲ íķĺë©´
ëŀĢ ëĵľ
ìĪĺ ìĺģ
ĠëģĿ ìĿ´
ock er
Ġë°© ì¹¨
Ġê°Ģ ëĿ¼
ìĸ ĺ
Ġfl ux
h ol
ìķł íĶĮ
ëĿ¼ìļ´ ëĵľ
Ġcon cent
s ort
atur day
Ġt ab
íıī ìĨĮ
Ġob vious
Ġë¯¸ ëĶĶìĸ´
ĠìĪł ìĿĦ
all ery
ĠN ovember
ĠìĪĺ ëĬ¥
ĠL aw
ìĭľ ë¦¬ì¦Ī
f ol
ĠF urther
Ġê°Ģìł¸ ëĭ¤
IC E
Ġcap ital
Ġíļ ¡
Ġë¨¹ ìĹĪìĸ´ìļĶ
Ġslight ly
íĦ ±
ìĹĪ ëĦ¤ìļĶ
Ġìłĳ ì´ī
ist ent
Ġìłĳ ìĨį
ìĽł ìĸ´ìļĶ
Ġì§Ģ ëĭĮ
Ġì¹ĺ ìķĦ
ê³ł ê¸ī
Ġb rought
ìŀħ ìĿĦ
Ġìłķ ê·ľ
ĠìłĦì²´ ìłģìľ¼ë¡ľ
Ġì´Ī ëĵ±íķĻêµĲ
ë īĺ
Ġtr uly
Ġtechn ical
ĠìĥĿ íĥľ
ê°Ĳ ìĹĲ
ĠìłĢ ë¥¼
Ġê·¸ ê±°
Ġaltern ative
ĠêµŃ íļĮ
E ng
ĠìĨĶì§ģ íŀĪ
ĠìĿ´ íĭĢ
Ġw he
Ġtop ic
ëŀĢ íŀĪ
ìĪľ ê°Ħ
riter ia
ĠìĦľìļ¸ ìĭľ
Ġfe et
ë°° ì¶Ķ
Ġag ree
ìķĦ ëĿ¼
ëįĶëĿ¼ êµ¬
ĠìĿ´íĥĪ ë¦¬ìķĦ
íķŃ ìĿĺ
Ġthe orem
Ġíķĺ ìĦ¸ìļĶ
Ġíķ´ ê°Ģ
Ġre ports
Ġê±¸ ë¡ľ
ìĭ¤ íķľ
Ġse qu
S um
Ġsc ience
ìĿ´ íĮħ
ĠV er
Ġm ock
ress ion
ê¸Ī ì§Ģ
\ }
ĠìķĦìĿ´ ìĿĺ
Ġ ãħĭãħĭ
Ġì·¨ ê¸ī
M ain
p ower
Ġclear ly
ìĹĨ ëĭ¤
ìºł íķĳ
Ġcontribut ion
Ġs on
1 19
Ġê² ¹
ĠëĲĺ ë©°
Ġêµ¬ ê°Ħ
ĠìłĲ ì°¨
& -
Ġê¹¨ëģĹ íķĺê²Į
ang uage
ê¸° ê³Ħ
ĠìĨĮë¹Ħ ìŀĲ
ann ed
ab il
Field s
ĠUS B
Ġrep air
ph er
e ch
ìĦ± ë¶Ħ
ç İ
ìĭł ê²½
ëĤĺ ëĤĺ
ìĹ´ ìĭ¬íŀĪ
Ġtr igger
Ġíľ ł
CH E
Ġë§İ ìķĦìļĶ
Ġey es
Ġprot ocol
Ġì²¨ ë¶Ģ
ëĪĦ ë¦¬
20 3
' ))
br uary
Ġê·¸ë¦¬ìĬ¤ ëıĦ
Ġblock s
Ġprote ction
" `
ìĬ ĺ
Ġr adius
ì¡Į ê³ł
ĠíĶ¼ë¶Ģ ê°Ģ
ì°¸ ìĹ¬
ĠìķĪìłĦ íķĺê²Į
íĶĦ ëŀĳ
ĠìĥĿê°ģ ëıĦ
eth er
Ġcon sole
íĻĶ íķĻ
Ġb atter
ic ing
Ġtyp ically
Ġë´ī ìĤ¬
Ġplan e
ens ed
íķĺ êµ¬
S end
pl ugins
ĠB en
ĠP al
con nection
ĠSt reet
Ġsche dule
Ġë³µ ìļ©
ĠëģĬ ìŀĦ
rel ated
SS ERT
if fer
* {
i ant
St ep
Ġë¬¼ê±´ ìĿĦ
Ġap point
Ġì§ĳ ìĸ´
Ġëĺĳ ê°ĻìĿĢ
ìĿ´ìłľ ëĬĶ
Ġht ml
ðŁ ı
ĠìĿ´ìĥģ íķľ
ĠSt art
ĠìĤ¬íķŃ ìĿĢ
Ġíķľ ê¸Ģ
ê°Ģ ëģĶ
ang o
Ġë°° íĦ°ë¦¬
und red
ĠF unction
Ġìŀł ìĿĦ
ì¨Į ëĵł
Ġmeasure d
ac le
Ġcour t
ĠìĿ´ ì¤ĳ
sc roll
ë¨¼ ì§Ģ
Ġv ary
Ġëª¨ ë¥¼
J ECT
ĠëģĮ ê³ł
pe ed
ĠìĦłíĥĿ íķľ
Ã ¤
pos ite
Ġpartic le
Ġincre ases
Ġc ref
ĠìķĪ ê²½
íİ ł
íĨµ ìĿĦ
Ġe lem
TE X
ic ious
Ġth ous
J SON
Ġë¿Ĳ ìĿ´ëĭ¤
Ġder ived
Ġê°Ģë²¼ ìļ´
čĊčĊ čĊ
Ġneighb or
ate ver
Ġìĺģ ìĥģìĿĦ
type of
ĠíĮĮ ìļ°
Ġì¤ĳê°Ħ ìĹĲ
Ġco ffee
Ġìĸ´ëłµ ëĭ¤
Ġëħ¸ ëŀĢ
ĠíķĻìĥĿ ëĵ¤ìĿ´
Ġth ick
if ts
Ġcl in
ë©Ķë¦¬ì¹´ ëħ¸
ìĺĪ ìģľ
ëį° ìĿ´íĦ°
AN G
Ġsu itable
ìłķ ëıĻ
Ġìĸĺ ê¸°ë¥¼
ĠìĿ´ê²ĥ ìłĢê²ĥ
Ġpi eces
ĠìĤ¬ ê¸°
ĠB est
ĠDef ault
Ġin str
en a
Ġm other
Ġë°ĺ ì§Ŀ
Ġpartic les
ĠëĮĢíĳľ ëĬĶ
Ġê²ĥ ëĵ¤ìĿĦ
Ġl ib
ëĲĺ ê²Į
Ġì¹´ íĨ¡
o plus
mult i
ìļ¸ ëŁ¬
ĠìķĦë¦Ħ ëĭµ
Ġd b
Ġê°Ģ ìĭľ
ĠP at
ĠìŀĲ ìĤ°
M ENT
d ist
Ġë§Ī ìĦ¸ìļĶ
m g
v s
Ġturn ed
ëĲĺ ìĹĪê³ł
ë» Ķ
ĠíĻķìĿ¸ íķĺê¸°
Ġë³´ìĹ¬ ì£¼ê³ł
Ġëį§ë¶Ļ ìĺĢëĭ¤
ĠìĿ¼ ìĿ´ëĭ¤
ë¦¬ ëĭĪ
ë¥ĺ ìĿĺ
ĠR et
Ġíĸī ëıĻìĿĦ
ï¼ ļ
Ġë³´ ëĿ¼
Ġhe ard
_ ,
ĠìłĦ ë¶ĢíĦ°
Ġdise ase
ĠS E
Ġex change
Ġëĵ± ìĤ°
Ġìĭ ¼
ĠìŀĪ ëĤĺ
ìĭ¬ ìĿĺ
ĠìĻ¸ ì¶ľ
ĠìĹĨ ê¸°
ĠE ast
ĠG old
Ġp et
In itial
ĠGener al
Ġst ories
Ġw ire
Ġì²ĺ ë²Į
ĠìĹ¬ê¸° ìłĢê¸°
ĠìŀĲë¦¬ ìĹĲìĦľ
Ġë¥ ´
Ġcover ed
rop y
av our
Ġdr iving
ĠìĪĺ ì§ĳ
Ġë³´ ìĿ¸
un signed
ĠìľĦ ìĥĿ
new s
ft ware
Ġn or
Ġcomb ined
_ ->
Ġr ing
Ġìŀĺëª» ëĲľ
ê¶ Ī
et ing
Ġíĥ ±
R et
Ġstruct ures
her it
att ice
Ġmov ed
ĠìłľíĴĪ ìľ¼ë¡ľ
ĠìĦ¸ ë¶Ģ
ĠT ext
ìĨĮ ëħĦ
e in
or ial
ĠëĤĺëĪĦ ìĸ´
ìĨĮ ìĦ¤
Ġê±´ê°ķ ìĿĦ
Ġì£¼ë³Ģ ìĹĲ
íĮ¨ ëĵľ
Ġpo inter
ĠìŀĲ ìľ¨
Pro p
FI LE
æľ ī
Ġent ity
Ġë°ľ ë§¤
é ĥ
ìĪ¨ ìĿĦ
t ip
Ġë§Ī ìĿ´íģ¬
ìĨĶ ì§ģ
Ġs ector
ĠOn ce
Ġp ure
ĠíĶ¼íķ´ ë¥¼
ĠB ay
Ġ( $\
ì¤¬ ëĭ¤
ê²½ íĹĺ
Ġ" "
Ġthem e
Ġì²ľ ìķĪ
S ER
Ġë§ µ
Ġíĥ ķ
Ġë° Ł
Ġëĵ¤ìĸ´ê°Ģ ë©´
L P
ĠëĤł ì§ľ
Ġvis ible
Ġë¶Ģ ë¥´ëĬĶ
. ]
^{ -\
pass word
ìĥĿíĻľ ìĿĦ
ìĨį ìľ¼ë¡ľ
Ġê²½ ê³Ħ
ëĳĺ ì§¸
Ġ[ ];
ĠSc ience
n umer
ë³ ĢìĿ´
Ġê¸°ëĬ¥ ìĿ´
Ġê·¸ê²ĥ ëıĦ
âĨ ĳ
Ġorig in
Ġman age
ON E
ëĪĦ ê°Ģ
ĠìĿ½ ëĬĶ
ëĭ Ľ
V D
Â ®
Ġcontr ast
ĠìķĪìłĦ íķľ
ê° ĵ
="../../ ../
Ġê°Ĳ ìĦ±
íķ´ ì¤Ģ
ì±ħ ìŀĦ
Ġì» ¸
ĠìĿ¼ ëıĦ
ìĭľ íĸī
ĠN etwork
Ġìĸ ¹
ìĿ¸ ê±°
Ġë³¸ ìĿ¸ìĿ´
Ġê·ľëª¨ ìĿĺ
íķ´ì£¼ ìĭł
mod ules
íĺĢ ìĦľ
Ġë³´ ìķĪ
sy ch
Ġcomfort able
ĠëĬĲê»´ ì§Ģ
Ġg auge
ê·ľ ì¹Ļ
ell ar
ìĭ¤ ìĪĺ
Ġì¼ĢìĿ´ ìĬ¤
Ġì§ĢìĽĲ ìĿĦ
Ġìĸ¼ ë¥¸
ë¥ł ìĿĢ
Ġhom es
re p
ĠìĬ¤ íĶĦ
MA X
ëıĦ ìĹĲìĦľ
e ach
Ġmov ie
stand ing
Ġíĳ¸ ë¥¸
ri er
Ġë§İ ì§Ģ
Ġë¶Ģ ìŀĳìļ©
Ġê¹ĶëģĶ íķĺê³ł
Ġë°ľìĥĿ íķł
ëĵľ ë¦Ħ
ĠM any
ë©Ķ ìĿ¼
íı¬ íķ¨
Dat abase
ä ¼
Ġê³Ħ ê³¡
Ġíķĺë£¨ ìĹĲ
å ½
ìĿ´ìĹĪ ê³ł
ĠìĹĨ ìľ¼ëĭĪ
Ġrad io
ìĦ± ê³µ
Ġë¶Ħëªħ íŀĪ
Ġmeas ures
and ard
êµĲ íĻĺ
ë¦¬ íķĢ
L C
ĠíĻĶ ê°Ģ
Ġì¶ľ íĮĲ
Ġì¡° ìŀĳ
ĠëıħíĬ¹ íķľ
Ġhand ler
ì§Ģê¸Ī ê¹Įì§Ģ
ĠëĶ¸ ê¸°
ìľł ìķĦ
âĢ¦ .
ê´Ģ ìłĪ
Ġa udio
Ġì²Ń ìķ½
ĠìĿĺ ìĽĲìĿĢ
Ġser ial
ĠìłľìĻ¸ íķľ
Ġë¡ľ ë´ĩ
ĠìĹħ ëį°ìĿ´íĬ¸
Ġt end
ĠìĿ´ìľł ë¥¼
ëıĻ ëĦ¤
Ġw ild
Ġì§ĳ íĸī
G R
Ġìłģ ìłĪ
íģ´ ë¦¬
ĠS D
Ġì° ľ
ult ure
RO M
Ġc at
Ġsh aring
ĠëĤĺ ê³ł
ìłĦ ìŁģ
Ġìĭ¤ ì§Ī
Window s
form s
cl ip
ag er
Ġíĺ¸ ì£¼
ìĹĲ ìĬ¤
Ġìī½ ê³ł
ĠìĺĪ ê³ł
ëĿ¼ìĬ¤ íĭ±
Ġê¸°ëĭ¤ ë¦¬ëĬĶ
Ġíķĺ ì£ł
ìĿĮ ìĹĲëıĦ
ĠC A
ìłķ ìĽĲ
ĠíķĺëĤĺ ë¥¼
Ġìĥģíĥľ ê°Ģ
Ġê°ľìĿ¸ ìĿĺ
Ġê²ĥìĿ´ ìĹĪëĭ¤
Ġë°ĺ ëıĦì²´
Ġê³ĦìĨį íķ´ìĦľ
Ġì¢Į ìļ°
Ġanal yt
ĠìļĶ ìķ½
ĠA I
dom ain
ĠìĿ¼ë³¸ ìĿĺ
Ġê±° ìļ¸
ì¹´ëį° ë¯¸
ëŀĦ ê¹Į
Ġì§Ħíĸī íķĺëĬĶ
Ġìĸ´ëł¤ ìĽĮ
ì¡° ê°Ģ
íĩ´ ê·¼
Ġë³ĢíĻĶ ê°Ģ
L IC
ë§ģ íģ¬
ë§Ŀ ìĿ´
omet ric
* )
Ġìŀ¥ ìłĲìĿ´
Ġpl aced
æ Ķ
Trans action
ì§Ģ ìĪĺ
E ST
ìĹĲìĦľ ë¶ĢíĦ°
ĠìľĦì¹ĺ íķĺê³ł
ĠëĮĢíĨµëł¹ ìĿ´
ìĦ¸ ìĹĲ
ĠìķĮ ì§Ģ
ap ers
Ġê±° ê¸°ìĹĲ
ĠìŀĲ ê¸°ê°Ģ
Ġlearn ed
ĠìĿ´ ê¸°
Ġâ Ī
è ¿
Ġn g
ìŀ¥ ê¸°
ëĬĶëį° ëıĦ
Ġê¸°ë¡Ŀ íĸĪëĭ¤
Ġfe e
Ġm ask
Ġëª¨ ëŀĺ
ĠëĤĺ ìĦł
íķĺìŀĲ ë©´
ĠCol or
Ġt ensor
C F
Ġf ight
Ġall oc
Ġpo or
Ġì£½ ìĿĦ
Ġs izes
Ġë²Ħ ìĦ¯
Ġjob s
pli ance
ĠëĳĲ íĶ¼
ĠE duc
ìķĪ ìĿĢ
s creen
Ġper t
lin ewidth
ĠìĬ¤íĭ° ì»¤
Ġr aw
11 5
Ġê·¸ëŁ° ê°Ģ
es tern
n el
íĳ¸ ëĵľ
proto buf
ĠìĬ¤íĨł ë¦¬
j pg
Ġsc atter
rid ge
Ġchang ing
Ġc ab
ë³Ģ ê²½
Ġr ich
sc ape
ĠìĽĥ ìĿĮ
im pl
que ue
ì¦Ŀ ëªħ
Ġë³´ ìĬµ
ĠĠĠĠĠĠĠĠĠĠĠĠĠĠĠĠ ĠĠĠĠĠĠĠĠ
Ġì» ·
Ġsc ient
add r
Ġêµ¬ íĺĦ
Ġìĭ¶ ëĦ¤ìļĶ
å ĩ
ĠíļĮ ìŀ¥
ìĹ° íķľ
fr ont
Ġëĭ¤ëħĢ ìĺ¨
Ġê³¨ ëĵľ
Ġconstr aints
Ġìłľ ë²ķ
ĠìĥĿê°ģ ìĿĢ
ëĮĢ ìŀ¥
Ġdet ection
ë¡ľìĦľ ìĿĺ
Ġìĺģ ìĽĲ
tribut ion
all oc
ĠíĬ ľ
ê°Ģ ìĻĢ
', '
ìĿ¸ ìĤ¬
ĠìĿ¼ ìĭľ
Ġê¹¨ëģĹ íķľ
å ĭ
Ġcol lege
Ġìľł ìĤ°
ĠìĦ ¹
ĠìĥģëĮĢ ìłģìľ¼ë¡ľ
Ġsu ff
Ġmatch ing
m ove
Ġap pend
ĠL ong
a el
ĠCan ada
or row
ĠìĨĮ ì¤ĳ
ĠìĿ´ëģĮ ìĸ´
ì£¼ ìĭľê³ł
ë°© ì§Ģ
ìĭ¬ ë¦¬
apsh ot
Ġë°Ķ ëĭ·
íģ´ëŀĺ ìĬ¤
ìĨĮ ë¡ľ
Ġexp ansion
ck now
Ġrec ords
ĠíĻķìĿ¸ íķĺê³ł
ĠìĥĿ ì¡´
ìĨį ìĿĺ
Ġw edding
P ORT
ìĿ´ ìļĶ
Ġdynam ics
Ġì²« ë²Īì§¸
ĠD own
gorith ms
ä¸ ī
ìłķ ë¹Ħ
11 4
íĪ¬ ìĬ¤
ĠSund ay
P attern
ĠíĪ¬ ìĸ´
qu are
Ġ$ [
ĠìłĦ ë©´
ë¯¸ ëĤĺ
Ġì»¤ ëĭ¤ëŀĢ
At t
Ġìĥģ ìľĦ
Ġë°© ìĸ´
ĠëĮĢíĨµëł¹ ìĿĢ
íĶ¼ ìĸ¸
ìŀ¥ ë¹Ħ
ĠS um
ĠìĨĮ ìĭĿìĿĦ
íķĺ ëĭµëĭĪëĭ¤
ì§Ħ ìĿĺ
( !
Ġed itor
Ġvert ical
Ġê°ĸ ëĬĶ
tx t
ëłĮ ì§ķ
Ġpart ner
ìĦł ìľ¼ë¡ľ
ĠìĿ¼ë°ĺ ìłģìĿ¸
Ġëª© ìĨĮë¦¬
M T
ĠWh ite
ĠëĥĦìĥĪ ê°Ģ
ê·¼ ì²ĺ
Ġcon vers
Ġê³łë¯¼ ìĿĦ
ê³³ ìĿĦ
ty ped
in f
ĠëĨį ìĹħ
ĠëĶ ľ
ĠìĤ¬ëŀĮ ê³¼
d agger
Ġcom pl
Ġíĥľ ìĸ´ëĤĺ
ĠÂ £
ĠìĿ´ ê±¸
ĠëĲĺ ëıĦë¡Ŀ
Ġê·ľ ìłľ
Ġìĺ¤ íĶ¼ìĬ¤íħĶ
Ġexperim ents
ìļ´ ëĮĢ
ĠëĬĲëĤĮ ìĿĺ
Ġp p
Ġíħ į
ĠëĬĲëģ¼ ê³ł
ë¡Ń ê³ł
ëĵ¤ ë§Į
ĠìķĦìī¬ ìļ´
10 7
Ch annel
press ed
Ġexpl ore
ĠìĿĺ ìĭĿ
Fig ure
ĠëķĮ ë¶ĢíĦ°
ìĦľ ìķ¼
ĠìŁ ģ
ë²ł ìĿ´íĦ°
Ġë¶Ī ë¦¬
ĠìķĦë§Ī ëıĦ
ap es
çĦ ¡
ìĦ¸ íĥģ
Ġshow ed
Ġatt end
LO G
Ġrequest s
Ġteam s
Ġì¤ĳìļĶ íķ©ëĭĪëĭ¤
ì§ĳ ìĿĢ
ì¹ ©
Ġì¹ľêµ¬ ëĵ¤ìĿ´
ĠJes us
ĠM at
ĠS pr
Ġë¨¹ ìĹĪëĬĶëį°
ê°Ģ ë©°
ĠB ase
Ġìłģëĭ¹ íŀĪ
ë¡ľ ë§Ī
Ġì¶Ķì²ľ íķ©ëĭĪëĭ¤
Ġweek end
~~ ^^
en ior
íķ ¸ëĵľ
Ġ ãħĩ
cont in
ĠF oundation
Ġê°Ģ ì§Ī
ìĹĲ ëĦĪì§Ģ
Ġë¯¸ ë§Į
IT E
Ġê²½ ëĤ¨
ì¸µ ìľ¼ë¡ľ
íıī ìłĲ
Ġ ip
P ool
P AR
ì¡° ê°ģ
ang ular
ĠíĶĦ ë¦°
Ġinst ant
ì£¼ ìħĶìĦľ
ĠëĦ ·
. -
< <
ìłģ ìĿĢ
ìĭľ íķľ
ic ations
Ġìĸ´ ë§Ī
ëģĦ ëŁ½
ĠìŀĪ ê¸°ìĹĲ
íĻĪ íİĺìĿ´ì§Ģ
íĪ ¼
Ġìĺ¬ ë¦¼íĶ½
ĠíĿ¬ ìĥĿ
ĠíĶ¼ ë¡ľ
ê±´ ìĿĦ
Ġgu id
Ġs ust
ì²´ íģ¬
go ing
ìĥ Į
Ġstart s
Ġë§İ ìķĺ
ë§¤ ë¬¼
Ġìĵ° ëŁ¬
align ed
Ġn ative
ëŁ¬ ë¸Ķ
ĠìĹ´ ë¦¬ëĬĶ
ëĮĢ ë¦¬
Gener ic
ĠíĨł ë§ĪíĨł
Ġì¢ĭ ëĦ¤ìļĶ
Ġcreat ive
ìĹĲ ê²Ĳ
r ical
Ġproper ly
S ymbol
ì§Ģ ë§Ī
Ġ ãħ¡
ĠëĤ© ë¶Ģ
co q
Ġë¶Ģëĵľ ëŁ¬
ĠëĶĶ ìĬ¤
ĠìĤ¬ìļ© íķĺê¸°
ĠìĨĲ ìĥģ
Ġë°Ķ ê¹¥
Ġë§ĪìĿĮ ìĿĺ
10 9
ĠìĿ´ìļ© íķĺëĬĶ
ìłĳ ìĪĺ
ìĿĦ ìĪĺ
ĠëĮĢ ê·ľëª¨
èĢ ħ
Ġin tr
Ġpol ynomial
Ġcre d
Ġr oute
ĠĠĠĠĠĠĠĠĠĠĠĠĠĠĠĠĠĠĠĠĠĠĠĠĠĠĠĠĠĠĠĠ ĠĠĠĠĠĠĠĠĠĠĠĠĠĠĠĠĠĠĠĠĠĠĠĠĠĠĠĠĠĠĠĠ
ĠíĨµ ìłľ
ìłĢ íŀĪ
ìĻĶ ëįĺ
Ġgr and
Ġì²´ ìľ¡
Ġhelp ing
ĠëĲľ ëĭµëĭĪëĭ¤
ìķ½ ê°Ħ
ê³µ ìĹħ
ë» ¤
Ġê·¸ëłĩ ëĭ¤ê³ł
F ix
Ġë¹Ħ ìĥģ
M ar
Ġem ission
ìĦľ ë¥ĺ
AR Y
Ġìłķë¶Ģ ëĬĶ
Ġìľ Ĺ
ìŀĳ íĴĪ
augh ter
ĠíĻķìĿ¸ íķ´
ĠëĲĺ ìļĶ
Ġê³ł ê¸°ë¥¼
Ġann ual
Ġsymmet ry
ev ents
Ġìĵ° ê¸°
Ġìłľ ìĸ´
Ġë§Į íĻĶ
Ġë¬´ ìĦŃ
ëĤľ íķľ
Ġë°Ķ ëŀĢëĭ¤
ìĦľ êµ¬
ff ect
Ġê·¸ ëĤĺë§Ī
ê²ĥ ìľ¼ë¡ľ
[ :
ĠìĿ¼ë°ĺ ìłģìľ¼ë¡ľ
Ġìĺ¤ëŀĺ ëĲľ
ìĿ¸ ìĥĿ
å¹ ´
Ġë§¤ íĬ¸
ĠìķĬìķĺ ìĬµëĭĪëĭ¤
Ġë§Ĳ íķľ
Ġíİ Į
ĠW ash
Ġf unc
; /
ë¥´ ìĭł
ê·¸ëłĩ ëĭ¤ë©´
êµĲ ì²´
ĠU sing
ì§Ģë°©ë²ķ ìĽĲ
Ġhapp ens
ë§Ī ì¹ĺ
Ġt un
ëĨ Ķ
Ġë¸Ķ ë¡Ŀ
Ġë°ĺìĿĳ ìĿĦ
Ġìļ´ìĺģ íķĺëĬĶ
O D
ĠìķĦ ìĽĥ
Ġread er
Ġgr id
Ġl icense
Not Null
Ġwant s
ë°Ķ íĢ´
h ow
Ġregister ed
Ġsur v
ë¶Ī ìĿĦ
Ġê² ł
Sup port
Acc ount
ìķ½ íĴĪ
ĠìĤ¬ìĭ¤ ìĥģ
ĠAssoci ation
Ġcalcul ated
Ġê°ķ ì¶Ķ
ĠF il
ëĤ´ ëł¤
Ġì¢ĭ ê²łìĬµëĭĪëĭ¤
Ġf arm
ĠC EO
Ġìłģëĭ¹ íķľ
Ġd ir
ê°ľ ìĦł
ĠìĬ¤íħĮ ìĿ´íģ¬
C or
app ly
ĠB oard
n eg
ĠíĺĦ ìĥģ
ĠT R
ì¹ľêµ¬ ê°Ģ
ĠP ower
Ġê¸° ëıħêµĲ
ìĭľ ìłĪ
N T
Ġì°½ ì¶ľ
ëĵ± ìĹĲ
ìŀĲ ë¦¬ìĹĲ
ĠCoun cil
ëĺĲ ëĬĶ
key word
Ġë°¤ ìĹĲ
ìħ¨ ëįĺ
Ġëª¨ìĬµ ìĿĢ
ë§ĮìĽĲ ìĿĦ
Ġinit i
//////////////// ////////////////
ìĹ° ìĿĦ
c ases
ìĹĪ ëĬĶëį°ìļĶ
Ġë°ĽìķĦ ìķ¼
ĠëĮĢ ëŀµ
ĠìĤ¬ìĭ¤ ìĿ´
B it
ĠëĮ Ħ
as tr
ìĭľ ìĽĲ
In it
It ems
ìĪĺ íķĻ
ĠëĿ¼ ë©´
æ³ ķ
Ġca used
ê²¨ ìĦľ
ì¹ µ
_{ (
re me
ĠëĬĲê¼ Ī
ĠëĦĺ ì¹ĺëĬĶ
lang uage
íķ¨ ìĿĢ
pro perties
12 7
ĠìŀĶ ëľ©
ĠB ro
Ġex port
Ġë¬´ìĹĩ ìĿ´
ê¹Į ìĬ¤
Ġë°ķ ìĬ¤
íĸĪ ìĸ´
ĠS aturday
êµ° ëį°
Ġë§Ī ìĤ¬ì§Ģ
ĠìĤ¬ìļ© íķĺì§Ģ
ĠëĤĺ ìĿ´ê°Ģ
Ġmet al
ĠìĹ° ìķł
ê³¼ ëª©
ĠìĤ¼ ê²¹ìĤ´
h av
=" "
Ġjav ax
c over
ĠìĹ° ë§Ĳ
Ġserv ed
ìĽĲ ë£¸
ĠìķĪ ìľ¼ë¡ľ
S ee
ìĤ¬ë¬´ ìĨĮ
Ġë°ĳ ìĹĲ
Ġl ic
] :
ĠìĥģíĴĪ ìľ¼ë¡ľ
ĠëıĮ íĮĮ
ìĿ¼ ì°¨
net work
ĠìĿ´ë¦Ħ ìľ¼ë¡ľ
ë¬´ ì§Ģ
om a
sub figure
ĠìĿ´ìļ© íķ´ìĦľ
Ġë®¤ ì§Ģì»¬
Ġë²Ħ ë¦¬ê³ł
Ġphot ograph
ëĤ´ ìĹĲ
ĠíķĦ ë¦Ħ
Ġax is
Ġcover age
ĠìķĮëł¤ ì¡Įëĭ¤
Ġcal c
ic an
() {
ìŀĲ ëĤĺ
ë¥ µ
ìĹ¬ ê¸°ëĬĶ
Ġë¹Ħ ë¡Ŀ
ë§ŀ ì¶¤
A m
ë·° íĭ°
ĠC ap
ĠH ence
_ (
Ġeffic iency
Ġì¦Ŀ ê¶Į
H ER
ĠB el
ì»¤ ë²Ħ
Ġë¨¸ ë¦¬ê°Ģ
Ġì°¨ëŁī ìĿĦ
w edge
Ġbu nd
un ately
ĠìķĬìķĺ ëįĺ
Ġëª¨ ìľ¼
ĠíĻĶ ë©´
ĠA nt
Ġê°ĢëĬ¥ íķĺë©°
ìķĪ ìľ¼ë¡ľ
Ġinst itut
ĠMore over
Ġíķľë²Ī ìĹĲ
I V
Ġdynam ic
ĠAnd roid
ĠìĮ Ī
Vari able
Ġì¶© ì¡±
C G
ìŀĲ ì£¼
s ave
ĠìŀĲ ê¸Ī
ëĮĢ ì±ħ
ĠìĤ¬ëŀĳ ìĿĺ
ĠìĤ´ ëł¤
Ġchalleng es
U V
Ġcorrespon d
ĠPh il
ìĹ° ìĿ´
ĠìĤ´ìķĦ ê°ĢëĬĶ
im it
Ġìĭľ ê³Ħ
Ġë¶Ī ìĸ´
Ġìĥ ´íĳ¸
Ġapprox imately
ĠìĿ´ ëĿ¼ëĬĶ
Ġd ual
ê³ł ëıĦ
ĠB ecause
Ġì»¨ ìħī
ë¨¹ ê¸°
Ġopen ing
ëĭ¤ìĿĮ ìĹĲ
ĠìĤ¬ë¬´ ìĭ¤
Ġì¢ĭ ì§Ģë§Į
ìłĦ íĺķ
ë´¤ ìĬµëĭĪëĭ¤
ë¶Ħ ìłķëıĦ
ìĽ °
U ID
Ġdel ay
ì§Ģ ëĿ¼
anc el
Select or
Ġì§Ī ë¬¸ìĹĲ
Ġì²Ń ìĻĢ
Ġoption al
Ġv ict
Ġcard s
ê²° ìĿĦ
ë§ī ìĿ´
ĠìłĦ íĺķ
ag o
Ġin come
ĠìĦł ìĸ¸
Ġë³´ ëĤ¸
ë§ģ ìĿĦ
Ġíģ¬ ëĭ¤
Ġ$ -
Ġì¡°ê¸Ī ìĿĢ
33 3
ĠìĬ¤ íĤ¬
íħĮ ìĿ¸
Ġëĵ¤ìĸ´ ìĺ¤ëĬĶ
Ġs and
ìŀĲ ì²´
ëŁ¼ íĶĦ
L ock
ĠD el
Ġlay out
íı¬ ë¥´
Ġfeed back
Ġì¤ĳ ìĹĲìĦľëıĦ
Ġë°ĺ ê°Ģ
ĉĉĉ Ċ
Ġìĸ¼êµ´ ìĹĲ
) ).
Ġc m
Ġcy cle
ĠìĿ¸ìĬ¤íĥĢ ê·¸ëŀ¨
ç Ī
Ġmeasure ments
' \
Ġre tr
ĠFe bruary
ĠìķĪ ê³ł
Ġadv anced
ê°ĢëĬ¥ íķľ
ëĿ¼ìĿ¸ ëĵľ
Ġë¿Į ë¦¬
ĠìĿ¼ ìĸ´ëĤľ
ĠìķĮ ìķĦìĦľ
ĠíĪ¬ íĳľ
Ġbuild er
Ġsay ing
Ġreview s
Ġì´ī ì§Ħ
ì§ĳ ìľ¼ë¡ľ
ìķĦ ìĿ´ê°Ģ
ê¹Į ì§Ģë§Į
Ġëª» íķľëĭ¤
ĠëĤ´ ë¦°
ç §
ĠP M
ê±° ë¦¬ê°Ģ
ĠìļĶì¦ĺ ìĿĢ
Ġident ified
ĠW ell
Ġìĭ¬ íĶĮ
Ġs weet
Ġf ish
íĮħ ìĿĦ
Ġd oll
ĠëĨĴ ìĹ¬
ĠëĪĦ ìĽĮ
OO L
ë¦¼ ìĿĦ
Ġin fr
ide os
ĠëĮĢ íķĻêµĲ
ìĺģ ìĸĳ
Ġëĵ± ìĹĲìĦľ
Ġb oost
íĮ Ŀ
P erm
ê³Ħ ëŀĢ
Ġìķ½ê°Ħ ìĿĺ
Ġë¶Ģ ëŁ¬
éĩ ĳ
) ">
. __
ëĲĺ ìĦľ
Ġëĥī ëıĻ
ĠíĸĪëĭ¤ ê³ł
ë§Ľ ìĿĢ
ìĹ° ëĿ½
ĠìĿĺ ì§Ģ
Ġdist inct
sh op
2 30
Ġa mb
ê¸ ĢìĿ´
ìĹĲìĸ´ ì»¨
ìļ° ê°Ģ
Ġj o
Ġê°Ģ ê³µ
Ġë³´ ì¡´
Ġrem ote
ì ŃĪ
ĠíĶ¼ ìķĦëħ¸
Ġë³´ ìĻĦ
Ġë°Ķ ìĤŃ
ì£¼ ìĭľëĬĶ
ëĵľ ëĿ¼
", "
ĠíĽĮë¥Ń íķľ
ìļ° ë©´
Ġdes ired
Ġìĭľìŀĳ íķĺëĬĶ
ìķĦìĿ´ íı°
ĠL ife
ë¨¹ ìĸ´
Ġë§Įëĵ¤ ìĹĪëĭ¤
ìĵ° ê³ł
ĠëĤĺìĻĶ ìĸ´ìļĶ
") ]
id ers
ĠìĨį ëıĦ
Ġpre par
Se cond
ðŁ ¤
for ward
è «
Ġclass ical
Ġsur vey
ĠìķĦ ëĭĺ
in v
æ Ħ
sp ring
ĠN ode
Ġë¬´ ìĹŃ
= >
Ġìĭł ë¬¸
ĠìĨĮ íĴĪ
âĶ Ĥ
ig er
Ġìłĳ ì¢ħ
ĠOn ly
ĠëĤĺíĥĢ ëĤ¬
S ome
ĠëĤľ ëĭ¤
Ġê°ķ íķĺê²Į
RE E
ìķ¼ ë§Ĳë¡ľ
Ġì¹ĺ ê³ł
ĠëĮĢ ìŀ¥
ĠV AL
tr ack
Ġst able
Ġgalax ies
um an
Ġìłķ ì²´
Ġh ar
Ġa head
S ecurity
ì¼ĢìĿ´ ìĬ¤
Ġdoc uments
Ġn ation
Ġbound ed
Ġwait ing
ĠíļĮ ìłĦ
Ġìĸ´ì°Į ëĤĺ
ĠM ain
iv il
ĠíĿĲ ë¥´ëĬĶ
ĠëĮĢ ìĦł
F loat
des c
ĠëĳĲ ê°ľ
ëĭ¬ ëĿ¼
ĠíĻ© ê¸Ī
Ġì¿ł íı°
Ġëį ¥
M ember
Ġë§İ ìĿĦ
íĿ ł
Ġëĭ¨ë°± ì§Ī
Ġintrodu ce
Ã Ĺ
Ġp ow
ĠìľłìĿ¼ íķľ
ĠêµŃ íĨł
b its
íķĺ ìĿĺ
Ġê¸°ë³¸ ìłģìĿ¸
Ġ- _-
Ġë°Ľ ìķĦìĦľ
ĠAl though
ĠìĤ¬ìĿ´ ìĿĺ
L ook
tr ict
het ic
Ġìĭłê²½ ìĿĦ
ê³ł ëĵ±íķĻêµĲ
Ġvert ices
ing u
Ġë°ĽìķĦ ëĵ¤ìĿ´
Ġêµ¬ì²´ ìłģìĿ¸
ĠB ig
Ġê²ĮìŀĦ ìĿĦ
Ġê°Ģ ìĬ¤
íĮ¨ ìħĺ
Ġ ãħľ
Ġë°ĺ ëł¤
ĠìĹ¬ ê¸°ëĬĶ
íı¬ íĦ°
Ġapprox imation
ĠìĤ´íİ´ ë³´ë©´
Ġpl ot
Ġë¶Ģ ë¬¸
Ġfra ction
ĠíķĺëĤĺ ëĭĺìĿĦ
ìŀĲ ìĭłìĿĺ
Ġh undred
Ġë³Ģ ëıĻ
ĠëĦĪ ë¥¼
~~ ~
ĠN E
Ġ> >
ĠìĦ± ë¶ĦìĿ´
' _
th read
Ġì¹¨ ëĮĢ
P e
ĠíĨ ¤
Ġw aves
Ġìŀħ ìŀ¥ìĿĦ
íĪ °
ìĿ´ ìłĦ
Se ction
Ġare n
ĠìķĦëĭĪ ìĹĪëĭ¤
ĠìĤ´ ìĿ´
ĠìĥĮ ëĵľ
empl ates
ĠìłķëıĦ ê°Ģ
íĢ ĺ
Ġíļ Ł
Reg ister
ìĻĢ ìĿ´
Ġë°° ê³ł
Ġocc as
ëĤ¨ ìĿĢ
ĠìĿ´ ëĵ¤ìĿ´
ìŀĲ ëıĻ
ĠìĹŃìĭľ ëĤĺ
ĠP aul
Ġcons ists
ĠDav id
Ġconsider ing
ĠíĹ¤ ëĵľ
ĠëĲĺ ëĭĪ
Ġê±¸ ë¦°
Ġê°ľ ë°©
ìĬ¹ ìĿĦ
ĠëĮĢ ì±ħ
pos s
ìĪĺ ì§Ģ
Ġkn ew
Ġë°Ķ ë¥´
Ġê³ł êµ¬ë§Ī
ott ed
Ġì§Ģ ìĸ´
Ġp y
it ors
ĠAr ch
ĠìºĲ ëĤĺëĭ¤
ĠìĿ´ë²Ī ìĹĲëĬĶ
g reen
Ġloc ations
ê·Ģ ìĹ¬
ãĤ Ĭ
Ġl ab
In ternal
Ġbehav i
assert Equal
ĠĠĠĠĠĠĠĠĠĠĠĠĠĠĠĠ ĠĠĠĠĠĠ
íĿ °
F R
ential s
H R
M edia
ĠëıĦ ë³´
un te
M an
ĠìĿ´ ëĿ¼ê³ł
Ġíķĺ ê±°ëĤĺ
Ġb ag
ê·¸ ëĿ¼
íķĻ ê¸°
ëĮĢ íĻĶ
ìĪĺ ìłķ
ìļ© ëıĦ
ĠìĿ´íķ´ ê°Ģ
w p
ĠìĭĿ ìľ¼ë¡ľ
ìłĲ ìĿĺ
ë ĺ¥
Ġíİ¸ íķľ
Ġpol ar
è¡ Į
ëĳĺ ëŁ¬
Ġë¹¼ ê³ł
Ġíķ´ ì£¼ê³ł
ĠD B
Ġëª©íĳľ ë¡ľ
Ġìĸµ ìłľ
oll ary
Ġì°¾ ìĿĢ
Ġf ant
Ġë» Ĺ
ad ing
ĠëĤ´ ìĹĲìĦľ
Ġêµ¬ ìĦĿ
Ġë´¤ ëĬĶëį°
Ġsatisf ies
ë¥´ íģ¬
Ġestim ated
ell ig
ax is
f ix
Aut h
Fl ags
S QL
ĠëĤĺìĺ¤ ë©´
Ġeffort s
) _
ìķĦ ëĵ¤
ĠR el
ĠìļĶ ìĿ¸
Ġch urch
ë¦¬ ì½ĺ
Ġì´Ī ë¡Ŀ
Ġë¶ĢëĵľëŁ½ ê³ł
ãģ ı
Ġê° ĵ
Ġmoment um
Ġappro aches
Ġpro ceed
å¤ ©
18 8
"> &
ìĭł íķľ
Ġ er
The y
æ ²
ìĦ¸ ì¢ħ
ëĤł ìĶ¨
Ġê³ł íĸ¥
ly ph
ëª¬ ëĵľ
ĠF alse
ĠëĨĴ ëĭ¤
select ed
Ġëĭ¬ ëĿ¼ê³ł
Ġìı ł
Ġìĥģ ìŀ¥
ëķĮ ëıĦ
ĠìĹĲ ìĬ¤
ìĹĪ ìĿĮ
drop down
ëĦ¤ ìļ©
A v
ĠP RO
ĠìĿ¸ êµ¬
-> _
ìľĦ ìĻĢ
Ġì¢ĭìķĦ íķ´ìĦľ
ìŀĲ ë¦¬ë¥¼
ìĿ¸ íĬ¸ë¥¼
ĠëĦ Į
ines e
ëł¤ ìļĶ
Ġëħ¼ ëŀĢ
ĠëĲĺ ëĬĶëį°ìļĶ
Ġëĭ¤ë¥´ ëĭ¤
Ġë¨¹ ì§Ģ
ĠM ult
Ph one
Ġmove ment
Ġë§ĽìŀĪ ìĹĪìĸ´ìļĶ
M R
ĠA mazon
Ġì½Ķ ëĦĪ
pect ive
ĠëıĦ ì¿Ħ
ber t
n ames
Ġop in
Ġìĭ¶ìĿĢ ëį°
Ġë§Įëĵ¤ ìĸ´ìĦľ
íķĺëĬĶëį° ìļĶ
ĠV ersion
ĠíĮĮ ëŀĢ
ìĿ´ ë¯Ģë¡ľ
ëłĪìĿ´ ìħĺ
Ġen abled
Ġbr ain
íķ´ë³´ ë©´
ir ation
ĠìŀĪìľ¼ ìĭł
Ġin valid
Ġpair s
Ġb ow
reed om
ĠM ax
Ġë³µ ê·Ģ
ĠìķĦìĿ´ ëĵ¤ìĿĢ
ëł¸ ìĿĦ
Ġla unch
Ġp or
Ġëĭ¹ìĭł ìĿĢ
ĠìĹĨ ê²Į
Ġper haps
Ġë³¸ê²© ìłģìľ¼ë¡ľ
ëĿ¼ìĿ´ íĶĦ
Ġì¶ľ ìĤ°
Ġfurn iture
æ ĥ
ë¥´ ëª¬
Ġhelp ed
ç ¦
Ġtr uth
c b
Ġíķ¨ê»ĺ íķĺëĬĶ
ãĤ ĵ
ìĹŃ ìĤ¬
Ġauth ors
ëĤł ìĶ¨ê°Ģ
Ġì±ħ ìŀĦìĿĦ
ëĤ´ ë¶Ģ
Ġì°½ ìĽĲ
_{ {\
Ġtr ained
sec urity
ì¤ĺ ìļĶ
íĻĶ ë¬¼
ĠOff ice
Ġìłķ ìĭĿ
Ġm o
ĠAustral ia
ìĭŃ ëĭĪê¹Į
Ġbed room
ìĿĮ ìĹĲ
Ġwe ar
ĠPro position
Ġt err
ĠìĤ¬ìļ© íķĺë©´
Ġê±° ëĿ¼ê³ł
ĠìĻ¸ êµĲ
Ġr ace
Ġì§Ģ ë£¨
ĠEng ine
st o
Ġìĸ´ ìļ°ëŁ¬
cont roller
ìĹĪ ëĭµëĭĪëĭ¤
ë§¤ íĬ¸
ĠëĿ¼ìĿ´ ë¸Į
Ġíķĺ ëĭĪê¹Į
Ġset t
ĠF I
Ġê¸° ë¶Ģ
ĠêµŃ íļĮìĿĺ
Ġê²°ê³¼ ëĬĶ
Ġê°Ģ ìĦ±ë¹Ħ
ĠìĿ´ ëĵ¤ìĿĺ
Ġë§ĳ ìĿĢ
ìĹ° ìĿĺ
ess ions
ê¸° ëķĮë¬¸ìĹĲ
ĠS BS
k w
íĭ Ī
ëª¨ ì§ĳ
SI ZE
ë³´ ëĿ¼
est ival
p ool
ê²Ģ ìĥī
Ġì²ł íķĻ
ëĭĺê»ĺìĦľ ëĬĶ
ìķĦ ë¬´ë¦¬
ĠëĤł ìĿĢ
ĠO ption
Ġbr anch
ĠìĿ´ ìłĦìĹĲ
ê±´ ê°Ģ
Ġstud ied
k ens
j ob
ĠI d
ĠìĤ¬ë¡ľ ìŀ¡
Ġëļľ ê»ĳ
ĠìĪĺëıĦ ê¶Į
######## ########
Log ger
Ġë³´ ëĥĪ
Ġì£¼ ê°Ģ
Ġë¶Ģ íĻľ
ĠS un
Ġêµ¬ ìĨį
Ġê·¸ ëłĪìĿ´
ìĥĿ ëªħ
ĠëłĪ ìĭľíĶ¼
ê²ł ìĬµëĭĪê¹Į
Ġcl ust
ê¸° ë¶Ģ
Y our
ev en
F S
in ations
ĠëĬ¥ ëł¥ìĿ´
ëł¥ ëıĦ
VER SION
ĠìĦ¤ ëłĪ
Ġå ¤
Ġre ct
Ġìŀħ ìĹĲ
ë²Ħ íĦ°
Pr int
k et
Ġê°Ŀ ê´Ģ
Ġì¡° ê¸°
Ġform al
ìĬ¤ íĶĦ
ê·¼ ë¬´
plic ations
d irect
ĠìĨį ìľ¼ë¡ľ
ìĺģ ìĿ´
Ðµ Ð
Ġë³´ ìŀĲ
íĸĪ ëĦ¤ìļĶ
Ġest ate
Ġno vel
12 1
c am
ĠìķĦ ìłĢìĶ¨
ê·¸ëŁ¬ ë©´
Ġê·¸ ìĹĲê²Į
Ġê°Ĳ ìłķìĿĦ
ìľł ìĤ°
Ġìķ Īëĭ¤
Ġíĸ¥ íķľ
ìĬ¤ëŁ¬ ìĽĮ
Ġk m
ĠìŀĪëĬĶ ê°Ģ
âĺħâĺħ âĺħ
ĠìŀĪìĿĦ ê¹ĮìļĶ
Ġkeep ing
íĶ¼ ìŀĲ
ĠInd ian
ĠPro f
Ñ ĭ
Ġc it
Ġê³³ ìĿ´ëĭ¤
Ġch art
ĠëłĪ ëª¬
con struct
fl ags
ìĿ´ ê²ĥ
ĠìŀĲ ë¦¬ê°Ģ
ven ue
ì£¼ ì§Ģ
íĨł ë¡Ŀ
equ ality
print f
; )
ã Ī
ë³´ ìķĺëĭ¤
ê°Ģ ìłķ
t otal
Ġsom ew
T ABLE
Ġst ored
Ġor ient
ig ration
Ġun known
ĠíĨ¡ íĨ¡
ìŀ¥ ì¹ĺ
ĠC E
ë Ľ°
Ġver ify
ìĸ´ ë¨¸ëĭĪ
Ġìĭ¬ ìŀ¥
() ));
ëĳĲ ë¶Ģ
w ait
ìĥ ĲëŁ¬ëĵľ
íĮ ģ
k in
ĠìĺĪ ìłĦìĹĲ
iz able
ëĮĢ êµĲ
s ur
ì§Ģ ëĬ¥
=" @
Ġë¹Ħ ìľ¨
Ġìĭ¬ê°ģ íķľ
Ġinter val
ĠP lay
Ġexper ts
íĮ ½
ëĤ´ ìĹŃ
Ġcall ing
Ġê³µ ì§Ģ
ĠìĬ¤ íĬľëĶĶìĺ¤
ar ation
ìķĦìĿ´ ëĵ¤ìĿ´
ĠíĮ¨ ìĬ¤
ë Įĵê¸Ģ
ĠìłĦ ëħĦ
ĠF ield
Ġnumer ical
on a
Ġstrateg ies
Ġdevelop ing
ëĤ´ ìĿ¼
Ġì¢ħë¥ĺ ìĿĺ
ìĻ¸ ìĦł
B E
Iter ator
Ġprep ared
ĠìĤ¬ ìŀ¥ëĭĺ
ëįĺ ê°Ģ
ĠìŀĲìľł ë¡Ńê²Į
ĠëĮĢíķ´ìĦľ ëıĦ
ĠëĲĺìĸ´ ìķ¼
Ġë§Ī ë¦¬
Ġë² ¼
ĠìĦł ìĤ¬
th rows
Ġconf irm
Ġë¦¬ ìĸ¼
Ġ ×
Ġê¸° ìĽĲ
ĠD ev
Ġë¶ĢëĵľëŁ½ ê²Į
c ape
ĠìķĮìķĦ ìķ¼
Ġìĭľ ê³¨
íķĦ ë¦Ħ
ãģ ĵ
ë¦¬ ìĸ¼
Ġë¦¬ ê·¸
ê¸Ģ ìĿĦ
ĠìĹħ ê·¸ëłĪìĿ´
ffic ients
ĠF ind
ìĭ¤ ìłľ
Ġke pt
ëĶĶ ìķĦ
or ation
N C
v an
Ġg arden
E q
åľ ĭ
Ġw oman
Ġallow ing
ëĵľ ëŁ¬
Ġê°Ħëĭ¨ íŀĪ
ĠìķĦ ëģ¼
ĠìĤ¬ì§Ħ ëıĦ
ri z
íı¬ ìĬ¤íĮħ
ìĤ¬ ìłĦ
Re ce
Ġì½Ķ ëĶĶ
ĠNew s
pr imary
Ġê³¼ ëª©
r b
ĠìĻĦë²½ íķĺê²Į
Ġing red
Ġm ixed
Ġd ie
ĠëĦĪ ëĬĶ
Ġê¼¼ê¼¼ íŀĪ
ĠëĳĲ ê°Ģì§Ģ
ê³¼ ëıĦ
ĠìµľìĨĮ íĻĶ
u zz
ĠëĲĺìĸ´ ìŀĪ
Ġì¶ķ ìłľ
ĠìĽĲ íĻľ
ĠìĤ Ĳ
Ġêµ¬ ë¦Ħ
iter ator
big g
Ġìĸ´ ë¦´
ĠM C
sub s
ĠíĮ ģ
) [
ĠFl or
omorph ism
Ġded icated
% (
am pling
Ġf ashion
ê¹Į ë´Ĳ
pict ure
)) );
ìĸµ ìĽĲìĿĦ
ĠëĳĲ ê»ĺ
B B
Ġìĸ» ìĿĢ
Ġcon serv
ìĹ° ê¸Ī
ĠInst itute
Ġupd ates
ĠM al
F ound
ĠêµŃ ë¬¼
ĠC R
ĠìŀĦ ìĥģ
ĠìĪĺ ë©´
Trans form
Ġíĥĳ ìĬ¹
ìłĦ ì£¼
pro file
or ter
ìĤ¬ëŀĮ ëĵ¤ìĿ´
Ġê¿Ī ê¾¸
Ġíİ¸ìķĪ íķĺê²Į
ëľ °
ĠëĮĢ íĻĶë¥¼
ìĨĶì§ģ íŀĪ
Ġíı¬ ëıĦ
Ġse a
ĠG overn
ëĮĢíķľ ë¯¼êµŃ
ĠíĺľíĥĿ ìĿĦ
Run time
assert Equals
ĠíķŃ ëª©
ê± Ģ
Ġë¬´ ìĤ¬
Ġìĺ¤ ì§Ģ
íĬ¸ ë¡¤
ä» ¥
ĠìħĢ íĶĦ
Ġoper ating
Ġun ivers
param eters
ëĴ Ģ
ëĤĺ ë´ĲìļĶ
Ġì¶ľ ìŀħ
ĠëĤ´ ëĨĵ
ì²´ ê³Ħ
Ġì°¨ ìĿ´ë¥¼
Ġcan cer
), \
il ation
ac ro
Ġíķĺ ëĵľ
Ġ\ (
Ġëĭ¤ ì§Ĳ
ê³¼ ìĻ¸
ĠíĶĦ ëĿ¼ìĿ´
27 0
ë²ķ ìľ¼ë¡ľ
Ġì§ĢëĤĺ ë©´
Ġë°ĶìĿ´ ëŁ¬ìĬ¤
ì¹¨ ìĿĦ
Ġexperi ences
Ġscal ar
F unc
ĠëŁ Ń
Fil es
Ġìļ° ìĪĺíķľ
ëĮĢ íĺķ
M atrix
P ER
í īģ
íķĺëĬĶ ì§Ģ
Pl ugin
ĠìĿĺ íķĺë©´
Ġjour ney
ur er
Ġë²ķ ìĿ¸
Ġë¶Ģ ì§Ģ
comm od
Ġë¹Ľ ìĿĦ
ìĬ¤íĨł ë¦¬
ĠI R
íĮ į
Ġë§Į ëĳĲ
ĠìĦ± ì·¨
ìĿ´ìĹĪ ì§Ģë§Į
Ġrec ip
H S
b el
++ ;
Ġt al
Ġrel atively
By Id
l ig
ê¸° ìĸµ
ìĹĦë§Ī ê°Ģ
Ġabs or
Ġtrans formation
ĠìĽĲ ìĿ¸ìĿ´
ik i
ĠìĹŃ ìĤ¬ë¥¼
ë°ĺ ëıĦ
ĠìĬµ ê´Ģ
Ġë§Ī ì¹ľ
Ġë³¸ ìĿ¸ìĿĺ
ĠìĹ° ê·¹
íĨµ ìĿ´
Ġtyp ical
ëł¤ ìķ¼
ì İĦ
ë°Ķ ìľĦ
Ġsc ene
ë¯¼ ìĿ´
ìĺ¬ ëĿ¼
not ations
Ġinteg ral
Ã ¼
ĠìĿ´ìĸ´ ì§ĢëĬĶ
Ġ} \
Ġë¶Ģëĭ´ ìĿ´
Ġstandard s
ĠC re
ìĸ´ ì§ĢëĬĶ
Ġì£¼ë¬¸ íķľ
ëĵ¤ìĹĲê²Į ëĬĶ
m aster
Ġ ï½
Ġ| \
ip al
U sing
Ġo dd
Ġannoun ced
íģ¬ ë¦¬íĬ¸
âĹ Ī
ĠB ack
Ġhelp ful
Ġì° ¢
Ġë§Į ìĽĲ
Ġì£¼ ìłľ
ìĤ´ ì§Ŀ
Ġê¸įìłķ ìłģìĿ¸
ë§Į ìľ¼ë¡ľëıĦ
ĠìŀĪëĭ¤ ê°Ģ
ëĭ¨ ìľĦ
ĠëĶĶ ìłĢíĬ¸
ê±° ëĿ¼ê³ł
Ġpol y
ĠìĨĮ ê³łê¸°
ĠS pec
Ġexpl ain
Ġìĭľìŀĳ ìľ¼ë¡ľ
Ñ Į
ĠëĨĴ ê²Į
ĠS ur
ì²´ ìĿ¸
Ġë¹Ħ ì£¼ìĸ¼
Ġf n
ĠìķĦ íĬ¸
ĠA v
Ġë°° ìĽĮ
ìĹ° ìĪĺ
F IG
m c
Ġê²½ìłľ ìłģ
ĠC G
A V
ëĵ± íı¬
ĠUp date
Ġfunction al
ë¡ł ìĿĦ
å £
ëĶĶ ì§ĢíĦ¸
âĪĻ âĪĻ
Ġlook ed
ĠíĥĢ ê²½
ĠS y
Ġê°Ģê²© ìľ¼ë¡ľ
Ġt ips
Ġë§Ī ìĭľëĬĶ
Ġdec ay
J S
Ġcho ices
am ental
Ġm ach
íķľ ìŀĶ
ë¬´ìĹĩ ë³´ëĭ¤
ĠíĬ¸ ìľĦ
Ġê²ĥ ëĵ¤
ì£¼ ëıĦ
ê³¡ ëıĻ
ĠD em
Ġcol our
Ġë°Ķ ìģľ
ĠëĪĪ ê¸¸ìĿĦ
ëł¸ ìĸ´ìļĶ
Ġcou pling
ĠìĹ¬ íĺ¸ìĻĢ
N e
ë² ³
ĠìľĦ ì£¼ë¡ľ
Ġê³µ ìĽĲ
ur able
ĠìĭĿ íĥģ
ìĦ¸ ìĿ´
ìĤ° íĸī
Ġì»¤íĶ¼ ë¥¼
ìĹĨ ìĿĮ
ĠìĿĢ ìĿĢ
íĨµ íķ©
S G
ĉ ĠĠĠĠĠĠĠ
Ġcorrespon ds
ch annel
Ġpattern s
ìĿ´ ìłł
Ġmin imal
ãħ ı
pl an
l at
Ġtre es
Ġìĥģ ìĹħ
ìŀ¬ ìĿĺ
Ġê°Ĳ íĥĦ
ĠìłĢíĿ¬ ëĬĶ
ĠS P
Ġaccur ate
ìĹĪ ì£ł
Ġwrit er
ĠìĦ¸ ìĿ¼
Po inter
ĠJ ournal
Ġdisc ount
Ġexperim ental
Ġe ight
ë§Ľ ìĿĦ
Ġê°Ħ ìŀ¥
ê°Ĳ ìŀĲ
Ġìĺ¬ ë¦´
ì½Ķ íĮħ
At tributes
ìĨ ¥
Ġì£¼ ìłľë¡ľ
Ġìķķ ë°ķ
íķ´ ì¡Į
ĠìĥĿ ìĥĿ
Ġsupport s
Ġsim ulation
Ġë°± ìĦ±
Ġfocus ed
Ġsuccessful ly
Ġê°ķ ìłľ
Ġë¬¼ ëŁ¬
ĠY ear
ĠìķĦìĿ´ ìĬ¤
are a
è ģ
() ).
y a
Ġincre d
a ver
child ren
Ġman ner
ìĺĪ ìĪĺ
Ġfriend ly
Ġíĥģ ìĽĶ
Ġìļ© ìĿ¸
ĠìĹ° ê°Ħ
ex ists
Ġëĭ¤ ìĿ´ìĸ´
ĠìķĬ ëĤĺìļĶ
ìķĦì¹¨ ìĹĲ
ì£¼ ëħĦ
ĠìĨĲ íķ´
Ġsp atial
P ATH
ĠìļĶ ëłĩê²Į
Ġì°¸ ìľ¼ë¡ľ
cl aim
Ġë¨¸ ë¦¿
ìĻ¼ ìª½
Ġcomput ed
ĠëĬ¦ ìĿĢ
ë¦¬ ëĭ¤
Ġìłģ ìĸ´ëıĦ
Ġorgan izations
Ġëª» íķĺê²Į
Ġenc oding
ì¤ĳ ìĿĺ
ìĿ´ ìĸ´ìĦľ
ìłĢ ëł´
Con str
Ġëĵ¤ ìĹĪìĸ´ìļĶ
ĠìĤ¬ìĭ¤ ìĿĢ
Ġtr ail
ĠëĮĢ ë³Ģ
Ġchem ical
ìķĦ ëĤ´
A c
ĠêµĲ ìĪĺëĬĶ
Ġlay ers
ĠìĪĻ ë°ķ
ìŀł ìĭľ
Ġf at
Ġcont roller
âĹ ĩ
ĠëĤ¨ ëĬĶ
Ġmil es
ëĤ ļ
ë¶Ģ ë¶Ģ
ĠìĦł ê³ł
Ġë§¤ ë¬¼
Ġì§Ģê¸Ī ìĿĺ
ë³ĳ ìĿĦ
Ġë¶Ħëĵ¤ ê»ĺ
Aut o
j query
Ġimport ance
Ġth reat
ĠëĬĲëģ¼ ê²Į
Ġìľł ìĤ¬
Ġìĭ¶ ìĹĪëĭ¤
ĠëķĮ ìĿĺ
Ġsign ature
è Ī
ĠëĦĺ ìĸ´ìĦľ
Ġê°Ķëĭ¤ ê°Ģ
Ġmod ified
ĊĊĊĊ ĊĊĊĊ
Ġíĺķíĥľ ìĿĺ
Ġadv ance
Ġë³´ìľł íķĺê³ł
y es
ì¢ĭ ê²Į
ĠAp ple
Ġëį° ìĿ´
ag on
ê·¼ ë¡ľ
ë¹Ħ íĥĢë¯¼
ëĮ ģ
ê·¸ ìĿĺ
~ ?
íĹĪ ê°Ģ
7 50
ë ®
íĺ¸ ìĹĲ
_ ^
Ġc raft
ë²Ħ ëł¸ëĭ¤
Ġê²½ ê¸°ë¥¼
ĠìĿ´ë£¨ìĸ´ ì§Ħ
íĬ¸ ìĻĢ
Ġê½¤ ëĤĺ
ĠìĿ´ ëª¨
ê²½ ìŁģ
Ġcould n
íľ ł
Ġêµ¬ìĦ± ëĲľ
I VE
æ ł
Ġde bug
=" ">
Prot ocol
ĠìĤ¬ìļ© ìĿ´
ìĵ ´
ìĭ¬ ìĤ¬
Ġë§Ĳ íķ©ëĭĪëĭ¤
ĠëĤĺ ìĿĢ
ì°½ ìĽĲ
P anel
ìł¸ ìķ¼
Ġì²ĺìĿĮ ë¶ĢíĦ°
Ġê°Ģë¥´ ì³Ĳ
it z
S cale
Ġê°ĸì¶Ķ ê³ł
Ġestabl ish
ĠëĽ° ìĸ´ëĤĺ
s ol
Con f
Ġë°° ë¥¼
ìłķ íĻķ
Ġëªħ ìĿ´
Ġcre ation
ĠìĦ¼ ìĬ¤
Ġcor ner
Ġcomp re
i en
Ġìľ¡ ìķĦ
Ġspec ies
Ġsp an
os itory
Ġexc ited
Ġë°ĽìķĦ ë³´ìĦ¸ìļĶ
ìķŀ ìĦľ
Ġë§ Īëĭ¤
se y
Ġpe ace
ĠH ead
B P
ìķĮ ê³ł
Ġíķľ ê°ķ
Lay er
Ġëŀ ĺ
Ġêµ µ
l ers
Ġposition s
ĠëĤĺìĺ¤ ì§Ģ
com ponents
ĠB ank
ĠíĻķìĭ¤ íķľ
S Y
éģ ĵ
ĠìĿ¸ ìĤ¬ë¥¼
Ġb illion
Ġsim ulations
Ġë¬´ ê´Ģ
ĠìŀĲìĭł ìĹĲê²Į
Ġë°ĶëĿ¼ ë³´ëĬĶ
ĠìĿĮìķħ ìĿĦ
Ġê·¸ëłĩ ê³ł
Ad apter
Mem ory
ê°Ģ ë°©
Ġì¼Ģ ìĸ´
Ġë§ŀ ì§Ģ
íĺĦ ìŀ¥
Ġë°© íķ´
Ġë¦ °
B L
est ion
Ġì§Ī ë¬¸ìĿĦ
rodu ction
Ġfor get
ìħĶ ìļĶ
Ġê¸° ë»Ĳ
tr igger
Ġìĭł ë¶Ģ
ĠíĮĮ ë¦¬
Ġinflu ence
ĠCl ub
á ĥ
ìĿ¸ëį° ëıĦ
ĠN or
Ġmat ches
Ġë§ĽìŀĪ ìĸ´ìĦľ
ĠìĿ´ ìłķ
Ġíĺķ ìłľ
ì ĳ¥
Ġìĺ¤ ìĭł
oy al
ë¶Ģ ì¡±
Ġbath room
ĠìĦ± ëĤ¨
ĠëĤ¨ ë¶ģ
Cl ose
ĠS I
Ġpart ies
Ġê¸Ī ë¦¬
Ġêµ¬ ë¹Ħ
form ance
Ġë µ
Ġclean ing
ĠìĽ ¬
Ġì ĳ¥
Ġìĸ´ëł¤ ìĽĢìĿĦ
Ġinstall ation
Ġm ission
ĠHam ilton
ĠìĹ¬ ë¶Ģ
Ġìĭ¤ ìļ©
ì½ľ ëĿ¼
ìĹĪ ìĸ´
ê±° ì£ł
Ex pr
Ġëªĩ ë²Ī
ĠëĦĪ ìĿĺ
) }(
ë¹ ¡
ìĦľ ìĻĢ
Ġfa ith
} %
and er
Ġb rief
Ġíķ´ ìĸĳ
ĠëįĶ ë¸Ķ
ìľ¼ ë¡ł
Ġ( _
Ġê°ľ íĺģ
Pro xy
íķĺ êµ¬ìļĶ
ìĸ´ ìļ¸
ìĨį ìĿĦ
Ġê°Ĳ ê¸°
d em
Ġê´ľ íŀĪ
Ġw ine
Ġse ven
Ġde ploy
ĠëĿ ł
Ġs ports
ìĤ ¶
ir med
ĠI r
typed ef
11 3
Ġw at
Ġëª©íĳľ ë¥¼
Ġì¤Ħ ìĹ¬
web pack
ìĭľ ëĤĺìļĶ
ĠIm age
[ $
ĠìĿ´ìģĺ ê²Į
ĠN umber
Ġg ather
Ļ ìĿĢ
Ġtype of
ĠëĮĢ ìĤ¬
ĠìĿ´ê²ĥ ìĿĦ
m i
íĺĦ ìĿ´
Ġëª© ìļķ
ìĺ¤ íĶĦ
Ġê°Ģ ìĥģ
Ġìłķ ìĦ±
ĠìĹĨ ëĦ¤ìļĶ
el ines
_{ -
sw itch
Ġë²ł ìĿ´ìĬ¤
ëĶ° ëľ»
l g
} </
ĠA M
Ġv oice
Ġw inter
ĠëĤĺìĺ¤ ëĬĶëį°
Ġíķľ ìª½
el ess
Ġìłķë³´ ê°Ģ
pos itory
Ġë§¤ ì£¼
( +
lim it
Ġìļ° ë¦°
ê¸° ì´Ī
ì±Ħ ëĦĲ
Ġíķ ¸
Ġmod es
Ġê¸ ĢìĿ´
ë©´ ëıĦ
Ġìŀ¬ íĮĲ
Ġìĸ¸ ìłł
f ail
ed it
ĠìłľíĴĪ ìĿĺ
Ġë¡ľ ë§Ī
ĠTO DO
Ġìļ© ìĿ´
ĠìĿ¼ìĸ´ ëĤĺëĬĶ
ĠìłĢ ê¸°
ĠìļĶ ê±°
Ġìŀħ ìĪł
ìĿ¸ê°Ģ ìļĶ
Ġcorre lation
Ġac adem
Ġse cret
Ġë§Ĳ ìŀħëĭĪëĭ¤
G raph
Ġdeg rees
ëĿ¼ íĶ¼
ç «
Ġr apid
ê°Ĳ ìľ¼ë¡ľ
ìĿ´ëĿ¼ ëĭĪ
ĠMon day
Ġin de
ĠìĭľìĬ¤íħľ ìĿĦ
ë£¨ ì¦Ī
ĠìłľìĻ¸ íķĺê³ł
Ġexist ence
Ġenh ance
M ake
êµ¬ ìŀħ
ĠìĦŀ ìĸ´
ĠíĻĺê²½ ìĿĦ
Load er
Ġprofession als
Ġt or
ĠA T
ĠìĦ¸ ì²Ļ
íİĺ ìĿ´ìĬ¤
âĶ ¼
Ġ ice
Ġê°ķ ìĤ¬
ic ine
ĠF ore
ĠëłĪ ë²¨
Ġí Ī
Ġel im
Ġredu ction
Ġsol ve
ìĶ¨ ë¥¼
ĠSh ow
Ġarbitr ary
ĠR O
Ġindic ates
Ġìŀ¬ë¯¸ ìŀĪëĬĶ
ĠëĮĢ ê¸°ìĹħ
ìłĢ ìĿĺ
Ġëı¼ ìļĶ
}} (\
Ġëĭ¹ ê·¼
ook s
ëĿ¼ ëĭĪ
ëĮĢ ìĤ¬
ìķ¡ ìĿĺ
ìłĦ ìĦ¸
ĠAcc ording
Ġëĭ¹ ìĤ¬
Ġpart ition
ĠL A
ĠëĤĺ ëĭĪ
Ġê¸´ ê¸ī
eng ine
Ġdest ination
ëıĻ êµ¬
ateg y
Ġmeasure ment
ìŀħ ê³ł
Ġi o
ë¨¹ ìľ¼ë©´
Ġíĺ¼ íķ©
il s
ìĥģ ìĹĲìĦľ
ë¬´ ê²Į
ëĦ¤ ê°Ģ
Ġspect ral
ĠíĦ° ì¹ĺ
res et
ëĤĺ ë©´
ĠìĤ¬ëŀĮ ëĵ¤ê³¼
ë§ µ
Ġstr ug
Ġìķ¼ êµ¬
Ġì¶ ¥
Ġf aster
u ction
el es
D irectory
al g
G rid
íĦ° ìĬ¤
ì¹ĺ ë©´
Ġë¹Ħ ëĤľ
ãĪ ľ
hand ler
ĠëĲľ ìŀ¥
ëĤĺ ëĭĪ
ĠìļĶ ê¸Ī
íĻĶ íıĲ
ĠL ove
Ġì¡° ì¹ĺ
f amily
ĠíĻľìļ© íķľ
Ġì¢ħë¥ĺ ê°Ģ
' }
Ġë°ľ êµ´
ĠH y
ë¹Ħ ìĻĢ
ĠìķĦìĿ´ ëĵ¤ìĿĺ
ê³Ħ ìłĪ
ì²« ì§¸
Ġë¿Į ëĵ¯
ts d
ĠC H
ìĿ¼ ìłķ
ĠìĦ¸ ê¸Ī
ë²¤ íĬ¸ë¥¼
ìłĦ íķľ
Ġìį¨ ìķ¼
Ġwindow s
ê²¬ ìĿĦ
ĠT ask
ëķĮ ë¬¸
Ġë°Ķëĭ¥ ìĹĲ
ì¾Į íķľ
ĠìĿĳ ìĭľ
N ULL
par a
Ġëĵ¤ìĸ´ ìŀĪëĬĶ
ë²Ķ ì£Ħ
ch ain
Ġìĭ¤ ë¬´
ê¸° ëĮĢ
Act ivity
åŃ ¸
ëĿ¼ ëĸ¼
Ġu pload
Ġì¢ĭìĿĢ ëį°
ĠT ex
Ġteach ing
ìĸ´ ë¦¬
Ġë°ķ ë¬¼ê´Ģ
Ġìŀ¥ ê´Ģ
cond ition
Ġold er
Ġmot or
st on
ĳ ¤
ë³´ ê°Ģ
ìŀĳ ëħĦ
ĠíĬĢ ê¹Ģ
m anager
ì§Ģ ìĿ¸
Ġl atter
X ML
ĠL ear
ĠìĪĺì¤Ģ ìĿĺ
ĠìĿ´ ìŀ¬
sum er
ro te
ìĽĢ ê³¼
ìĬĪ íį¼
ê±° ë¦¬ë¥¼
Ġëª° ëł¤
ĠO N
Ġìĭľìŀĳ ëĲľ
ìĿ¼ ëŀľëĵľ
ĠCon fig
Ġent ries
ĠíĥĢ ëĬĶ
Ġfac ilities
íĽĦ ìĿĺ
Ġste el
ê»ĺìĦľ ëĬĶ
ĠíĻķìĿ¸ ìĿĦ
F ail
ìĹħ ê³Ħ
Ġë°ĶìĿ´ ìĺ¤
Ġsp ring
ĠEx t
ìĵ° ê¸°
s chema
Ġê³łê°Ŀ ëĭĺ
by tes
ìĤ¬ ì¹´
ë³´ì¦Ŀ ê¸Ī
Ġë¶Ħ ëĵ¤ìĿĦ
ĠíĻ Ģë¡ľ
Ġì§ĢìĹŃ ìĹĲ
ê²¨ ì§Ħ
ĠR oad
ë³¼ ê¹ĮìļĶ
ier arch
íĸĪ ëĬĶëį°ìļĶ
ĠëĨĢ ê³ł
ìĭĿ ë¬¼
Ġassum ption
Ġêµ¬ ê¸Ģ
ë²ħ ìĬ¤
Ġent ertain
æ ±
P ay
ìļĶ ëłĩê²Į
_ <
Ġg ap
ìłĢ ë¦¬
Ġm apping
ê³µ ë¬´ìĽĲ
Ġê·¸ëŁ¬ ëĭĪê¹Į
ìĬ¤íĬ¸ ë¥¼
F L
tool s
ĠìĿ´ìĥģ ìĿĦ
Ġeval uation
ĠìĺĪìłķ ìŀħëĭĪëĭ¤
b or
Ġtyp ename
Ġr are
Element s
Ġëĭ¤ëħĢìĻĶ ìĸ´ìļĶ
ì£¼ ê°Ħ
ĠíĶ¼ ê³ł
ĠìĹħë¬´ ë¥¼
Ġê²Ģ ìłķ
íķĺì§Ģ ëıĦ
Ġê° ±
Ġwork ers
ĠìķĦëĭĪ ëĿ¼ê³ł
íķ¨ ìľ¼ë¡ľ
Ġsee ing
ĠëĮĢ ìĹ¬
13 5
Ġê½ĥ ìĿ´
Ġíķ´ ì£¼ìĦ¸ìļĶ
ëª¨ ìĸĳ
Ġë¨¹ ìĿĮ
d ated
ê·¸ ê²Į
Ġfact ory
Ġìĭľ ìĦłìĿĦ
se ud
Ġìĭ¬ ìĭ¬
Ġìłģíķ© íķľ
ĉ ĠĠĠĠĠ
ê²½ ëĤ¨
ĠíĶĮ ëŀĺ
Ġë¯¿ ìĿĦ
On ce
Ġë°Ľ ê¸°
ìķĦ ëıĻ
Ġìĭľ íĤ¨
as is
Ġsk ip
A I
h om
ì²ľ ìķĪ
ass ets
ĠìĤ¬ìĿ´ ìĹĲìĦľ
w hen
ĠëĦ ¥
ìĸ´ ì°Į
Ġshop ping
íļ Ł
Ġpol ice
ê¸´ ëĭ¤
ĠU I
íı¬ ìĭľ
ĠíĬ¹ë³Ħ íŀĪ
Ġre q
ac count
18 6
Ġë ĺ¥
Ġê·¸ ëĵ¤ìĿĦ
Ġext end
Ġpract ical
Ġ[ [
Ġb tn
Ġë¶Ī êµĲ
Ġê°ĸ ê²Į
Ġë³´ëĤ´ ëĬĶ
Ġê±° ì£ł
F ull
Ġr ain
Ġì§Ģ ì¶ľ
ê±° ìĺĪìļĶ
íķĺ ê²ł
ĠìĿ´ ìĬ¹
ĠíĶĦ ëĿ¼
ĠíĹ Ľ
ĠìķĦ ëĵ¤ìĿ´
ìłľì£¼ ëıĦ
Ġëª¨ ë¥¸
BU G
ĠìŀĪ ëĤĺìļĶ
ëĵľ ëĿ¼ìĿ´
e cho
em porary
Ġal bum
ì¹ľ ëĭ¤
Ġ ult
ìĪĺ ìļĶ
W N
ĠCopy right
ĠìĨĮ ë°©
Ġ" '
Ġim plements
Ġë§Ī ë²ķ
ĠF rench
ill age
ell o
ê¸Ī ë¦¬
t mp
ĠE U
ìķ¼ êµ¬
Ġch annels
ĠIn formation
Ġam plit
ĠìłĢ íķŃ
Ġmain tenance
Ġìŀ¬ ë¬´
ĠëĪĪ ì¹ĺ
Ġdec ide
ST AT
ìķĦìĿ´ ëĵ¤
Ġíĺ¼ìŀĲ ìĦľ
Ġab stract
ìĿ´ ìĭł
Ġë¹Ħ ëĭĲ
Ġëį ¤
ĠìĥĿê°ģ íĸĪëĭ¤
Ġaw ait
00 2
sub subsection
Ġì¹¼ ë¡ľ
Ġíıīê°Ģ ë¥¼
Ġì¸¡ ìĿĢ
ì°¾ ìķĦ
ê¸ī ìĹ¬
Ġle aves
Ġëħ¼ ë¬¸
Ġë²Ķ ìľĦ
Ġì§Ħíĸī ëĲĺëĬĶ
ìŀ¥ íķľ
ìĺ¤ íĨł
ìłĢ ëŁ°
ĠëłĮ ì¦Ī
ì²Ń êµ¬
ì·¨ ìĹħ
ìŀ¬ ëĬĶ
ìļ°ë¦¬ ìĿĺ
ìĹ°êµ¬ ìĽĲ
In v
B M
Ġlead er
F E
ĠíİĺìĿ´ìĬ¤ ë¶ģ
it a
Ke ys
Ġì±Ħ ë¬´
Ġconf idence
Ġcommun ities
Ġcirc le
å¿ ĥ
Ġíĺķ ìĤ¬
LE CT
urre d
Ġìłķë§Ĳ ë¡ľ
Ġëĵľ ëłĪìĬ¤
Ġw elcome
ĠìĤ¬ìļ© ìŀĲ
Ġmanag ed
ëĵľ ëłĪ
ìĬ¤íĨł ìĸ´
ĠìłĦ ëł¥
medi ate
ìµľ ëĮĢ
Ġëĵ¤ìĸ´ ìĻĢ
Des c
Ġëĵ¤ìĸ´ ìĺ¨
ìłĦ ìľ¼ë¡ľ
íķĻ íļĮ
Ġì°¾ ìķĦìĦľ
Ġt ail
ãİ¡ (
Ġexp ensive
for all
Ġfil led
Pro file
íķĺ ê²łëĭ¤ëĬĶ
Ġimpro ved
D ouble
ĠJ ava
ì°¨ ìĿĺ
Ġëĭ¨ ê¸°
ì¸µ ìĿĺ
D el
ìµľ ê³ł
Ġr ise
Ġgir l
ìĿ¼ ìļĶìĿ¼
al o
Ġë§¤ ëıĦ
Ġë·° íĭ°
Ġrecomm ended
ĠìĥĿê°ģ íķł
Ed itor
ĠíĻľ ìķ½
Ġíģ´ëŀĺ ìĭĿ
Ġindic ate
Ġd ump
Ġì¤Ħìĸ´ ëĵ¤
Ġsh ot
Ġpol icies
ĠëĶĶìŀĲ ìĿ´ëĦĪ
ìĨĮ ìĻĢ
ĠìĿ´íĽĦ ìĹĲ
ê³ł ë£¨
Ġs cre
Ġìłľê³µ íķĺê³ł
ìĭł ëıĦìĭľ
Ġìĭł íĺ¼
ê³µ ëĭ¨
Ġtalk ing
Ġpur poses
ĠS l
r ices
Ġf ear
Ġë² ļê½ĥ
z en
Â °
ĠíĹ Ĳ
ë¡ľ ì§Ģ
Ġê°Ĳ ìĭ¸
> :
ĠO S
Ġë°ľ ìĸ¸
Ġ{ '
Ġê·¸ëłĩ ëĭ¤ë©´
äº ĭ
Ġë¶Ģ ìĿ¸
ì§Ħ ëĭ¨
ç ¶
ì§ĢìķĬ ê³ł
Ġë³Ģ íĺ¸
Ġê°Ĳëıħ ìĿĢ
! '
Ġê±° ëĮĢíķľ
Ġê°Ģ ë§ĮíŀĪ
ĠìĪľ ìĪĺ
Ġëĭ¤íĸī íŀĪ
Ġë°°ìļ° ê³ł
Ġhim self
ĠCh ild
os h
cal led
Ġto ward
ë§¤ ìļ°
ëªħ ê³¼
k l
ĠìĤ¬ëŀĳ ìĿ´
ì¹´ ë¡±
Ġë¯¸ëŀĺ ë¥¼
p are
ëģĪ íķľ
E vents
Ġë¶Ģëª¨ ëĭĺ
Ġsc an
r im
Ġì§Ģ ë¶Ī
D M
Ġê¸°ë°ĺ ìľ¼ë¡ľ
Ġëĭ¤ìļ´ ë¡ľëĵľ
Ġh aven
12 2
ìĥĪ ë²½
pro ps
ĠíĽĦ ìĹĲëĬĶ
Ġdiffer ences
ĠëĦĪë¬´ ëĤĺëıĦ
ĠTh ank
i pt
Ġform ation
ìĭł ê¸°
ë°ľ ë§¤
ĠP ass
Ġìŀĥ ìĸ´ë²Ħ
ìĭ¤ ìĿĺ
bul let
r ase
ë©´ ìłĳ
Ab stract
ĠìłĦë§Ŀ ìĿ´ëĭ¤
Ġíĥľ ìĸ´
ëĭ¤ ëħĢ
To String
ê º
Ĳ ģ
ç ©
Ġf ol
ĠëıĮìķĦ ìĺ¤
Ġexerc ise
Ġqu arter
íĶĮëĿ¼ ìĽĮ
, '
Rem ove
Ġestim ates
Ġdi am
ĠìĺĪ ë¯¼
ìłķ ê¸°
ëĤĺ ë¦Ħ
ëĦĪ ëĬĶ
ëĥĲ ëĬĶ
íķĺ ëĦ¤
ìŀĲ ìĭł
ĠA rm
y e
ĠìĤ¬ì§Ħ ìľ¼ë¡ľ
ëĳĲ ë²Īì§¸
ëł¤ ëĤĺ
ìĸ¸ìłľ ëĤĺ
íķĺê²Į ëıĦ
íľ´ ëĮĢ
b old
Ġê±° ëĿ¼
íı¬ ë¥¼
Ġë¹Ħ íĬ¸
Ġë°© ìĹŃ
ĠìĤ¬íļĮ ë³µì§Ģ
Ġoff ic
ë¶Ģ ì§Ģ
ëĲĺìĹĪ ìľ¼ë©°
Ġìĺ¬ ë°Ķë¥¸
Ġal gorithms
ĠP oint
Â·Â· Â·
er ial
ìĻĶ ëĬĶëį°
Ġvis ion
ĠíĻķìĭ¤ íķĺê²Į
Ġê±´ ì§Ģ
- (
Ġopen ed
Ġche ap
ĠW hether
Ex ternal
ì¥¬ ìĸ¼
ë©Ķ ê°Ģ
íķĺ ìħĶëıĦ
Ġlo an
Ġac commod
En um
ðŁı »
Ġsign ed
Ġocc urs
ĠìŀĦ ìĭľ
Ġì¡°ìļ© íŀĪ
Ġê¼ ´
ĠëıĦì°© íķľ
âĢĿ ,
ëįķ ë¶ĦìĹĲ
h idden
Ġìĭľ ìŀ¥ìĹĲìĦľ
az z
rec ord
íħĮ ê³ł
ëħĦ ìłĦ
Ġdim ensions
Ġë°Ģ ìĸ´
ĠEduc ation
Ġìķŀìľ¼ë¡ľ ëıĦ
Ġê°ĢëĬ¥ íķĺê³ł
Ġì§ĳ ìĿ´
D T
ìĺ¬ ë¦¼íĶ½
ê·¼ íĺľ
Ġëĭ´ ë°±
CHE CK
f ly
new command
Ġmajor ity
ĠìŀĦ ê¸Ī
Ġst ick
Ġê¸°ëĮĢ ë¥¼
Ġíĥĳ ìŀ¬
ĠìĹ°ëĿ½ ì²ĺ
ë§¤ ìĪĺ
Ġj ump
ĠìĭľìĽĲ íķĺê²Į
d p
Ġìĺ¬ ë¦¬ëĬĶ
Ġocc up
Ġapplic able
14 4
Ġh ole
ëħ¼ ë¬¸
Ġíľ´ ìĭĿ
Ġìĭľ ìŀ¥ìĿĺ
IN D
íĮĮ ìĽĮ
ê³³ ìĿĢ
Ġc ars
ĠëĤ® ìķĦ
G O
Ġê°Ī ëĵ±
Ġê²½ ì£¼
}$ -
ìĦ± ìĿ¸
Ġì£¼ì°¨ ìŀ¥
Ġì»¤ë®¤ëĭĪ íĭ°
Ġmot iv
ìĤ¬ ë¡Ģ
ĠìĦł íĸī
Ġëĭ¨ìĪľ íķľ
ìŀħ ëĭĪê¹Į
ĠìĹĦì²Ń ëĤĺê²Į
Ġì»¤ ìĦľ
Ġê·¸ëłĩ ëĭ¤
O pt
ê²½ ìĿĢ
AN T
ìĪĺ ìĤ°
Gl obal
Ġroom s
ãĥ »
ĠCh urch
Ġv ideos
Ġfund s
t ons
ìłĦ ê³µ
Ġin equality
Ġus age
Ġê¹Ģ ìĺģ
Ġíķĺë£¨ ë¥¼
on ical
Ġë¹ł ì§Ī
ĠìĿ¸ê·¼ ìĹĲ
ĠAn n
Ġê²½ ê³ł
Ġì¹ľêµ¬ ëĵ¤ê³¼
ê³Ħ ìĹ´
Ġj Query
it ness
Ĺ ê²Į
ve x
Ġê°Ļ ê¸°ëıĦ
ĠìľĦ ê¸°
ĠIn itial
ĠìĤ¬ìļ© ëĲĺëĬĶ
ë°ľ íĳľ
ìŀ¬ ëĭ¨
Ġëĭ¤ ëĭĲ
Ġëªħ ì¹Ń
ëª© ìłģ
Ġtechn ique
ìĭľíĤ¤ ê¸°
ĠëĤĺ ì§Ģ
ĠS QL
Ġb urn
ìŀĲ ë³¸
Ġm olec
Ġre ached
ĠìĿĮìĭĿ ìĿ´
Ġê³Ħìķ½ ìĿĦ
ìĦ¤ ê³Ħ
lo op
æ ´
ëĥ īìŀ¥ê³ł
Ġg one
U SE
Com par
in ant
Ġë§Ī ìĭ¤
ëĭ¹ ìĭł
Pro duct
u ous
Ġholid ay
ìĹĲê²Į ìĦľ
ìĤ Ĳ
Ġì²ĺìĿĮ ìĹĲëĬĶ
ĠìĿĺ ì¡´
Ġë§ĪìĿĮ ìĿĢ
Ġis land
ê°ķ íĻĶ
Ġë°° ìļ´
ĠìĿ¼ ìĤ°
Ġë²ķ ë¬´
Sc roll
ê´ľ ì°®
Ġë¬¸ìłľ ë¡ľ
Ġê³¼ ëıĦ
Ġìķ½ íķľ
IG HT
ëĿ¼íħĮ ìĬ¤
Ġëĵ¤ ëŁ¬
j a
Ġdesign s
ìĤ¬ ëıĦ
E V
ë°ķ íķľ
Ġque ue
ĠëĶĶìŀĲ ìĿ¸ìĿ´
L java
íĥĢ ëĬĶ
íĨ °
con tains
sm art
UT F
de pth
Ġì ī´
Ġf ather
) _{
Ġì²¨ ê°Ģ
y ou
Ġê´Ģëł¨ íķ´
Ġì¶Ķ ìĦĿ
ìłĦë¬¸ ê°Ģ
z one
ë¨¹ ìĿĢ
text sc
ĠìķĦëĭĪ ëĿ¼ëĬĶ
Ġìļ° ì¸¡
ìĿ´ ëŁ¬
ëĸ ¨ìĸ´
Ġëĵ¤ ë©´
M at
Ġro of
ìŀĪëĭ¤ ê³ł
ìļĶ ê¸Ī
b p
ĠìĿ´ ìŀĲ
ĠM or
ì²ľ ë§ĮìĽĲ
ĠìĺĨ ìĹĲìĦľ
Ġëª©ìĨĮ ë¦¬ê°Ģ
ĠC lick
ë°Ģ ë¦¬
Ġm ail
ìĿ´ë²Ī ìĹĲëĬĶ
Ġì¹ĺ ìĹ´
ut f
ìķĦ ëĭĮ
Ġus ual
ĠìĿ¸ íĺķ
Ġê°Ģ ìŀĲ
ĠĠĠĠĠĠĠĠĠĠĠĠĠĠĠĠ ĠĠĠĠĠĠĠĠĠĠĠĠĠ
Ġë³´ ëĤ¼
ĠUS A
Ġë¨¹ê³ł ìĭ¶
Ġë°Ŀíĺ Ķ
ë¦¬ ë©´ìĦľ
ë°© ìĭĿ
Ń ëĭĪëĭ¤
íģ° ìĪł
ĠPro cess
ĠìĪľ íĻĺ
Ġëª» íĸĪëįĺ
êµĲ ìĪĺ
Ġcon nections
per p
ëĥ ħ
ĠíĺĦìŀ¬ ìĿĺ
ĠìłĢíĿ¬ ê°Ģ
Ġíķ© ìĦ±
ĠìĺģìĹħ ìĿ´ìĿµ
ì´Ī ìĹĲ
M any
ìļ° ëĵľ
Ġcent ury
Ġcompet ition
ëĭĪ ìĸ´
Ġíĺ¼ ëŀĢ
Ġëĵľë¦¬ ê²łìĬµëĭĪëĭ¤
Ġre ality
Ġinter ior
b ad
Ġimplement ed
ìĺĪ ìłĦìĹĲ
Ġìĭ¶ ì§Ģ
18 7
Ġì¿ł íĤ¤
Ġf an
ëĭ¹ ìĹĲ
Ġown ers
íĻĶìŀ¥ ìĭ¤
ëĲĺ ìĸ´ìĦľ
Ġìĭľ ìŀ¥ìĹĲ
å ł
Ġrec over
ìĹ¬íĸī ìĿĦ
ìļ° ìĪĺ
Ġê²Ģ ìĤ¬ë¥¼
m o
Ġë³´ ìĭľê³ł
ëĭ´ ìĿĦ
ĠìĥĿ ìĦł
ĠìłĦë¬¸ ìłĲ
Ġgu ess
Ġnumer ous
Ġë°ľ ìĿĦ
ìĻ¸ ê³¼
ç ´
ì£¼ ìĻĢ
ìĥģ ìĬ¹
Ġcoe fficients
T erm
Ġord ers
ĠìłĦ ìĦ¸ê³Ħ
ë¯¼ ìĿĺ
Ġp od
æľ Ī
ĠìĿ´ íĸī
Ġlead ers
íĻķìĭ¤ íŀĪ
Ġë°° ìļ¸
Ġìĭ± ê¸Ģ
Ġmass ive
ĠK T
ëª¨ëį¸ ë§ģ
3 30
ĠìĿ´ ëĭ¤
ĠĠ ĊĊ
Ġìĸ´ëł¤ ìļ¸
Ġfore ign
ìĭľì¼° ëĭ¤
Ġë³´ ì¶©
ì¢ħ ëª©
g a
Ġë³Ģ ìĭł
ĠP O
ĠíĽĦ ìĽĲ
íį¼ ìĬ¤
ĠìĿ´ íĥľ
ro ke
f c
íĸĪ ëįĶëĭĪ
m ask
Fe ature
b en
Ġê²½ ë¶ģ
ĠëĦ£ ìĿĢ
Ġìŀł ìŀ¬
Ġcontain ed
ĠìĿ´ ìĦ±
Ġaspect s
ĠSo ftware
ì²ľ ë§Į
Ġinter actions
Ġh us
ìļĶ ê±°
íĶĮ ëŁ¬
ĠëĦ¤ ìĿ¼
ëıĦ ì°©
ĠìĻĶ ëĬĶëį°
ĠP o
Ġë°ľ íļ¨
ì¹ĺ ìĻĢ
Ġìĺ¤ëĬĺ ëĤł
íĮĮ ìĬ¤íĥĢ
Ġe q
Ġê°Ģ ì¹ĺê°Ģ
ãĦ ¹
ĠÐ ¿
Ġaud ience
ìĭľ ì²Ń
Ġìĺ¨ ëıĦ
Ġìļ´ ìļ©
ìķĦëĭĪ ëĿ¼
Ġìŀ¥ ë¥´
Ġex tr
NavBar Cell
ed itor
Ġìĭľìŀĳ íķ©ëĭĪëĭ¤
Ġpert urb
Ġsh oot
ĠëıĻ ìĺģ
Ġprop ag
pl ier
ĠRes ult
Ġì§ĢëĤĺ ê°Ģ
word s
ìĭľ ê³Ħ
ì»¤ ìĬ¤
íĴį ìĿ´
Ġad j
ë²Ħ íĬ¼
g it
íĸĪ ìĹĪëĬĶëį°
Ġì« Ħê¹ĥ
ĠëĳĲëł¤ ìĽĮ
ĠìĿ´ ëłĩ
Ġê°ģ ìŀĲ
ç ľ
ĠìĽĢì§ģ ìĿ´ëĬĶ
'] )
ĠBrit ish
íĦ° íħĮìĿ¸
Ġê°Ī ë¹Ħ
ĠM P
ĠíĪ¬ ìŀĲë¥¼
Ġprep are
Ġê°ķ ìĽĲëıĦ
Ġr g
ëĮĢ íĨµëł¹
Ġreplac ed
Ġìĸ´ ìĥī
ìĺ¤ ìłĦ
ì´Ī ë°¥
Ġpass ion
Ġl attice
íĸĪ ëĬĶì§Ģ
êµ¬ ë¶Ħ
ĠWash ington
ìľ¼ ìĭľëĬĶ
Ġcon ference
ĠCont rol
Ġìłĳ ìĸ´
Ġpl ugin
ĠëĤĻ ì°°
Ġt ables
ĠìĿ¸ê°Ħ ìĿ´
et t
ìĨĲ ìľ¼ë¡ľ
Ġse ctions
ĠëģĬìŀĦ ìĹĨìĿ´
pr ise
Col lections
ĠìĿ´ ê²¨
Con dition
ĠìķĦìĿ´ ëĬĶ
Ġcoordin ates
Ġob serve
Ġê¸°ë³¸ ìłģìľ¼ë¡ľ
Ġê°Ī ëĿ¼
G C
ĠìĬ¤ íĥł
n ight
Ġêµ¬ ìĽĲ
Ġp hen
Ġìŀ¡ ìĿĢ
Ġëĵ¤ìĸ´ ê°Ķëĭ¤
Ġ" <
Ġlabel s
Ġíķ ı
config uration
ĠìĹ¬ ë¶Ģë¥¼
Ġpath s
Ġinteg ration
Ġë¬¼ ìĸ´ë³´
ĠìĨį ìĿĺ
w ar
ĠìĿ´ ìĪĺ
k i
ê¸° ìķĦ
Ġw ife
ë§ī ìĿĦ
O UT
ìĿ¼ ë¶Ģ
os is
Ġpl ants
Ġê°Ģ ë£¨
18 5
Ġin variant
Ġì¤ĳ ëıħ
ĠWh y
ĠëĮĢ ìļ°
Ġs ou
ì²ŃìĨĮ ëħĦ
Ġê³¼ ìłľ
Ġë§¤ ë²Ī
S n
Ġìĸ¼ ìĿĮ
ê°ľ ëĬĶ
ĠìĨĮ íĺķ
log ger
Ġsatisf y
Ġcontribut ions
ĠìĺĪ ëĬ¥
ìĨ ľ
rou d
Ġìĭł íĺ¸
iven ess
r andom
Ġë°ĺ ëĮĢë¡ľ
ìľĦ íķľ
ë°© ìĹĲìĦľ
Ġìŀĳ ê³¡
ë¶Ħ íķľ
ë©´ íĹĪ
ê¹Įì§Ģ ìĿĺ
Ġì° Ĳ
íļĮ ë³µ
ac c
ìłĦíĻĶ ë²Īíĺ¸
ëĭ¹ íŀĪ
ĠS il
íĬ¹ë³Ħ ìĭľ
ìłĦ íĻĺ
ìĹĶ ì§Ħ
Ġìĭ¶ ìĹĪëįĺ
Ġsol ar
ëĶ ª
Ġdec isions
ëłĪ ìĿ´íĬ¸
ĠL eg
Ġê¶Į ìŀ¥
Ġem ot
ìľ¼ ìĭľë©´
ëĭĪ ëĬĶ
Ġê±° ë¦¬ê°Ģ
Ġcolumn s
ëł¸ ëĬĶëį°
Ġìŀħ ê¸Ī
Ġë²Ĺ ìĸ´
u ilt
Ġë¨¹ ìľ¼ëĭĪ
all s
ĠInd ex
pl ot
ĠìĪĺ ìĭŃ
ìľ¼ ëĿ¼ê³ł
ĠìķĮ ë°Ķ
ex ternal
Ġas ync
ĠìĹĲ ìĿ´
Ġmechan ism
M F
ìĸ¼ë§Ī ëĤĺ
ìķ¡ ìĿ´
ĠìĹ° ê´Ģ
and ra
N R
ê³ł ê¸°ë¥¼
ìļ© ëŁī
IP T
Ġì¤Ģë¹Ħ íķĺê³ł
Ġìĭł ëĤĺê²Į
ê¸° ë¶Ħ
Ġpl enty
íĮĮ ë¥¼
let ed
un ct
Ġposs ibly
ĠìĹŃ ëĮĢ
Ġ% }
Ġìĭ¶ ëĭ¤ë©´
um my
lic t
Ġìľł ìŀħ
Ġë§Ĳ íķĺë©´
Ġíĥľ êµŃ
ìľł ì§Ģ
è ©
11 6
F ind
Ġì¥ ¬
ĠíĦ¸ ìĸ´
Ġclass ic
ìĿ´ ëĦ¤
get Name
Ġìĺ¬ ëŀĲëĭ¤
ĠìĹĨ ìľ¼ë©°
Ġì§ľ ì¦Ŀ
ë§Ī ëĬĶ
met adata
flo or
ìŀĲ ìĦ¸íķľ
ĠìŀĪ ê²łì§Ģë§Į
the me
ĠíĨł ëģ¼
ĠìĹ° íľ´
Ġvers ions
Ġíķł ëķĮ
Su ccess
ch mark
ĠìķĪ ìª½
Ġíķ´ ì¤Ģ
ìŀ¥ ìĿ¸
on om
ĠìĿ¼ íķĺëĬĶ
ĠìĶ¨ ëĬĶ
) >
ĠëıĦ ëĭ¬
Ġê³µ ìĿ¸
ĠëıĦ ìĦľê´Ģ
Ġìĭł ìŀħ
Ġì´Ī ì½ľë¦¿
íĭ° ìĬĪ
f d
Ġmost ly
ê±¸ ìĿĮ
Ġì£¼ ìħĶìĦľ
! [
Ġbound s
Ġë¡ ±
Ġlim its
ì¸µ ìĿĢ
ìĭ¬ ìĿĢ
Ġê°ľìĿ¸ ìłģìĿ¸
Ġë¬¼ íĴĪ
ĠCh inese
Ġì°į ëĬĶ
ìłľ ì¡°
11 8
ĠìĤ¬ëŀĮ ëĵ¤ëıĦ
Ġëª© ë¡Ŀ
ĠìĿ¼ ì¹ĺ
Ġrelationship s
ĠP R
ĠIO Exception
Ġë´¤ ëĭ¤
ĠðŁ ĺ
ìĪĺ ìŀĪëĬĶ
ìķ¡ ìĿĢ
Ġë§ĮëĤĺ ìĦľ
ìĹ¬ ê¸°ìĹĲ
ìĭł ì¶ķ
Ġë°© ìķĪìĿĦ
ë§Į ê°Ħ
íķ´ ì¡Įëĭ¤
Ġìĥģê´Ģ ìĹĨìĿ´
Ġë¬´ìĹĩ ìĿ¸ì§Ģ
Ġë¶Ģ ì²ľ
ãģ ł
ĠìĬ¬ íĶĶ
V M
arg ument
$ /
ĠW ord
Ġqu ad
Ġë¹Į ëł¤
Ġ= ====
Ġcapt ure
ìĤ¬ ìĿ¸
Ġì½Ķ ì½Ķ
íķ´ ì§Ħëĭ¤
Ġp ars
ĠĠĠĠĠĠĠĠĠĠĠĠĠĠĠĠĠĠĠĠĠĠĠĠĠĠĠĠĠĠĠĠ ĠĠĠĠĠĠĠĠĠĠĠ
at o
Ġì²ĺìĿĮ ìĹĲ
Ġê°ľ ìĦ¤
ìĥģ ìĦ¸
ĠëĮĢíĨµëł¹ ìĿĺ
Ġë¯¿ ëĬĶ
Ġìļ´ìĺģ íķĺê³ł
ĠëĨĵ ìĹ¬
Det ails
íĮĮ ëĬĶ
ĠìĦł ì§Ħ
Con s
u able
Ġl uck
irr or
Ġë§ĽìŀĪ ê³ł
ĠCour t
Ġcur ves
ë²ł ë¥´
ìĥĿ ìĿĺ
è §
ĠL in
å Ł
Ġì¶ľ ê³ł
Ġspec ifically
s ymbol
ì¡° ë¦¼
Ġìŀħ ì¦Ŀ
Ġíľ´ ë¬´
Ġs ynt
Ġíıī ìĿ¼
Ġâ ĵĴ
uc ial
ãģ į
A CT
s afe
ì½Ķ ìĿ¸
Ġd ust
ĠëĿ ½
íĹ ¨
ar se
ĠU nder
Ġìĵ° ì§Ģ
Ġìľł íļ¨
ë§Įëĵ¤ ê¸°
Ġìĸ» ê³ł
ë¦¬ íķľ
s ince
Ġeven ing
ĠìĤ¬ìļ© ìĿĦ
Ġsh ut
og ene
ix els
G u
Ġì±Ħ íĥĿ
Ġpr ay
Ġê°ĢëĬ¥ ìĦ±ìĿĦ
ident ifier
ĠìĿ´ ë¯¼
ĠìĿ¸ìĥĿ ìĿĦ
ĠìĭłìĦł íķľ
i h
Ġì»¨ ìĦ¤íĮħ
h ide
S pace
ĠêµŃ ë°©
ĠìķĦ íĶĶ
Ġpract ices
ĠìĦ¤ ë¬¸
ê³µ ìĿĦ
Ġs ch
ìľĦ íĹĺ
Ġë§ĽìŀĪ ìĹĪëĭ¤
Pro ps
Ġ+ \
Ġë¯¸ ìĤ¬
ch or
Ġê¸ī ê²©
Ġì§Ħ íķľ
ĠëĤ´ ë¦¬ëĬĶ
p aper
ëŁ° ì¹ĺ
ĠI E
n n
ëı Ķ
ĠĠĠĠĠĠĠĠĠĠĠĠĠĠĠĠ ĠĠĠĠĠĠĠĠĠĠ
re v
am in
Ġguarant ee
ëį ®
íĭ° ìĬ¤íĬ¸
ĠìķĦìĿ´ ëĵ¤ìĿĦ
ëĬ¦ ê²Į
Ġm m
Ġarchitect ure
Ġëĭ¹ ëĩ¨
Ġsum mary
Ġìĭľ ê¸°ìĹĲ
Ġìĺ¤ ë¸Į
ĠJ ack
f riend
Ġë¶Ģ ëĮĢ
ë¯¸ ìĿĺ
ìŀĪ ìĿĮ
ê²° ìłľ
ĠìĬ¹ ìĿ¸
ìĿ¸ ê²ĥ
~ "
ĠT im
Ġë§Įëĵł ëĭ¤
ĠìĬ¤ íİĻ
ëĤĺ ìĺ¤
Ġë³´ ìķĦ
Ġì±Ķ íĶ¼ìĸ¸
) ^{\
ition ally
L INE
ĠG ets
é «
Ġìĺ ¹
sequ ently
ir al
ìŀĲê²© ì¦Ŀ
Ġìĸ´ëĶĶ ìĹĲ
b ur
íķĺê¸° ëĬĶ
ë³´ ëĭĪê¹Į
ë£Į ëĬĶ
sh adow
Ġcontinu ed
Ġdistribut ions
Ġsub mit
ê³Ħ ìĤ°
H igh
ëŀĺ ê³¤
Ġb ill
du led
Ġìłķ ìĦľ
ìĭľ ì§Ģ
Ġrepresent ed
Ġprom ise
íģ¬ ëĮĢ
ĠëıĮìķĦ ëĭ¤ëĭĪ
Ġk ernel
Ġoptim ization
íķ´ ë³´ê³ł
Ġstring s
Ġìĭľìŀĳ íķľëĭ¤
Reg ion
Ġë²ķ ìĽĲ
Ġìĺ¬ ëŀĲ
Ġres erved
ë¡ľ ë¡ľ
n il
Ġ Ø
Ġíķľ ìļ°
Ġst ores
ê³µ ê¸°
Par se
ìĹ° ìĬµ
ìĭľ ëıĦ
Ġunder lying
ĠíħĲ ëį°
Ġìłķ ëĭ¹
id x
Ġìĭľ ìĦ¸
ãģ ķ
ĠëĳĲ ë²Ī
.~ (\
Ġíĥľ ìĸ´ëĤľ
ëĵ Ī
ê´Ģê³Ħ ë¥¼
Con nect
ìĨĮ ë¦¬ê°Ģ
Ġapply ing
ìĭ¤ íĹĺ
Ġth reshold
ìĥģ íķľ
st able
Ġìŀ¥ìķł ìĿ¸
ĠìłĢ ìĹĲê²Į
Ġíķĺ ìħĶìĦľ
ĠB it
Ġë¹Ħ ë¹Ķ
Ġì£¼ ìĭľëĬĶ
Ġres olve
ê°ľ ëħĲ
Ġëĵ ŃëĭĪëĭ¤
ìĨĮ ê¸Ī
t wo
ì¹ĺ ë©°
M apping
Ġë¸Į ëĿ¼ìļ´
ĠëĦĲ ë¦¬
ĠìĨį ìĿ´
ìĺģ ìĿĢ
Ġë³Ħ ëıĦ
on ym
Ġíĳľ ìłķ
Ġíıī íĥĿ
Ġmin or
ĠëĤ´ ìĸ´
ìļ© ìĿ¸
ĠíĤ¤ ìļ°
ĠìłĦ ìĦ¤
Ġbig gest
Ġë°Ķ ëĿ¼ëĬĶ
ìĦ¸ ìĦľ
ĠBl ue
åľ °
Ġê°Ļ ëĭ¤ëĬĶ
ê¸° ìĹĲëĬĶ
ë§Ī ì¼ĢíĮħ
Ġëķħ ìĹĲ
ĠR iver
Ġeval uate
ĠìĹĨ ëĭ¤ë©´
Ġìļķ ìĭ¤
al yt
Ġìļ° ìĹ°íŀĪ
ĠM ount
Ġì±ħ ìĿ´
Ġë°© ìķĪ
equ ence
ĠìĬ¤íİĺ ìĿ¸
Ġdocument ation
Ġid x
Comm on
ì¤ĳ ìĭ¬
Ġdirect or
D uration
Ġb ond
( .
ar c
Ġbuy ing
ìĿ¼ ì§Ģ
ë§Ī ì¹¨
ĠìĪĺ ë¹Ħ
-------- ----
ĠìĹħ ê³Ħ
i ate
Ġë§ŀì¶° ìĦľ
ĠëŁ° ëįĺ
ä¸ ĭ
ê³¼ ìłķìĿĦ
Ġê³¼ ìłķìĿ´
? >
ìĭľ ìĻĢ
ĠS ecurity
Ġëĺĳ ê°Ļ
êµ° ìĿĦ
ìħ¨ ìľ¼ë©´
ĠQ ue
circ le
Ġmin ute
de cl
S ocket
G A
ì²´ ë¡ľ
íķĺì§Ģ ìķĬ
Ġneighbor hood
ìĦ± íĺķ
ĠL ink
ìļ© ìĿ´
5 50
Ġëĭ¹ ìĦł
ìĽĶ ê¹Įì§Ģ
Ġì¤Ģë¹Ħ íķľ
Ġb ug
Ġdest roy
ëĪĦ êµ¬
RE AD
Ġê¸ ģ
Ġ$ $
Ġìĸ´ ë¦¬
Ġìłķ ëĭµ
Ġìµľ ìĨĮíķľ
ëĭ¤íĸī íŀĪ
Ġê³ł ë¬´
ĠìĦ¸ íĮħ
ìłķë³´ ë¥¼
ĠìĦł ë¬¼ìĿĦ
( __
,\ ,
ìķ ±
Ġach ieved
Ġë¶Ī ìĿĦ
Ġê³Ħ ëĭ¨
Ġì¶ľ ëł¥
ĠF inally
Ġanal og
Ġcompre hen
20 4
Ġì¢ĭ ê²ł
ë³´ ë©´ìĦľ
ĠëģĿ ëĤ¬
Ġme ant
íĶĦ ê°Ģ
Ġpost s
ĠìłĦ ìĨ¡
col on
ili ar
Ġì¡° íļĮ
s ime
Ġê²Įìĭľ íĮĲ
B rowser
Ġm ist
ìĺĪ ë°©
íķĺ ìĹĲ
æ ŀ
ĠFlor ida
ĠëĨĢ ëŀĲ
Ġhappen ed
ĠëĪĪ ë¬¼ìĿĦ
O B
Ġíķ´ ë³´ê³ł
ë²Ī ì§Ģ
j e
pl atform
ĠC are
b rowser
Ġê°Ģê²© ëıĦ
28 0
ë¸Į ë¡ľ
en ed
ĠìĽĥ ìĿĮìĿĦ
Ġs ociety
Ġê³³ ìŀħëĭĪëĭ¤
Ġxml ns
ver b
ìĸ´ ì§Ģ
Ġeconom y
Ġì¶ľ ìŀ¥
ĠìĥĿê°ģ íĸĪëĬĶëį°
N OT
Ġgu ests
2 60
S ymfony
Ġconven ient
ĠìķĦëŀĺ ë¡ľ
Ġear th
íķĦ ìļĶíķľ
ì¶ķ êµ¬
Ġìĭł ë¶Ħ
ĠìķĪíĥĢ ê¹Į
Ġìĭľ ìĤ¬
ê´Ģ ê³¼
ĠìķĪ ëı¼
ìłĲ ê²Ģ
Ġì¤Ħ ìĿĦ
F P
low er
Ġë§¤ ëĭĪ
J ava
ĠM art
Ġb ott
Ġinst ances
Ġì¡° ìĸ¸
F ailed
L a
P od
íķ´ ì¤Ħ
Ġwh atever
Ġw id
ëŁ ¿
ĠíķľêµŃ ìĹĲìĦľ
sime q
hor izontal
Ġh ab
ì§ģ ìĿĦ
Ġê¸ī ìĹ¬
Ġê°Ģ ì§ĢëĬĶ
R est
T T
Ġê³µ ëŀµ
ĠL ight
ĠìĿ´ ëŁ´
Ġstrong ly
ìŀĦ ìĹĲëıĦ
ë§Ī ê°Ĳ
Ġë³Ģ íĺ¸ìĤ¬
Ġíķ©ë¦¬ ìłģìĿ¸
ĠDevelop ment
Ġì ©
ìķ¼ ì±Ħ
ìĸ´ ë§ģ
Ġìŀ¬ë¯¸ ìŀĪê²Į
Ġs now
P y
ìĸĳ ì£¼
ĠíĮĮíĬ¸ ëĦĪ
Ġli qu
Ġíİ¸ ìĿ´
ì²ľ ëıĻ
Ġìłķ íĴĪ
Ġëľ ¬
ant a
%% %%
Ġìĸĳ ìĦ±
Ġfam ous
ĠíĨµ ì¦ĿìĿ´
ĠM o
ë¶Ħ ëªħ
Ġrestaur ant
Ar t
ĠìĿ´íķ´ íķł
Ġex it
ĠìĨĮ ì£¼
å ¦
tab s
Ġin struction
ê²½ ë¶ģ
00 5
ĠìłĪ ì°¨
ëĳĲ ëĬĶ
p at
Ġthe oret
Ġconstr aint
Ġstre et
Ġcandid ate
Ġíıī ìłĲ
p icker
Ġc tx
com position
Ġst yles
Ġíķľ ëĳĲ
e val
ì¹ĺ ìķĦ
ê·¸ ë§Įíģ¼
ë§ŀ ìĿĢ
ï½ £
Ġf em
ë¬´ ì¹¨
Ġrel ig
oper ation
Ġì§ĳ ìķĪ
ĠP ay
tr i
ĠëĮĢ ë§Į
¯ Ķ
{ $\
ĠìŀĦ ì°¨
Ġeffect ively
b rief
ag onal
p refix
ì ª¼
as i
Ġíķľ ê°Ģì§Ģ
Ġì£¼ ë©´
11 7
Ġd uration
ì¡Į ëįĺ
Ġì¦Ŀ ìłķ
ĠO h
ĠìĬ¤íĶ¼ ì»¤
ĠëĤĺ ëĵ¤ìĿ´
Ġë°©íĸ¥ ìĿĦ
Ġìŀ¬ ëĬ¥
ĠëĨĢ ëĿ¼ìļ´
ĠìķĬëĬĶ ëĭ¤ëĬĶ
íķł ê²ĮìļĶ
$ ).
ĠíĬ¹ ìĦ±ìĿĦ
ë³µ íķ©
ĠìĿ´ ì²ĺëŁ¼
ê°ķ ìĿĦ
v a
ĠìĪĺ ê³ł
â ĵĴ
ok er
ĠìłĢëħģ ìĹĲ
ĠW ed
co res
Ġë¹Ħì¦Ī ëĭĪìĬ¤
= .
ĠR ob
ĠìŀĲ ìĭĿ
j ar
Ġëĭ¬ ê³ł
Ġë¹Ħ ë²¼
Ġconstruct or
ĠìĽ °
State ment
Ġwas te
Ġliter ature
ĠëĤĺ ëīĺ
Ġconsum er
ìļ° ìľł
Ġìµľì´Ī ìĿĺ
Ġê·¸ëħĢ ê°Ģ
Ġíķľ ì¸µ
ãĢı ,
em on
ìĨĮ íĶĦíĬ¸
ĊĊ ĊĊĊ
Ġ eth
ìĭľ ìĦ¸
ĠE lect
Ġnav igation
Ġìĺ¤ ë²Ħ
ìĽł ìĬµëĭĪëĭ¤
ĠìĦľ ë²Ħ
Ġì§Ģ ìĿĢ
Ġbecom ing
I MP
Ġtransp arent
íķĺìħ¨ ìĬµëĭĪëĭ¤
Ġê·¸ ëĮĢ
Ġz one
ĠW ater
ì¶Ķ ëĬĶ
ê°ģ ì¢ħ
Ġrec ipe
ëĵľ ìĻĢ
ĠìĽĶëĵľ ì»µ
ìĽĢ ìĹĲ
s ys
ĠëĤĺìĻĶ ìĬµëĭĪëĭ¤
ë¬´ íķľ
Ġê ¶
Ġsust ain
ëĮĢ íķĻìĽĲ
ĠJ er
N odes
Ġë³´ ìķĺìĬµëĭĪëĭ¤
clud ed
Ðµ Ð½
ĠAN Y
Ġcon figure
ĠìĥĪ ëģ¼
Ġë¹¼ ìķĹ
Ġì·¨ ìķ½
k top
ìĿ¸ ëĭ¹
Ġvisit ors
Ġìĥģëĭ¹ íķľ
ìĺ¬ ë¦¬
gener ated
d iff
Ġìĺģ ìĽħ
ĠìĿ½ ê¸°
ì§ĢëĤľ íķ´
pre v
ĠìłĦ ëĤ¨
99 9
P ress
Ġë³´ ìĭľëĬĶ
Ġbe ach
AL SE
íĺĪ ìķķ
pos al
ëĭ¤ìĿĮ ìĿĢ
he mat
ë¯¸ íķľ
ìķĮ ìķĦ
ìŀĪ ëĦ¤ìļĶ
y r
âĶģâĶģ âĶģâĶģ
urs day
12 4
head ers
ĠGl obal
ag r
Ġl ose
Ġreli able
Ġíľ´ ê°Ģ
Ġsub set
C B
ç Ĳ
ĠíĮ¨ íĤ¤ì§Ģ
Ġth r
ĠS al
é ¡
Ġë¯¸ ìĨĮ
Ġëĭ¨ ìĿ¼
Ġê¶ģê¸Ī íķľ
Ġìłķ íķĺëĬĶ
ãģ Ĥ
ë¶Ī ìĿ´
Ġinde ed
Ġsee k
f old
ë¡ľ ê±°
Ġdi et
Ġmax im
ë¯ Ģ
ĠëĳĲ êº¼
p ot
at tributes
Ġê°Ģì¡± ìĿ´
Ġpar allel
Ġëĭ¤ ëħĶ
ĠíķĺëĤĺ ìĿ¸
ìģĺ ê²Į
Ġë°ľíĳľ íķľ
ë³´ ëĤ´
lap se
ìĿ´ë²Ī ìĹĶ
ĠìķĬìķĺ ê³ł
ìĪ į
let on
ìĬ¤ íħĶ
prot ected
ig ital
ĠìķłëĭĪ ë©ĶìĿ´ìħĺ
ul ator
Ġê°Ī ìĪĺë¡Ŀ
ìĺ¨ ìĿ´
iver se
Ġê°ķ ë¦ī
Ġì¢ħ ìĤ¬
a ud
! ?
ìŀħ ìŀ¥
Ġìłķ ìĽĲ
fil ename
le e
Ġíı¬íķ¨ ëĲĺìĸ´
Mult i
ì§Ģ ìĤ¬
Ġcalcul ate
íķĺ ì§Ħ
íİĺ ìĿ¸
Ġsize of
ê³± ì°½
íĺĳ ëł¥
app y
\ _
ĠB MW
plic ated
ĠëĪĦêµ° ê°Ģ
Ġìłľ ìķ½
Ġë§ī ìķĦ
ìĹŃìĭľ ëĤĺ
Ġp aram
Ġì¸¡ ë©´
ê¹ ľ
ĠR ich
ë°± ìĿĦ
ĠëĤ´ ìŀ¥
ĠìĤ¼ìĦ± ìłĦìŀĲ
Ġcirc um
ĠìĤ¬ê±´ ìĿĦ
Ġgener ic
Ġl abor
Ġvol unte
end or
m ic
Ġë¨¹ ìĹĪëįĺ
ìĦłìĥĿ ëĭĺ
F inally
ë¬´ ìĹŃ
Ġê³Ħ ì¢Į
ĠC am
Ġë³¶ìĿĮ ë°¥
Ġat mos
ì· Ħ
ê¾¸ ë¯¸
Ð ²
ìķĪ íĥĢ
íķ´ ìĸĳ
ë¶Ģ ì²ľ
ìŁ Ī
ìłĪ ìĿĦ
ë¬´ ëĬĶ
Ġê±°ê¸° ìĦľ
ad y
S eg
ĠReg ister
Ġì§Ģ ëĬĶ
16 5
ĠìĽĲ íĶ¼ìĬ¤
Ġad vent
Ġë³´ ê¸ī
ĠíĻĶ ìĦ±
ish er
Ġê·¸ëłĩ ì§Ģë§Į
Ġìľł ëıĻ
ollow ing
ëĦ ¨
ĠTex as
ìĹ°íķ© ëī´ìĬ¤
æľ ¬
ĠS ec
ìłĲ ê³¼
Ġê´Ģê³Ħ ê°Ģ
ìĥģ ëĮĢ
íļĮ ê³Ħ
ë³´ ì§Ģ
@ "
Ġcont ents
ĠSt ar
Ġ" ,
Ġì¶ľ ìłĦ
ĠìĦ¬ ìľł
ĠíĮĲë§¤ íķĺëĬĶ
êµ¬ ê²½
íĨµ ê³Ħ
íķ© ê²©
Ġê°Ģê²© ìĿĦ
ĠìĥĿ ëŀµ
Ġìĸ´ë§Ī ìĸ´ë§Ī
Ġë§Ī ìĬ¤íĦ°
Ġëª¸ ìĿĺ
Ġsur g
ìłĢ ê·Ģ
Ġf ans
ĠIt s
ĠìĿ¼ ìŀĲë¦¬
çĶ ¨
Ġê³ł ë¥´
org an
ë¶Ģ ëĵľ
Ġe ase
ìľ¼ë¡ľ ë§Į
êµ¬ ìĦĿ
S che
ë°° ëĭ¹
Ġle aving
Ġì§Ģìłģ íĸĪëĭ¤
Ġfl ags
ĠB oth
ë¹Ħ ê²Į
C ap
ĠìĿ´ ë²¤íĬ¸ë¥¼
ĠO K
ìĹ £
fort unately
ëĵ¤ ìĿ´ëĭ¤
Ġë°°ìļ° ëĬĶ
Ġë¶Ħ ëĭ¹
R R
=" ${
ch art
ual ity
ur a
com pl
Ġabsolut ely
Ġyield s
ĠìĹ¬ ê²¨
ì¡° ëĬĶ
Ġê½ĥ ìĿĦ
ĠN ext
ĠíĥĪ ì¶ľ
ĠìķĮìķĦ ë³´ê³ł
R oute
Ġì¢ĭ ëĭ¤ëĬĶ
ë§¤ ìļ´
ĠíĻľ ìĦ±
íıī ìĿĦ
Ġcre am
g ment
ìĵ° ëĬĶ
ĠìĨĮê°ľ íķ©ëĭĪëĭ¤
Ġë¹Ħíĸī ê¸°
ĠíĮ ½
ĠíĺĦ ìŀ¥ìĹĲìĦľ
ëĥĲ ë©´
ê°ķ ìķĦì§Ģ
ST ATE
Ġ" -
ë° ĭ
ron ic
ĠIn s
ĠëĶ± íŀĪ
íĸ Ħ
Ġcent re
nd ef
ĠëĦĵ ê³ł
ĠP ress
Ġbeaut y
C ar
ĠíĹ¬ ìĬ¤
ĠìĦłíĥĿ íķł
Î ±
Ġë¶Ģ ëĶª
Ġìķ µ
ĠL android
ìĹ¬ ìķ¼
ĠíĥĿ ìĭľ
Ġíķľ ì°½
ìĤ¬íķĻ ìľĦ
Sim ple
Ġfab ric
Ġcar ried
íĸī ìľĦ
ìĶ ½
ë°ľ ìĥĿ
Ġìŀ¥ ì¹ĺ
Ġë°° ëĭ¹
ë¶Ħ ëĵ¤ëıĦ
ĠíĬ¸ ë¦¬
build er
ĠìĿ´ë²Ī ìĹĶ
íĺĦ ëıĻ
Ġìĭł ìĦ¤
ĠRes ource
Ġëªĩ ëªĩ
ê´Ģ ë¦¬ë¥¼
ĠS ign
Ġclaim s
M ut
en ess
Ġr ough
ì¿ ¼
Ġë°© ì¹ĺ
Ġì£¼ ìĭľê³ł
ifi ers
ĠìĦłë¬¼ ë¡ľ
Rep ository
Ġang ular
Ġp refix
fer red
Ġì£¼ìŀ¥ íĸĪëĭ¤
ĠMus ic
Ġì½ ¤
Ġra ised
) ^{-
Ġ= \
v c
Ġê± į
Ġart ist
ĠìłĦ ë¶ģ
Ġìį ©
ĠíĹĪ ëĿ½
S ync
ĠCom mit
ĠA tt
Ġê°ķ ìĽĲ
Ġmil itary
ĠM S
ĠW AR
Ġs ides
ìĪĺ êµ¬
Ġex ceed
ĠP A
ĠB E
íķĻ ìĿĺ
Ġíķľë²Ī ìĶ©
Ġbu ck
Ġexecut ion
é Ł
Ġìº ĺ
fol io
Ġì§Ģ ìĹ°
14 5
ëİ Į
ex pect
Ġëªħ ìĺĪ
Ġìľł íķ´
Ġap art
ìĿ´ ê¸°ìĹĲ
ĠT wo
ĠìĨ ľ
Ġìłķì¹ĺ ìłģ
Ġ ï¼
Ġì¡ Į
Ġb in
ĠëĴ¤ ë¥¼
Ġì§Ħ ì§Ģ
l ife
ĠA ccess
| |
ig r
ê¼ ½
ê¶Į ë¦¬
ĠS pecial
il ib
At tr
ë°ĺ ìĿĦ
ex pr
Ġìŀł ìĿ´
ĠíĥĢìĿ´ ìĸ´
ê³¼ ìĿ¼
ĠH all
ĠìĹħê·¸ëłĪìĿ´ ëĵľ
Ġë§ŀ ê³ł
Ġìĺ¬ëĿ¼ ê°ĢëĬĶ
ĠAr g
Ġag ents
ì§Ī ìĿĢ
Ġre tail
íĺ Ķëĭ¤
ĠMed ia
ë²Ī ê¸¸
Ġíıīë²Ķ íķľ
ff ff
ìĥī ìĥģ
ìľł íĨµ
ãħ £
į ½
ĠìĿ´ ëĭ¬
Ġíı¬ íķŃ
ic ity
ìľł ì¹ĺ
rem ark
Ġë³Ħ ëıĦë¡ľ
Ġì¡° íĻĶ
Ġìĭľ ìŀ¥ìĿĢ
ĠPro duct
Ġden otes
Ġw ww
Ġc row
ìŀĲ ìŀ¬
Ġsc r
ĠTh om
ĠìłĦ ìĹĲëĬĶ
Ġíķ´ íĶ¼
ê°Ģê²© ìĿ´
ĠìķĬìķĺ ìĸ´ìļĶ
ĠìĿ´ê³³ ìĹĲìĦľ
ìŀĲ ìĦ¸
ĠìķĬ ìľ¼ë©°
Ġìķħ íĻĶ
Ġdes c
m al
ìĭľ ì½Ķ
è ĥ
z ip
ner gy
t ik
ì¹ĺ ë§Į
ĠëıĻ ìĽĲ
Ġíĺ¸ ê¸°
Const ants
ĠíĴ ĢìĿ´
Ġê³³ ëıĦ
ĠìĿĺë¯¸ íķľëĭ¤
ìŀĳ ìĦ±
ĠíķĻ ë¶Ģëª¨
Ġíķĺ ê²łëĭ¤
ĠìĨĮ ìŀ¥
ĠíļĮ ê³Ħ
Ġíķĺ ë°ĺê¸°
, $
w orld
s ample
Ġconcern s
ob e
Ġr at
Ġì¡´ìŀ¬ íķĺëĬĶ
ĠìŀĪìľ¼ ëĭĪê¹Į
Ġthous ands
ìĸ´ ì§Ģê³ł
iter al
ìĿĺ ìĤ¬
ĠëıĦ ëįķ
ë°Ģ íķľ
íķ´ ëĵľë¦½ëĭĪëĭ¤
ĠìĿ´ ì§Ģ
Ġê¶ģê¸Ī íķĺìĭł
íĻĶ ë©´
Ġìĺ¤ ìħĶìĦľ
Th us
d ialog
Ġevent ually
ìŀ¬ ìĤ°
ë©Ķ ìĿ¸
Ġìŀħ ìŀ¥ìĹĲìĦľ
Ġw rote
Ġë¶Ħ íķ´
Ġscen ario
Ġe gg
Ident ifier
ist ical
âĦ ĥ
enc ing
ĠChrist ian
íĸī ëıĻ
Ġìĥ ·
Ġar m
Reg istry
ç µ
Ġsatisf ied
ĠìķĪ ìĸĳ
Ġìĭľê°Ħ ëıĦ
st orage
ĠëĮĢ ìĥģìĿ´
Ġhus band
Ġcontin ues
Ġìĥģ íģ¼
íħĶ ëłĪ
ail ability
Ġìĸ´ëłµ ì§Ģ
ìĹĨ ê³ł
Ġìĥĺ íĶĮ
ê²½ ìĹĲ
ë§¤ ìŀħ
Ġë¯¸ ìħĺ
ìĤ° ì§Ģ
Ġë°Ľ ëĬĶëĭ¤
ìŀħ ì£¼
Ġassum ed
Ġf reedom
íĮ ł
Ġëĭ¹ìĭł ìĿĦ
Ġíķ´ ë³Ģ
Ġteach er
; }
Ġì§Ģ ë¦¬
ĠìĬ¤íİĺ ìħľ
Ġl ux
Ġacc eler
ĠëĤĺëĿ¼ ìĿĺ
ê·¸ ê°Ģ
Ġì§ ł
Ġê³µ ì£¼
ĠëıĦìĭľ ëĿ½
ĠO p
ĠëĤ¨íİ¸ ìĿ´
U D
Ġexpl an
Ġc up
íķ´ ìł¸ìĦľ
Ġaccount s
p u
Ġê³łë¯¼ ìĿ´
Ġ rows
ĠíĶ¼ ìĸ´
ock s
ĠL ake
Ġtre ated
prot ocol
ĠìłĲ ìľł
Ġess ay
Ġìĺ¬ë¦¬ ë¸Į
ign ment
ĠìłĢ ì§Ģ
Ġì¢ħ ë¡ľ
Â ł
ĠíĤ¤ ì¦Ī
ĠĠĠĠĠĠĠĠĠĠĠĠĠĠĠĠ ĠĠĠĠĠĠĠĠĠĠĠĠ
Ġde b
Ġìĭľ ìŀ¥ìĿ´
íķĺ ëįĶëĿ¼ëıĦ
Ġê¶Į íķľ
ì£¼ì°¨ ìŀ¥
Ġë§Ŀ ìĦ¤
ĠëıĦ ìĦľ
Ag ent
ìĨĮ ë©¸
Ġë¯¸ ë£¨
ĠRe al
ĠìĹĨ ìĹĪìĬµëĭĪëĭ¤
L Y
ëĵľ ëł¸ìĬµëĭĪëĭ¤
TEX T
ĠìĪ ¨ìĸ´
Ġopt ical
ì²ľ ìĹ°
AD D
ìł¸ ìļĶ
ë²Ī ì¶ľ
Ġa f
Ġì¤Ģë¹Ħ íķĺëĬĶ
Ġimprove ment
Ġ= ========
ĠJ ames
êµ¬ ëł¤
Ġcan cel
b oost
n am
ëĶĶ ìĬ¤íģ¬
ate way
ìĿ´ ì²ĺëŁ¼
) }{\
ĠìĬ¤ íĤ¤
Ġknow s
Ġs outh
Ġì§Ħíĸī ëĲľ
Ġìĵ°ëłĪ ê¸°
ĠIs ra
) ->
ì¡° ìĽĲ
Aut hor
Ġë®¤ ì§ģ
âľ Ķ
." );
ab et
Ġdepend ence
Ġíķľ ë°©
Ġ[ ],
ĠìĻ ł
ĠëĤĺ ìĦ°ëĭ¤
íıī ìĿ¼
Ġ ãħ¡ãħ¡
Ġrot ation
poss ible
P refix
$ ^{-
ĠìĹ ½
Ġì§Ģ íľĺ
k t
ĠëĪĪ ë¬¼ìĿ´
ìŀĲ ê·¹
ìĬ¤íħĮ ìĿ´íģ¬
ĠìĦłíĥĿ ìĿĦ
if def
ĠìŀĪìĿĦ ì§Ģ
ë¯¸ ëħ¸
ĠìĿĺ íķ´ìĦľ
íĮĮ ë¦¬
W rapper
Ġì ¯¤
ìĬ¤íĬ¸ ë¡ľ
ëĭµ ëĭĪëĭ¹
ìĶ ĢìĿ´
Ġc odes
ĠìĿ´ ë¥´ëĬĶ
ĠìĪĺ ì¹ĺ
ìĿ¼ ìĤ°
Ġsc roll
Ġresid ents
op ed
Cl uster
ëłĮ íĬ¸
ë©Ķ ìĿ´íģ¬ìĹħ
ëķ ¡
Ġëĭ´ ë°°
Ġê±´ê°ķ íķĺê²Į
ĠL ine
Ġê³³ ê³³ìĹĲ
Ġcandid ates
ìŀĪ ìľ¼ëĭĪ
Ġê³ł ìŀ¥
ì²Ń ìĿĢ
Ġshe l
Ġcas ino
TI ME
j ango
ê±± ìłķ
ĠìĿ´ ê²ĥëıĦ
ãĢ ī
Ġê°ģê°ģ ìĿĺ
Ġ&= &
Ġan c
ìĭł ëŀĳ
ues day
Ġcour ses
Ġíĭ° ìħĶì¸ł
Ġb ird
ì¶Ķ ìĸ´
Ġcomput ation
ĠìŀĪ ì§ĢìļĶ
ë³´ ìĭ¤
Ġd ram
ĠíĥĦ íĥĦ
anc er
ĠRe act
ëĭ¤ ì§Ģ
Ġê¸°ëĮĢ ê°Ģ
Ġë¶Ģëĭ´ ìĿĦ
2 13
ĠíĶĦëłĪ ìŀĦ
Ġë¬¸ìłľ ìĹĲ
Ġìĭ¬ íķĺê²Į
Ġë¡ľ ë§¨
g in
ìĽĢ ìĿĢ
ëĦĵ ìĿĢ
Ġíķĺ ëŁ¬
ëŁī ìľ¼ë¡ľ
Ġë¦ ´
Ġsubst ant
sh all
Ġìĸ¸ ëįķ
ëĥ Ħ
Ġsing ular
as ets
Ġìĭľ ëĮĢìĹĲ
l arge
Ġê´Ģ íķĺìĹ¬
Ġparticip ants
íĦ° ìĹĲ
ĠëıĦ ëĮĢì²´
p erson
ëĮĢ ì¤ĳ
Ġì¹ Ļ
Or ig
Ġem ph
ĠìŀĳìĦ± íķľ
Char acter
Ġìłľ ë°ľ
è ¾
ë§Ī ìĿ¼
Ġwor ry
Ġë¶Ģ ì±Ħ
ë©Ģ ë¦¬
ĠëĤĺíĥĢ ëĤ´
ĠëĶ± ëĶ±
Ġ ??
ĠíķĺëĬĺ ìĿĦ
Ġin structions
Ġìĸ´ì©Į ë©´
un ique
Ġlaw s
ĠY O
Ġfac ility
IT ION
Ġfund amental
ê¸ į
Ġë¬´ìĦľ ìļ´
Ġìĭł ì¤ĳ
pm atrix
ĠëĨĴ ê³ł
ser ial
ìļ° ë¦°
ĠìĿ´ìĥģ ìľ¼ë¡ľ
Ġb its
ìĩ¼íķĳ ëª°
íķľ ìĿĺìĽĲ
Ġíģ´ ë¦¬
ê³¨ ëĵľ
act ic
s pl
ĠëĶ ´
at ural
Ġë²ķ ìĿĦ
ë§Į ëªħ
arr ant
P op
Ġëª° ìķĦ
}^ *
astr ucture
Ġf ul
Ġì¤ĳ ìĿĺ
Ġë¬¼ ìĹĪëĭ¤
Ġë§¤ëł¥ ìłģìĿ¸
ìĥ¤ ë¸Į
Ġmet adata
Ġëĺĳ ê°ĻìĿ´
ìłĪ ë¡ľ
ĠF OR
J ust
Ġê¸°ìĸµ ìĹĲ
ĠìĭŃ ìŀĲê°Ģ
ëĤ¨ ëıĻ
Ġìłķ ì°©
B I
ìŀĶ ì¹ĺ
Ġë¹Ħìļ© ìĿ´
Ġë°Ģ ëł¤
f x
Dom ain
f i
ë¶Ģ ë¬¸
Ġ ],
ĠìĦ¤ ëĵĿ
ĠìĽĢì§ģ ìŀĦ
ëĿ¼ ë¯¸
Ġturn s
ĠíıĲ ê¸°
ê°ģ ìĿĦ
ê°Ħ ìŀ¥
íĨł ìļĶìĿ¼
Ġëĭ¤ ë¦¬ë¥¼
Ġìĸ´ ëĳł
íĮĮ ê°Ģ
Ġelectron ic
ê°ľ ë´ī
Ġout door
d one
Ġë°©ìĨ¡ ëĲľ
pro gress
ĠThe ir
ìĨĮ íĨµ
Ġê³µ ê³ł
y cle
ĠAfr ica
ĠíĶĮ ëĿ¼ìĬ¤íĭ±
ì¤ĳ íķĻêµĲ
) Â·
ëª¨ ìħĺ
$ $\
ĠìļĶ ê±´
Ġëª¨ë¥´ ì§Ģë§Į
Ġì£Ħ ë¥¼
Ġìłķìĭł ìĿ´
ĠRequ est
Ġcre ates
Ġë§ī ìĥģ
UR I
b c
ĠM ary
Ġìķ¡ ìħĺ
ìĿ¸ ìĬ¤íĥĢ
Ġë§ĮëĤĺ ê³ł
ìĿ¼ ìĥģ
ë£¨ ë¯¸
ìļ° ìĻĢ
Ġenvironment al
Ġê¹ ¨ìĸ´
ĠP ath
Ġp roud
Ġìĥī ìĿ´
Eng ine
17 5
Ġaff ected
íĻĶìŀ¥ íĴĪ
Ġtrans l
Ġë³¸ê²© ìłģìĿ¸
Ġìł Ĭ
Ġreason able
ìķĪ ìłķ
ĠëĤĺëĪ Ķ
Ġca uses
\| _{
ë¹Ħ ê³ł
c ert
Ġíķľë²Ī ëıĦ
S he
Ġs ounds
ys ical
ìłľ ìĿ´
Ġê¸ī ëĵ±
Ġë§¤ ëł¥ìĿĦ
uck et
Ġ ).
è ²
ĠëĿ¼ ìĿ´íĬ¸
[ (
ĠìĹ¬ìĦ± ìĿĺ
um ps
ìĭł ëĭ¤
Ġtr uck
ĠíĺĦ ìĥģìĿ´
Ġì¶Ķ ìļ´
Ġj ournal
ĠëĤ¨ ìĿĦ
ï½ ŀ
Ġpro xy
Ġë¹Ľ ìĿ´
ì§Ħ íķľ
Ġëŀ ©
Ġìĺ¨ ê°ĸ
)$ -
Ġíĸī ìĤ¬ë¥¼
w rapper
ë°ĺ ìĿĳ
Ġveh icles
Ġexpress ed
Ġë¹Ħìļ© ìĿĦ
» ¿
ĠíķĺìĹ¬ ê¸Ī
ìłĦ ê³¼
Ġíĺ¸ ìĨĮ
Ġìĸ´ëĳĲ ìļ´
ëª¨ ìĿĺ
ìĭľíĤ¨ ëĭ¤
pon ential
Ġ: -)
ĠêµĲ ìłķ
Ġt ight
ĠDirect or
ë±ħ íģ¬
ìį ¸
é ł
ëª¨ ë¡ľ
ëĭī ìĬ¤
mon th
ĠíķĦìļĶ íķł
êµĲ ë¥¼
Ġpl astic
ĠìĿ¸ ìłĳ
com es
ë°´ ëĵľ
Ġìķł ëĵ¤
Ġë°ĸ ìĹĲìĦľ
Ñģ ÑĤ
P lay
ìĹĪ ëįĶëĭĪ
Ġve get
ìķĺ ìĿĦ
ex ecute
Ġë¶Ģ ìľĦ
Ġconstruct ed
ĠF A
ĠM aster
Ġclass ification
Ġìĺ¤ ëłĮì§Ģ
ĠE V
Ġintegr ated
ç ķ
ĠìķĪ ëĲľëĭ¤
ìĤ° ë¶Ģ
Ġfe es
ick en
Ġê³Ħ ìĭľëĬĶ
Ġê±° ë¦¬ë¥¼
ê±°ê°Ļ ìķĦìļĶ
ĠìĿ´ ìłķëıĦ
Com ment
ì§Ģ ìŀĲ
Ġì§ĢìĨį ìłģìĿ¸
W R
ì§ģ ìĹħ
Ġëĵľ ë¦¬ëĬĶ
D est
ĠC ong
j unit
Ġto w
ìĺģìĹħ ìĭľê°Ħ
Ġìłģ ê²Į
Th anks
Ġë§Ĳ ìķĦ
ìĪĻ íķľ
N amespace
sv g
ìĸ´ì© Į
ĠìĦ¸ê³Ħ ë¥¼
Ġëª© ìĤ¬
ĠìĨĮíĶĦíĬ¸ ìĽ¨ìĸ´
ĠA P
Ġbr ings
ëª© íĳľ
ìĥ ´íĳ¸
it ivity
Ġì°½ ìŀĳ
ĠìĿ´ ë§Į
IN FO
ì¹´ ëĿ½
Ġìłģê·¹ ìłģìĿ¸
ë§Ľ ëıĦ
ĠëıĻ íĻĶ
pro vider
Ġì¤ĳ íķĻêµĲ
Ġì£¼ ìĹĪëĭ¤
ëĮ ķ
Ġëĺĳ ëĺĳ
ë²Į ëłĪ
t v
it ar
Ġë°± íĻĶìłĲ
ĠëĤ¨ ìŀĲê°Ģ
Ġìĭľ íĬ¸
Ġìķ¼ ê°Ħ
~~ !!
ĠS ocial
ê²© ìĿ´
Q U
ìĤ¬ìĹħ ìĿĦ
Ġì£¼ ìľĦ
Ġp al
Ġre ject
ìĤ° ê³¼
ë¯¼ ì¡±
Ġtr ace
ĠOn line
us her
Ġíı ¼
Gener ator
C RE
t ags
ĠëıĮìķĦ ìĺ¨
Ġu i
ìł ¼
Ġbro ken
Ġíķĺ ëł¤
Ġìľ¡ ìĦ±
Ġag reed
Ġíĸī ìļ´
Ġìĭ¶ ëĭ¤ê³ł
ë§¤ ë¥¼
ĠP age
igh ter
ìĬ¤ ì¿¨
Ġë§İìĿ´ ëĵ¤
ìĦ± ëĬ¥
Ģ ëĵĿ
Ġt x
ëĳĲ ê¸°
ĠìĮĵ ìķĦ
ĠìķĪëħķ íķĺìĦ¸ìļĶ
}} ^
Ġì·¨ ë¯¸
ĠA ction
ì´Ī ì½Ķ
ëĦ¤ ìĹ¬
ĠF our
ãİ ŀ
ê°ľ íĺģ
ê¹¨ ëģĹ
ë§Ĳ ìĶĢ
ĠInt eger
Ġìµľê·¼ ìĹĲ
ë°ĶìĿ´ ëŁ¬ìĬ¤
ess or
Ġmark ets
Ġge ometry
t c
ìĿ¸ ì¤Ħ
Ġâĺ ŀ
ree k
ìĺĨ ìĹĲ
Ġpers pective
Ġì´Ī ì²Ń
Ġìĭľìŀĳ íķ´
Ġteach ers
Ġd ire
ì¤ĳê°ľ ìĤ¬
Ã ¶
ud es
ĠìŀĳìĹħ ìĿ´
Ġì¦Ĳ ê¸°ê³ł
Ġë¬´ ëłµ
ĠìĿ´íĽĦ ë¡ľ
ĠìłĦ íĽĦ
Ġst ellar
LO CK
E very
Ġn orth
Se lection
ĠL ocal
Ġê´Ģ ë¦¬ê°Ģ
} )$.
Ġì¶ķ ìĨĮ
Ġëį°ìĿ´íĦ° ë¥¼
ĠìľĦì¹ĺ ë¥¼
ĠìĿĺ ëıĦ
Ġìĸ´ ëĶĺ
ê¸Ģ ëĿ¼ìĬ¤
ëĭ¨ ê³¼
Ġë¯ ¹
ĠìĹħ ì¢ħ
Ġëĭ¤ ë¦Ħ
en abled
Ġspect ra
íİ «
íĦ° ëĬĶ
p an
Ġë³ĳ íĸī
ĠìĿ´ìķ¼ ê¸°ëĬĶ
Ġë°ĺ ì£½
Ġc ategories
íķ´ ê²°
ëĤł ìĿĢ
ìĪĺ ìľ¡
Ġval ign
ëł¬ íķľ
Ġë¹Ħ ì¹ĺ
16 8
Ġì½ĺ ìĦľíĬ¸
Ġìķ °
Ġì¤Ħ ìĿ´
ĠìķĮ ìķĺëĭ¤
ip age
Ġv ote
Ġdo ctor
Ġê°ĢìĬ´ ìĿ´
Ġingred ients
¼ ìĨĲ
Ġwebs ites
Ġb atch
íģ¬ ë¦¬
Ġë° Ń
col lection
rior ity
Ġcorre l
Head ers
serv ices
ê¸Ģë¡ľ ë²Į
or a
i us
Ġsu it
Ġíķľ ìŀħ
Ġë°©ë¬¸ íķ´
æ ¨
ë²ķ ë¥ł
ìĿĮ ìĿĺ
ë¹Ħ íĸī
Ġì§Ħ ìĭ¬ìľ¼ë¡ľ
ë¹Ħê²Į ìĿ´ìħĺ
. [
13 2
ĠìĦ± ê³¼ë¥¼
Ġìĥģ ë°ĺê¸°
Ġexc iting
ìŀ¬ ë¯¸
ĠT om
Ġì°¾ìķĦ ê°Ģ
Ġë°ĶëŀĮ ì§ģ
Ġë²Ī ìĹĲ
V B
ĠíķľêµŃ ìĿ¸
ëŁ¬ ìī¬
Ġnot es
t emp
ĠìłľíĴĪ ìŀħëĭĪëĭ¤
Ġë©Ķëī´ íĮĲ
u um
F ORM
Ġë§Ī ëķħ
Ġmat rices
ĠìĬ¤ íı¬
ìŀĲ ìłĦê±°
^{ +
ro le
ĠìĪľ ìĦľ
Ġve ctors
re du
ìķĺ ëĭ¤ê³ł
ì²ĺ ë¶Ħ
ë³´ ìĹ¬
18 4
ëĶĶ ìĬ¤
Ġex cess
ê°Ģ ë¦¬
det ail
ìļķ ìĿĦ
ĠìĨĮ ëıħ
D on
Ġëĭ¬ ëŀĺ
Ġìľł ìłĢ
ë°° íĦ°ë¦¬
og ram
Ġíķľ ê³Ħ
ĠTechn ology
íıī íĺķ
íķĺ ê²łëĭ¤ê³ł
P D
ĠíĻľìļ© íķł
ìĺģ êµŃ
Ġìĸ´ ì§Ģ
Ġnot ed
Ġêº ¾
Ġë©Ķëī´ ê°Ģ
ĠìĺĨ ìľ¼ë¡ľ
Ġê³µìĹ° ìĿĦ
Ġì°į ìĿĦ
index Of
Ġign ore
Ġis ol
nes day
ìľ ½
Ġê±° ìłĪ
ê°ķ ìĤ¬
Ġê°ĢëĬ¥ íķ´ìļĶ
Wh y
com plete
ill er
Ġform ed
ce an
ĠìĤ¼ ê°ģ
> ::
ĠìĽĮ íģ¬
Ġëı¼ ì§Ģê³ł
Ġìłķìĭł ìĿĦ
Ġê°Ļ ëĭ¤ê³ł
Dep end
ĠíķĺëĤĺ ë§Į
íĶĮ ëŀĢ
ĠíķĦìļĶ ë¡ľ
ëĭĲ ëĿ¼
Ġìĺ¨ ëĭ¤
ĠëĤĺíĥĢ ëĤ´ëĬĶ
i ences
Ġobject ive
Ġsymmet ric
ì§Ģ ìĭĿ
Ġì²ł ê±°
ê¶Į ìŀĲ
ĠTw itter
Ġå ħ
ĠìĦ¸ ìĥģìĿ´
ìŀ¡ ìĿ´
Ġëļľ ëł·
ĠìĿ¸ìĥĿ ìĿĺ
ble m
ëĬ ĳ
ëĲĺ ìĹĪëįĺ
ĠH ash
Ġëĸ¡ ë³¶ìĿ´
Ġíı¬ ìĿ¸íĬ¸ë¥¼
Ġf re
ĠëĪĦ ìłģ
ĠëĪĪ ë¹Ľ
Ġt v
g i
Ġëĵ± ëıĦ
ìķĪ ìĤ°
Ġì§ģ íĽĦ
Ġspec ify
ìĿ´ë¯¸ ì§Ģ
ĠM essage
ê²ĥê°Ļ ìķĦìļĶ
Ġì§ģ ìłĦ
ëł¹ ìĿĦ
ë²ł ìĿ´ìĬ¤
f ire
ĠìĨĮ ëħĦ
ĠìĪĺ ìĽĶ
Ġìľł ìĿµ
Ġíı¬ ìĬ¤íĬ¸
Ġtem p
Tr ace
ĠSe cond
ë¶Ģ ìĹĲìĦľ
Ġwalk ing
Ġex ecute
ì¹ĺ ê³¼
ĠìĦľ ì´Ī
tik z
ov a
ì¸µ ìĿ´
ìłĦ ì§Ģ
ri um
ĠIsl and
Ġê³ł ëĵ±
ìĽĮ ëĵľ
Ġì§Ħ ìĭ¤
ĠìĪĺ ëĭ¤
» ìŀİ
ĠíĮĮ ìĿ´
Ġpro port
ì Ń
Ġê¸¸ ìĿĢ
Ġs we
ë¦¬ ëĤĺ
b ot
ch anged
ê°Ĵ ìĿ´
Ġcontrol s
ê²½ ìĥģ
' ));
ìłģ ìĿ´ì§Ģ
um es
r ine
êµ ³
Ġê²° ìłķìĿĦ
ĠRe view
ëĭ¨ ìĪľ
Ġíİľ ìħĺ
ĠìĿ´íķĺ ìĿĺ
Ġëĵ¤ ìĸ´ìļĶ
Ġhy dro
íŀĮ ëĭ¤
ëĶ° ë¡ľ
ĠìłĦíĻĶ ë²Īíĺ¸
ĠìĤ¬íķŃ ìĿĦ
ì§ ¤
it o
Ġíķł ê¹ĮìļĶ
íĻį ë³´
tribut ed
ĠPro perty
Ġì§Ģ íĸ¥
Ġê±° ìĹĲìļĶ
ê³¼ ê±°
Ġë¶Ģ ê·¼
S ervices
ĠìĹī ëį©
ëĤĺ ê°ĢëĬĶ
Ä ģ
ë¯¸ ìĦ¸
ex ecut
Ġhead ers
íģ¬ ëĿ¼
Ġs elling
Ġte le
Ġinter act
Ġm orph
ĠL ord
ê¸°ê´Ģ ìĿĺ
Ġì»¨ ëĶĶìħĺ
Ġìłķ ì§Ģ
s uch
ì²Ń ì£¼
j i
ĠìĺĪìģĺ ê³ł
err ors
Ġëį ¸
Ġì¢ĭ ê²łìĸ´ìļĶ
de velop
Ġíı¬ ì¼ĵ
!! "
Ġd inner
âĢ¦âĢ¦ âĢ¦âĢ¦
V C
ĠB lock
Ġhosp ital
Ġì½Ķ íĮħ
íķ´ ìĺ¨
Ġ{ {
Ġë°Ķ ìľĦ
Ġì£¼ ë¦Ħ
Ġcomplex ity
Ġtast e
cknow led
Ġëĵ¤ ìĹĪìĬµëĭĪëĭ¤
ħ ìĭľëĭ¤
B ound
ë¶Ģ íĥģ
Ġê¹Ģ ìłķ
ì¶ľ ìĹ°
ĠS earch
ĠGa ussian
íħ Ŀ
ĠëĤ´ ìĻ¸
Ġd aughter
li k
ĠíĿ° ìĥī
Ġíķľ ëĪĪìĹĲ
ê°Ģ ì£½
Ġf avour
ĠìĹĨ ëįĺ
ëŁ¬ ë¸Į
Ġen v
ĠìķĦìĿ´ ëĵ¤ê³¼
ĠëıĻ íķ´
ĠM er
Ġbatter y
íĮ ľ
ĠS am
íķł ë¨¸ëĭĪ
ìĸ Ħ
Ġass istance
ĉĉĉĉ ĉĉĉĉĉ
Ġreplac ement
ìĿ¼ ê¸°
ĠHT TP
ĠA D
Ġê¸° ì°¨
ex tern
ĠìĽĮ íĦ°
prec ated
Ġshe ll
íĳľ íĺĦ
ìĿ¸ ëĵľ
Ġê´Ģëł¨ íķľ
Ġëª¨ìĬµ ìĹĲ
Ġìŀ¬ ëĤľ
test s
Ġê´Ģê³Ħ ë¡ľ
Ġìĥģ ìĿĺ
13 1
Ġìĸ´ëĬĲ ìĥĪ
ĠíĻĺ ìĥģ
Ġd anger
ëĳĲ ê·¼
Ġë¬´ ëĤľ
Ġsav ed
ì»¤ ë¦¬
ìª½ ìĹĲìĦľ
ìłĦ íĨµ
Ġìŀ¥ ë¯¸
ĠìķĦìĿ´ ëĵ¤ìĹĲê²Į
Ġë§ĮëĤĺ ê²Į
ist ant
Ġì¹ľìłĪ íķĺê²Į
ĠP DF
íĳľ ì¤Ģ
Ġì§Ĳ ìĿĦ
ĠRep ublic
ì§ ł
ĠëıĻ ìĸĳ
C re
ëĮĢ ëıĦ
ê·¸ ëŁ´
13 3
Ġì°¨ëŁī ìĿĺ
Ġë°ĶëĿ¼ ë©°
Ġë§Į ìĦ±
ĠTh ursday
Ġì±Ħ ìĨĮ
Ġdis abled
5 12
ì»¤ íĶĮ
æĺ ¯
il it
Ġrob ust
Ġíģ¬ ê¸°ê°Ģ
ip ped
Hel p
ĠNA ME
Ġrequest ed
Ġë¶Ģ ìĥģ
ê²½ ì£¼
Ġêµ¬ ë³Ħ
Ġf ederal
ĠC amp
Ġì§Ģ ê³ł
ëª© ìĹĲ
fl at
Ġm erg
ëŁ° ìĬ¤
ĠìķĪ íķĺê³ł
Ġê±¸ ìĸ´ìĦľ
íı¬ íķŃ
Ġ outer
Ġfor ces
Ġres et
Ġd ied
Ġfant astic
Ġìļ© ìĦľ
Ġsu gar
Ġë¨¹ ìĸ´ìĦľ
Ġlead ership
êµĲìľ¡ ìĿĦ
Ġ' <
Ġê¸°ìĹħ ìĿ´
ĠT or
J oin
ì²ł ëıĦ
Ġaddress es
ĠìķĦ ìĭľì£ł
Ġì½Ķ ë¦¬ìķĦ
Ġæ ľ
min ipage
Ġëĭ¤ ìĬ¤
ĠëĤļ ìĭľ
ëľ ¸
ë³´ ê²Į
ë°© ìĿĢ
Ġë± ĥ
ĠíķĻìĥĿ ëĵ¤ìĿĺ
Ġcoordin ate
~ $\
F LA
ìĿĦ ê¹ĮìļĶ
) --
ê³ł ìĤ¬
Ġë¶Ģë¶Ħ ëıĦ
Ġë§İ ì§Ģë§Į
Ġë§¨ ëĤł
ĠíĨł ëĮĢë¡ľ
FF FF
Ġcomp atible
at in
B ook
ĠëĨ Ķ
ing ly
ðŁĳ į
est ic
Ġì²Ń ì£¼
~ .
Ġaccept ed
Ġreg istration
ener gy
RE S
Ġend s
ĠìħĪ ìĿ´ëĭ¤
is er
æ° ´
Ġê±° ë¦¬ìĹĲ
ĠâĢ »
Ġb ought
ë¡ľ ë§Į
Ġìĭ± ìĭ±
ĠSer ver
Ġìĭ¶ ëĭ¤ëĬĶ
ĠíĹĪ ê°Ģ
cl uster
pro v
ĠìĥĿ ë¬¼
ĠFurther more
Ġour selves
15 5
ĠD I
ĠíķľêµŃ ìĹĲ
Pass word
êµĲ ìłķ
Ġê°Ħíİ¸ íķĺê²Į
)\ \
ë³ ķ
Ġë§Ī íĬ¸
ëł¹ ìĿ´
Ġhard ware
T otal
cc cc
ĠL and
Ġë¹Ħ ëĮĢ
ìĿ´ ê²ĥìĿĢ
map sto
Ġì²Ļ ì¶Ķ
Ġint ended
Ġres on
c uss
ĠìķĦëĭĪ ìķ¼
ìľ¼ ìħ¨
M r
w all
ĠìŀĲëŀĳ íķĺëĬĶ
Ġemb edd
in ator
Ġsp ending
Ġsk y
ĠìĺĪìķ½ ìĿĦ
Ġexpl ained
ĠìĬ¤íģ¬ ë¦°
Ġë²łìĿ´ ë¹Ħ
ĠPe ople
ĠìķĪ ëĲł
ĠìĿ´ë£¨ ê³ł
Ġë¸Į ëłĪìĿ´íģ¬
Ġê±° ëĭ¤
Ġart icles
ĠìĪ Ń
ìĹŃ ìĿ´
ĠìĤ¶ ìĿĢ
Ġstat istics
Ġac compl
íĤ¤ ì¦Ī
Ġtechn ologies
Ġlist ener
Ġê¹Ģ íķ´
ê²½ ëł¥
ìĭľ ì¯¤
12 6
ë¦Ń ìĬ¤
ì¹´ ëĿ¼
en able
ook ie
Ġre covery
ĠìĿ½ ìĿĦ
ĠëĤ´ ìĦ¸
Ġcheck ed
ìĥĿ ìĿ´
ìłľíĴĪ ìĿĦ
ur ations
Ġprior ity
Ġíķĺ ëĿ¼
ì¹´ ë¥¼
ê·¼ íķľ
Ġê°Ļ ì§Ģë§Į
Ġì¢ĭìķĺ ìĬµëĭĪëĭ¤
ì§Ģíķĺ ì²ł
Ġìĺ¤ ì§ķìĸ´
ì¶Ķ ì¶ľ
g roups
Ġappear ance
Ġë§Ī ìĤ¬
ëĵ± ê¸°
ĠëĶĶìŀĲìĿ¸ ìĿĦ
Ġtrans late
ĠëĬĲëĤĮ ìľ¼ë¡ľ
ìĭľ ìŀ¥ìĹĲìĦľ
) },
ach ment
ĠìĿ´ê³³ ìĹĲ
ĠìĹĨ ì§Ģ
ocol ate
Ġì¶© ëĤ¨
ê±¸ ë¦¬
Ġìĭľ ìŀ¥ìĿĦ
íķ´ ë³´ëĭĪ
Ġìĭ¤ ëł¥
ĠìĿ¼ ëŁ¬
íĭ° ì¦Į
Ġê·¸ëŀĺ íĶ½
Ġanim als
Ġfund ing
ĠíĸĪ ìĹĪëĬĶëį°
ì¡Į ëĭ¤ê³ł
íķ´ì£¼ ìĭľë©´
ìĭł ëĭ¤ë©´
ê°Ģ ë©´ìĦľ
6 50
Ġìĭł ìĦ¸ê³Ħ
êµ¬ ìĻĢ
ê³µ ìĭĿ
ĠíĶĮ ëŁ¬ìĬ¤
Ġë¬´ ê±°ìļ´
Ġcorrect ly
ĠG en
Ġb on
ìĤ¬ ìĿ´ëĵľ
Ġenjoy ed
Ġv ent
ĠìĦľìĦľ íŀĪ
12 9
Ġíı¬ íĬ¸
Ġë°ľ ìĨ¡
Ġhon est
> \
Vol ume
ìĭł ìļ©
m ass
Ġìľłê¸° ëĨį
ĠìĹĲ íĶ¼
Ġposs ibility
Ġìŀ¬ë°° íı¬
ĠëĲĺ ì§Ģë§Į
Ġë°Ķ ë¥´ê³ł
ĠìĽĲ ë£¸
ĠìłĢ íķĺ
ĠEn ter
ëıĻ ê¸°
Ġd ialog
Ġì§Ģ ìĿ¸
ĠëįĶ ëįĶìļ±
Ġë²ķ ìłģ
Ġëĭ¤ íķ´
ĠíĤ ¹
Ġdis trict
ìĦĿ ìĿĺ
ê½ĥ ìĿ´
L in
ë°© ìľ¼ë¡ľ
Ġpred iction
ìłĪ ëĮĢ
ĠìĿ¸ ìĩĦ
Ġìŀ¡ ëĬĶ
íķĺ ê¸¸
Ġê·¸ëŁ¬ ëĭĪ
Ġì§Ģ ëĤ¬
ì¤ĳ ìŀħëĭĪëĭ¤
Ġdepart ment
Ġco vers
ëĳĲ ë©´
ì¦Ī ëĭĪ
ë¨¸ ìĬ¤
ê²° ìĿ´
ê¼ ´
Ġprovid ers
Ġbund le
et ween
ãĢ Ĭ
Ġch air
ìŀĲ ìĿ´
ĠL ook
Ġìľł ëĮĢ
ë¯¼ì£¼ ëĭ¹
ë¹Ħ ë¹Ķ
ĠM il
Ġafford able
íĺ¸ ìĪĺ
ĠìĽĲ ìŀ¥
ĠComm ission
ê·¸ ë§Į
ì°¨ ëĭ¨
Ġê´´ ë¡Ń
ëĦĪ ë¥¼
Ġres erv
ìĽ ¹
Ġìµľ ìłģ
od ot
Ġst ability
Ġag greg
ãĤ ¹
Ġë¬´ ê²ģ
ìĤ¬ì§Ħ ìĿĢ
ê· ¤
ìĨį ìĿ´
íŀĪ ì§Ģ
let s
Ġtime out
The orem
ĠìĪĺ ê¸ī
Ġbus y
Ġload ed
Ġst ated
Ġìī¬ ëĬĶ
Ġpres ident
Ġtot ally
Ġrespons ibility
Ġserv ing
ìĦ¤ ìĿĦ
ìĬ¤ íĨ¤
Ġëĸł ëĤľ
ĠìłĦì²´ ìłģìĿ¸
Ġê±¸ ìĸ´ê°Ģ
az y
Ġíıī ìĨĮìĹĲ
Ġdes pite
ĠìĮĵ ìĹ¬
íķľ ìĿĺ
Ġê¸° íĺ¸
sc ill
Go ogle
Ñ ĩ
in em
ë©Ķ ìĿ´ëĵľ
Ġp ump
Ġjo ined
g ers
Ġc ov
Ġ il
ìłľ ìĭľ
Ġìĸ´ ë¨¸
ë³ĳ ìĿ´
Ġc le
F ree
ìĺ¤ íŀĪëł¤
ìĬ¤ ì¼Ģ
Ġtal ent
ìķ µ
Ġìķ ĵ
20 5
Ġê·¸ ìĻĢ
ĠëĲĺ ê²łìĬµëĭĪëĭ¤
ĠTr ump
ìŀ ¼
ĠíķĦ ë¦¬íķĢ
íİ¸ ìĿ´
m ag
Ġë°Ķ íĢ´
ER S
Ġíİ Ħ
ë³´ ìŀ¥
Ġaw esome
Ġal ert
Ġê¹ ĥ
Ġprov ed
Ġìĭľê°Ħ ê³¼
ĠíĹ ĺ
âĿ¤ ï¸ı
ĠìĿ´ ëĿ¼
Ġc ities
ìĿ´ ë¦¬
ìĹĪ ëĤĺ
Ġê±´ê°ķ ìĹĲ
Ġt on
Ġìĭľ ëĤĺ
Ġìį¨ ìĦľ
Ġë§Ī ë¬´
ëłī ìħĺ
par ser
ê» Ħ
ĠìĹ¼ ìĥī
ì£¼ ìļĶ
od ies
Ġì´Ī ëĵ±
Y es
Ġëĭ¤ëħĢ ìĺ¤
ë¡Ģ ë¥¼
ĠìĪĺìĿµ ìĿĦ
Ġap ps
in valid
ĠìĪĺ íĹĺ
ĠìĹ¬ ìŀĲê°Ģ
Ġrem ark
ìĽĲ íķĺëĬĶ
ĠìĪľ ìľĦ
ĠEx ecut
Ġê³łíĨµ ìĿĦ
ìľ¼ ìĦ¸ìļĶ
Ġê·¸ ëĵ¤
âĸ ³
Ġëĵ¯ ìĿ´
ĠìĺĪìĥģ ëĲľëĭ¤
ì¤¬ ìĸ´ìļĶ
ĠT ake
ĠìĤ¬ íĽĦ
tr l
Ġìŀ¬ë¯¸ ê°Ģ
Ġm ort
Ġì§ĢìĹŃ ìĹĲìĦľ
êµ¬ ìĹĲìĦľ
Ġë³´ìĿ´ ëĦ¤ìļĶ
è ³
ìłĦ ëıĦ
t body
Ġart ists
ĠìĪĺ íĻķ
% .
ĠìķĦ ë©Ķë¦¬ì¹´ëħ¸
iss ues
Ġcor porate
TR UE
p attern
íĺĦ ìĭ¤
Ġ' '
Ġim press
ĠA lex
ell er
ĠìĤ¶ ìĿ´
Ġgrad ient
Ġë³Ħ ëıĦìĿĺ
H ave
Î ¿
å Ĩ
Ġmod ules
Ġíİĺ ìĿ´
is ely
ĠìĿ¸ íĶĦëĿ¼
ĠíĹĪ ë¸Į
Ġmain ly
Ġëª¨ ëįĺ
ob s
ëĭĺ ëıĦ
pro position
ell a
Ġassign ed
ĠëıĮìķĦ ê°ĢëĬĶ
ĠìŀĪê³ł ìļĶ
ĠR ock
ìķĦë¦Ħ ëĭ¤ìļ´
und efined
Ð ´
T x
ê±´ ìĿĢ
ĠìĿ´ ë¡ľ
ĠC ard
Ġse ed
ĠAc adem
R AN
I X
ra wn
ĠìĤ´ ìĿ¸
pe at
t or
ì£¼ ê±°
ur ally
O ther
ĠìĨĮ ë¬¸
ĠìĬ¤íĬ¸ëłĪ ìĬ¤ë¥¼
Ġvalid ation
t ml
omorph ic
18 3
Ġì¡´ ì¤ĳ
Ġëª» íķ´ìĦľ
ĠìĿ¸ ìļ©
Ġd ining
ĠìĤ¬ìĿ´ ëĵľ
Ġwould n
e per
un ched
ĠìĹĦë§Ī ëĬĶ
Ġs ending
Ġdifferent ial
ìłķ ìĭĿ
ë¸Ķ ëĿ¼ìĿ¸ëĵľ
Ġëĵ¤ ìĹĪëįĺ
(' .
ĠMich ael
Ġì´Ī ë°¥
ĠSup port
own er
ĠEng land
ĠëŃĲ ìķ¼
ê°Ģ ëĵĿ
ìĪŃ ìķĦ
ib ilities
Ġì¹ĺ ìľł
ĠíĮĲë§¤ íķĺê³ł
Ġìľł íĺ¹
Ġìĭľ ìĥģ
- $
ê¹Ģ ë°¥
ì¿ µ
ë¹Ħ ëıĦ
ì¢ĭìķĦ íķĺëĬĶ
Ġê±´ ëį°
Ġpresent ation
Ġphen omen
Ġdet ected
ĠìĿ¼ìĸ´ ëĤł
ĠìĹĲ ì½Ķ
ĠìĦ¸ ìĥģìĿĺ
Ġë§ĽìŀĪëĭ¤ ê³ł
r g
Ġas sets
ê°Ģ ê¹Į
ìķŀ ìĹĲìĦľ
18 1
Ġext ensive
Ġì¶Ķ ìĦ¸
Ġr ide
ê³µ ìĿ´
Ġë¹Ħ ë¡ľ
G en
ì¹´ íĨ¡
Ġíĸīë³µ ìĿĦ
ìļ° ëĶĶ
Ġobserv ation
Ġì¶Ķ ìĽĮ
Ġorder ed
ãĦ· ãĦ·
Ġê±¸ ë¦¬
Ġëį° ìĿ¼ë¦¬
Ġìļ°ëł¤ ê°Ģ
art icle
Ġpl ate
ê³µ ì£¼
Ġêµ¬ë§¤ íķľ
ĠìłĲ ëıĦ
Ġput ting
ĠAd min
ĠSte p
Ġì§ ļ
Ġìļ© ìĤ°
ë§Ī ìĤ¬ì§Ģ
íĪ¬ ëį°ìĿ´
T wo
ĠR est
ĠCent ral
DU LE
ëıħ ìĿ¼
Ġsl ot
ìĬ¤ íĥĦ
nav List
G T
Ġìĸ´ ë¥´ìĭł
ĠìĪĺ ìļĶìĿ¼
ĠS ociety
F ramework
Ġë¬¼ë¡ł ìĿ´ê³ł
íĺľ íĥĿ
Ġê°Ģ ëıĻ
Ġì£¼ë¬¸ ìĿĦ
iss ue
fe ature
ag ement
ĠC as
ëĵľë¦´ ê»ĺìļĶ
ĠíķĺëĤĺ ëĭĺê»ĺìĦľ
ìĺ¤ ìĺ¤
ê²½ ìĿĺ
ĠìŀĲ ì¡´
Ġë°Ľ ìľ¼ë©´
ì§Ģ ìħĺ
Ġíķĺ ê¸°ëıĦ
ĠTe am
Ġtest ed
Ġman ual
Ġíķ´ ë³´ìĦ¸ìļĶ
Ġë§Ĳ ìķĦìķ¼
Ġëª «
N amed
n odes
\!\! \!\!
ê°Ĳ ìĿĺ
Ġë©Ķëī´ ë¥¼
Ġëĭ¹ íķ´
c lean
ëĵ± ëĵ±
U ri
ĠëĮĢ íķĻìĽĲ
Ġì§Ħíĸī íķł
H ome
ic ians
Ġst one
ê³µ íķĻ
ĠìĹ°êµ¬ ë¥¼
íĸĪ ìĿĮ
Ġêµ¬ì²´ ìłģìľ¼ë¡ľ
ĠìĨĲ ëĭĺìĿ´
ĠW ood
ëĲĺ ê±°ëĤĺ
ìłĦ ìŀ¬
ĠìĹĨ ì£ł
ê´Ģ ìľ¼ë¡ľ
ĠR ev
f ixed
det ails
ĠKore a
ĠGr and
Ġcollect ed
Ġìĸ¸ìłľ ëĵł
Re v
Ġë°´ ëĵľ
Ġplan et
Ġstre t
ĠìĦ¸ìĥģ ìĹĲìĦľ
ìŀħ ëł¥
ĠDown load
Ġê·ł íĺķ
ë¶Ħ ëıĦ
test ing
Ġì¹´ ìļ´
D irect
ê·¸ëŁ¬ ëĭĪ
Ġê³¨ ê³łë£¨
ë°Ķ êµ¬ëĭĪ
RE G
z ure
res ources
ëħĦ ë§ĮìĹĲ
Ġíĳľ ê¸°
ë¡ Ģë¡ľ
Ġcr ucial
ìŀĳ ìĹħìĿĦ
Ġíİ¸ íķĺê³ł
ìĪĺ ìłľ
ĠíĬ¸ ëłĪ
ĠT uesday
Ġdisplay ed
Ġp in
R T
ĠëĪĦ ë¥´ë©´
ê·¸ ê±´
f ound
ĠÂ ©
æĻ Ĥ
Ġt ags
Ġëĥ ł
Ġd ut
ĠD at
Ġíķĺ ê¸°ë¡ľ
ê·¸ ëĭĪ
Ġë¦¬ ì¡°íĬ¸
Ġíı¬ ìĬ¤íĦ°
r ich
ograph ic
Ġì¸¡ ë©´ìĹĲìĦľ
íķĺìĭł ëĭ¤ë©´
Ġconver gence
æĺ İ
ìĸ´ ì§Ī
ĠìķĬ ìĿĮ
An other
ĠìŀĪ ê±°ëĤĺ
Ġë³¸ ëŀĺ
Ġë¬¼ ë¥ĺ
Ġep is
B T
Ġê·ľëª¨ ê°Ģ
íĶ¼ íķ´
ĠìĿ´ëĤ´ ìĹĲ
ĠìĿ´ê³³ ìĿĢ
u ce
ĠEar th
µ ¸
Ġíħ Ķ
ìĿ¸ ê¸°
F i
Ap pend
ĠìķĬìķĺ ëĬĶëį°
ĠìķĪ ì¢ĭ
ìłĢíĿ¬ ê°Ģ
Ġreg ime
Ġë°© ìĭĿìĿĦ
ìħ Ī
Ġshe et
íļĮ ìłĦ
ub er
Ġì°¨ ëł¤
ĠS ource
ĠìĹ° ìĥģ
or ough
Ł ê°ĢëĿ½
ìĺĽ ëĤł
Ġëķħ ìĿĦ
Ġë§Ī ëĶĶ
Ġë¸Ķë¡ľê·¸ ìĹĲ
ĠëįĶ ìļ´
Ġìĭ¬ íĮĲ
Ġcomprehen sive
ê°Ģ ëıĦ
ĠìłĪ ëĮĢë¡ľ
Ġthought s
ĠëĤĺ ë§ĮìĿĺ
Ġë°° íĦ°
Ġtrad ing
Ġëĥ Ħ
Ġíķ´ ë¬¼
ëĿ¼ ë¥¼
ë¦¬ ìķĪ
ĠìĹ¬ê¸° ê¹Įì§Ģ
Ġ" (
ìķĶ ëıĻ
ĠíĸĪëĭ¤ ëĬĶ
çİ ĭ
ĠE lement
Ġëĵľ ë¦¼
ìĸ´ ëĿ¼
Ġsubstant ial
íĿ¬ ë§Ŀ
ĠìĹ ¿
Ġ ãĦ±
sh ared
ìĿ´ ëĵ¤
ç¥ ŀ
Ġëª¨ ë°ľ
ĠìĻľ ëĥĲíķĺë©´
Ġs port
íĿ¬ ëĬĶ
Ġíı¬íķ¨ ëĲľ
Ġm al
Ġcalc ulation
col Last
amp ions
ĠìķĪ ìĤ°
Ġì°¸ê³ł íķĺìĦ¸ìļĶ
" /
requ ired
Ġacc ident
Ġì§Ħ ì£¼
Ġany where
ĠM iss
Ġìĭľ ìłĲ
Ġcit iz
ĠëįĶìļ± ëįĶ
ĠíĻį ëĮĢ
user name
ìłĪ ìĿ´
ĠR ober
in ating
Ġì¶ķ ë³µ
Ġ? >
Ġrece iving
æĪ Ĳ
ĠT OP
ìŀĪëĭ¤ ëĬĶ
ĠìĿ´íķ´ íķĺê³ł
r ons
aj ax
ĠëĤĺ íķľíħĮ
Vert ex
az ine
ĠìĺģìĽĲ íŀĪ
3 80
ap pe
ĠD en
Ġìĺ¤ ë¥´ëĬĶ
ĠH ttp
Ġprom ote
Ġc art
ĠD uring
ĠíķĺëĬĶ ê²Į
Res ources
ĠìĦłìĥĿ ëĭĺìĿ´
O M
Ġas ympt
Ġì¢ģ ìĿĢ
è Ļ
ĠB er
ìļ° ì§Ģ
Ġê±· ëĬĶ
Ġë°ĺ ê°ĳ
Return s
$ ;
Ġloc ally
ë¹Ħ íĬ¸
ĠìŀĪ ê¸´
ie ves
chedul er
ëķĮ ê¹Įì§Ģ
ĠAd v
ĠíķĺëĤĺ ëĭĺê»ĺ
() </
ìĹŃ ìľ¼ë¡ľ
íĦ° ë¡ľ
Ġprom pt
ĠíķĦìļĶ íķĺëĭ¤ê³ł
ëıĦ ìĦľê´Ģ
Ġíķľ ë³µ
ĠìĦľ êµ¬
ĠP S
ì§Ģ ëĭ¤
ë¡ł ìĿĢ
ĠS ing
ĠP erson
Ġíķ´ ì¤Ħ
S ingle
C ert
ĠëĬĺ ìĸ´ëĤľ
66 6
\ {\
íĨł ë§ĪíĨł
ĠêµŃ ìĸ´
ĠìĦ¸ ê·ł
Ġëĵ¤ ì§Ģ
Ġlov ely
Ġend ed
Ġcharg es
ĠBe ach
time out
Ġtri al
}} ^{
ĠëĤĺìģĺ ì§Ģ
de p
ĠëĿ¼ ëĶĶìĺ¤
å İ
ëĤ´ ì§Ģ
put ation
u ages
ê°ľ ìĶ©
Ġweight s
C lear
íħĮ ëĭĪ
Ad min
Ġdiscover ed
re port
åĩ º
ç ¤
es ian
Ġê²ª ê³ł
ê¸°ê°Ħ ìĿ´
ë¬¸ ìľ¼ë¡ľ
Ġìŀł ìĭ¤
ĠìĨĶ ë¡ľ
ìĹ´ ìĩł
ĠìĺģíĻĶ ëĬĶ
Ġëĭ¬ ì½¤íķľ
Ġëįĺ ìł¸
ĠD iv
Â Ń
ĠOr gan
ĠT ri
Ġê°ķ ìĿĺë¥¼
Ġkind s
ĠìĿ´ë£¨ìĸ´ ìł¸
{ %
col lapse
Ġê´Ģëł¨ íķĺìĹ¬
l legal
m aven
ë³´ ì¡°
Ġcharg ed
Ġatt ached
ĠìĿ¼ ì£¼
Ġê´Ģ íķł
Ġíİ¸ ìŀħ
Ġì§Ģ ìĽĮ
Ġfam iliar
Ġas sembly
ë¦¬ì§Ģ ëĦĲ
ëĨĴ ìĿĢ
Ġìŀ ¦
Ġcalcul ations
">< !--
ĠV ir
Ġinsp ired
ĠìĤ¬ìĹħ ìŀĲ
ĠJ ew
ë¥ĺ ëĬĶ
Ġinj ury
Ġe ating
Ġëħ¸ íĽĦ
i ples
log in
ĠCon st
pro xy
g age
íķĺ ëĿ¼ëĬĶ
ĠìŀĲëıĻ ìľ¼ë¡ľ
Ġex pos
ĠìķĪìłķ ìłģìĿ¸
ë¯¸ ìĸ´
å ĸ
s b
Ġc md
Ġë°° ë¶Ģ
ĠCommun ity
Ġíİ¸ë¦¬ íķľ
ĠìķĦëŀĺ ìĹĲ
Ð ¼
EN SE
ĠR uss
Ġcon j
ëĤľ ë°©
ol a
Ġê·¸ëħĢ ë¥¼
ìłĦ ë§Ŀ
ëĤ¨ ìķĦ
Â ©
Ġë³Ģ íĺķ
íĴĪ ìľ¼ë¡ľ
ìķħ ìĿĺ
ĠëĤĺíĥĢ ëĤł
ĠW IT
Select ed
Ġfr uit
ìĬ¤íĭ° ë²Į
Ġrepresent ing
Ġì£¼ ìµľ
13 6
ãĤ Ī
ìľł ëĭĪ
Ġì§ĢëĤĺ ê³ł
ë§¤ ëıĦ
Ġrec all
Child ren
display style
Ġse at
Ġì½ §
ìĹ¬ ê¸´
Ġíı¬ ë¥´
íģ¬ ë¥¼
are n
å »
ìĤ° ìľ¼ë¡ľ
Ġexpert ise
ĠìĿ¼ìľ¼ íĤ¤
er ed
H C
ë§Įíģ¼ ìĿĢ
Ġë²Ħ ìĬ¤ë¥¼
Ġgalax y
Ġp m
Ġìłķë³´ ëĬĶ
ĠëĶ°ëľ» íķĺê²Į
Ġport ion
Ġâĺħ âĺħâĺħ
ĠìłĦ ë³µ
Ġíı´ ë¦¬
ëĵ¤ê³¼ ìĿĺ
Ġship ping
Ġë¶Ģ ìĦľ
ĠíĮ į
ëıĻ ìĺģìĥģ
Str uct
av ed
En ter
ìłĦ ë¶ĢíĦ°
ĠíıĲ ì§Ģ
Ġë°© ìĤ¬
ìĭ¬ ì§Ģìĸ´
h ref
A x
Ġen um
Ġsu ffer
Ġëĳĺ ëĭ¤
Ġìł ĵ
Ġê±° ì§Ģ
Ġmom ents
ilib rium
col First
ìłķ ì§Ģ
Ġag ency
Ġìĭľ ëĮĢìĿĺ
ĠLO G
Ġê²ĥ ìĿ¸ëį°
u pload
Ġë¸Ķë¡ľê·¸ ë¥¼
Ġuncertain ty
ä¹ Ł
ĠìĤ¶ ìĹĲ
ê²ĥ ìŀħëĭĪëĭ¤
Ġf uel
Ġíķ© ë¥ĺ
Ġê±° ì¹ľ
ĠW all
ĠëĶĶìĬ¤ íĶĮëłĪìĿ´
Ġwhen ever
íĮ¨ ìĬ¤
res p
Ġíģ´ ëłĮì§ķ
14 1
m ma
ĠS A
ìŀ¬ íĮĲ
Ġë¶Ħìķ¼ ìĹĲìĦľ
ëª¨ ëĭĿ
ĠìĨĮ ë©¸
Date Time
Ġpar ser
des ign
ëŀĮ íļĮ
ä¸ ĸ
ĠìłĦì²´ ë¥¼
ê±´ ìĿ´
Ġlog ger
ìłĢ ìŀĳ
Ġìŀħ ìĽĲ
íľ´ ìĿ¼
Ġëģ¼ ê³ł
ibr ation
ë°ĺ ì§Ŀ
Ġìĭ«ìĸ´ íķĺëĬĶ
ìķĦ ê¹Į
Ġë°©ë²ķ ìĹĲ
ì¼Ģ ìĿµ
ist ence
Ġì£¼ ìĭľê¸°
ê±° ìĭ¤
íĭ° ë¹Ħ
Ġì§Ģ ìĭĿìĿĦ
ĠëĿ¼ìĿ´ íĶĦ
ĠìļĶ ìĥĪ
ë°© íķĻ
Ġde bt
ĠìĹ¬ëŁ¬ë¶Ħ ìĿĺ
Ġê³¼ ìŀĲ
ĠíĥĢìĿ´ íĭĢ
Ġê¹Ģ ë°¥
ĠìĿĮ ìĦ±
ĠìĿĳ ìļ©
Ġcopy right
h an
ëĿ¼ìļ° ëĵľ
ê³¼ ìĹ°
ĠB o
C ategory
Ġëĭ¤ ìĪĺ
Ġìķł ë§¤
Text ure
ĠWed nesday
D ay
Ġë³µìŀ¡ íķľ
Ġtrans actions
k o
ĠS uch
ë°Ľ ì¹¨
Ġëĭ¬ ì½¤
ë¹Ħ ì¹ĺ
Ġtw ice
Ġnot ation
< !
ok en
ìĭ¬ ìĹĲ
Ġw arning
ê² ī
ĠìĥĿ ë¦¬
Ġ" $
Ġmod ify
Ġsw im
ëķ Ģ
ĠìłĦ ê¹Įì§Ģ
Ġìĥ µ
Ġíķĺ ìļ°ìĬ¤
)\ ,
Ġê³ł ëĮĢ
Ġde als
Pro gress
ëł¸ ê³ł
HT TP
ìĸ´ ë¨¸
ëĪ Į
Ġë¿ ľ
ĠB i
êµŃ ìĹĲìĦľ
ĠìĿ´ ìĬ¬
ĠëĮĢì²´ ë¡ľ
Ġcr is
ëıĦ ëĭ¤
ì£ µ
ì¿ł íı°
Ġê³± ì°½
ĠN Y
ê°¤ ëŁŃìĭľ
ĠìĤ¬ ëĥ¥
Ġfl ight
Ġë²ķ ì¹Ļ
ĠìķĦ íĶĦë¦¬ì¹´
Ġê°ĸ ì¶°
P F
ĠìĿ¼ìĸ´ëĤĺ ìĦľ
Ġë²ĦíĬ¼ ìĿĦ
Ġíļ¨ê³¼ ìłģìĿ¸
Ġopin ion
Sh ape
b les
Ġì°¨ ìĿ´ëĬĶ
ìŀ¥ ë©´
y cl
ë²ķ ê³¼
Ġê±¸ ìĿĮ
us ers
ë§ ĳ
ë´Ĳ ìĦľ
Ġperform ing
ĠìĪ¨ ìĿĦ
ĠìķĮëł¤ ì£¼
os es
ì¶ľ ë°ľ
Ġìķķ ëıĦ
ê³Ħ ê³¡
os ity
Ġê°Ģ ë³¼
ĠìĿ¼ ê¸°
Ġrg ba
ver ter
Ġíŀĺëĵ¤ ëĭ¤
Ġcl ock
Ġcomm itted
ìĿ´ íķľ
ĠìĬ¬ ëĿ¼ìĿ´
ê±° ëĭĪ
R ole
sec ut
å ĵ
ĠëĨĴ ìĿ´ëĬĶ
Ġì¢Į ì¸¡
sing le
Ġì²´ ì¤ĳ
Ġun ion
Ġfore ach
ĠíĸĪ ëĭµëĭĪëĭ¤
ĠìĤ¬ëŀĳ íķ´
Ġì§Ħ ë¡ľ
Ġtherm al
Ã §
Ġcom pliance
St ats
St op
Ġd ro
Ġsem i
ìĻĦ ìĦ±
F in
F low
s at
Ġëĭ¬ ê±Ģ
Ġë¶Ģ ê°ģ
all classes
ĠìĪĺì¤Ģ ìľ¼ë¡ľ
ìķĪ ê²½
semb le
Ġíķ¨ìľł ëĲĺìĸ´
Ġtop ics
ëķĮ ê°Ģ
Ġë¨¹ ëĬĶëĭ¤
Ġê³µ ìĭľ
Ġê´ľì°® ìķĦ
Ġëĭ¨ ì¶ķ
ĠM ex
ĠVal id
ìĦ¸ ê¶Į
ìłķ ë¥ĺ
Ġê²¬ ìłģ
Cl oud
sim ple
ĠC PU
am ely
ë²ł íģĲ
IN S
Ġìĵ° ë©´
Ġì§Ģ ê°ģ
Ġb oy
sum e
ì¡° ìĭ¬
ë°Ľ ì§Ģ
Ġê¹Ģ íı¬
m oz
ì± Ļ
Ġval uable
ĠìĬ¬ íĶĪ
S ql
t f
ìĤ¬ìĹħ ìŀĲ
ĠìĭľíĹĺ ìĿĦ
Ġë°ľíĳľ íĸĪëĭ¤
ìĹĳ ìĬ¤
íķ´ ëĵľë¦¬ê³ł
ĠL ou
ĠìĹ¬ ìĪĺ
íıī íĥĿ
v als
Ġin depend
Ġs ynchron
trans ition
Ġindust rial
ĠìĬ¤ ì¹´
Ġë°ķ ìĤ¬
Ġhand ling
con trib
ìľ¼ë¡ľìĦľ ìĿĺ
ìĿ¸ ìļ©
comp iler
Ġë§¡ ìĿĢ
ë® ¬
ĠìĿĺ ìłķë¶Ģ
Ġdr ag
ind s
Ġë°Ķê¿ Ģ
ëĤĺ ì§Ģ
ĠG ame
Ġan imation
íķĺ ëĬĲëĿ¼
¯ ë¶Ī
ĠK it
Ġìľł ëŀĺ
ëĲĺ ê¸°ëıĦ
ĠíĿĲ ë¦ĦìĿĦ
Ġë¶Ħ ëĵ¤ìĿĺ
ĠD A
ë¸Ķ ë¦¬
Ġm eta
Ġsp r
Vis ible
Ġê°Ķ ëįĺ
Ġpro ps
Ġcon version
Ġì²łìłĢ íŀĪ
Ġs enior
al i
ĠìľĦì¹ĺ ìĹĲ
Ġë§Ĳ ìķĺëĭ¤
P Y
ĠëıĮìķĦ ìĻĢ
w ild
Ġmark ed
íİ¸ ìĿĦ
ìŀĦ ê¸Ī
Ġì§Ģ íĳľ
Ġfoot ball
ĠìĥĿê°ģ íķĺì§Ģ
ëĵ¤ìĸ´ ê°Ģ
Ġcon clude
ëĵ¤ìĿ´ ëŀĳ
âĸ £
ĠN C
ë¶Ħ ëĭ¹
resent ation
Ġï½ ¢
ord ers
Ġpl ays
18 2
"" "
ë¥´ ëĭ¤
ĠíļĮ ìĤ¬ìĿĺ
p ull
Ġìĭ¤ ìĬµ
ìŀĪ ì§Ģ
Ġre ward
00 3
Ġì§ĢëĭĪ ê³ł
ĠìĦ¤ì¹ĺ ëĲĺìĸ´
íĸī ìĿ´
ĠëĤ¨ ê¸°ê³ł
ĠìĹĨ ìĹĪìĸ´ìļĶ
ë¶ ĵ
Ġcl ip
Ġì£¼ë³Ģ ìĿĺ
Ġìĸĳ ìĭĿ
ta ke
if ndef
ĠíĺĲìĿĺ ë¡ľ
ìĪĺìļķ ìŀ¥
ê² Ķ
ĠêµŃ ë¬´
15 2
M ask
b g
Ġìľ Į
ë²ł ìĬ¤íĬ¸
ĠF ood
Ġì¤Ģë¹Ħ ê°Ģ
ìĬ¤ íĬľëĶĶìĺ¤
Ġëª© ìļĶìĿ¼
og en
ĠX ML
ur ies
Ġì°į ìĸ´ìĦľ
br id
ìļ° ìĿĺ
Ġìĸĳ ìľ¡
ĠìĶ Į
Ġsp ac
Ġë°ľê²¬ íķľ
ĠìĿ¼ ì²´
Ġrefer ences
Ġê°ľ íĨµ
ĠìłĲ ìĿ´ëĭ¤
ĠGovern ment
ĠìĦ± ìŀ¥ìĿĦ
ëĲĺìĹĪëĭ¤ ê³ł
ê°Ģ ìĹĲìĦľ
14 2
Ġsurround ing
Ġb an
ĠY es
Ġë²Ħ ë¦°
íĦ°íħĮìĿ¸ ë¨¼íĬ¸
íĺĦ ìĿĢ
ME TH
ub ble
$ ~
Ġd raft
íĹ¬ ìĬ¤
Ġì§ ¬ë½ķ
ëĲľ ëĭ¤ë©´
Ġm ess
ëĳ ¡
ìķĦì§ģ ëıĦ
ìłľ ëª©
ìĹĪ ëĬĶì§Ģ
ëĭ¤ìĭľ íĶ¼
Ġwill ing
ĠìĿ¼ë¶Ģ ëŁ¬
w ater
íĶĮ ëŀĺ
ĠìłķëıĦ ë¥¼
ĠìĿ´ ëŀĢ
íĮ¨ ë¥¼
ĠOr ig
ist ed
am az
Ġë°©ë¬¸ íķľ
Ġm ental
Ġëĭ¹ìĹ° íķľ
Ġìĸ´ëĶĶ ë¡ľ
ĠìĿĺ ìŀĲ
Ġë§Ĳ ìĶĢìĿ´
Ġë³µ ìĽĲ
ĠìĥĿê°ģ íķľ
ë¡ł ìĿ´
Ġpriv acy
ë³´ ê´Ģ
B egin
Ġë°ĽìķĦ ëĵ¤
Ġìľłì§Ģ íķĺê³ł
ëĭ´ ë°°
ĠìķĬ ëĭ¤ëĬĶ
Ġìĥģ ìĨį
ìĥĪ ë¡ľ
Ġin vent
ĠìĤ¬ ìķ¼
Ġëħ¸ëł¥ íķĺê³ł
Ġinfin ite
ĠH ill
Ġëª¨ìĸĳ ìĿ´
ìŀĲ ê¾¸
omet imes
Ġtrans lation
Ġwatch ing
Ġê²½ ìĥģ
Ġë¯¸ ì¹ł
her ited
15 1
ĠHamilton ian
Ġìĭľ ë²Ķ
ĠìĨĮ ëª¨
ë¦¬ íķĦ
Ġê°Ħ íĺ¸
ìĿĺ ê°Ģ
U ST
ĠìĽĲ ê³ł
as ync
ìĤ´ ìķĦ
S ave
S equence
Ġread only
ë¶Ģ ëĮĢ
Ġìľł ìĤ¬íķľ
Ġê²ĥìĿ´ ì£ł
Ġquant ity
Ġre tain
ê³µ ìłķ
Ġê¸° íĽĦ
ext ension
Ġìĸ´ ì°¨íĶ¼
Ġìĭ¤ ë¦¬ì½ĺ
ist ing
Ġëħ¹ ìĥī
Ġr ig
ëĤĺ ë¦¬
ìĪĺ ëıĻ
Ġtext ure
Ġì¿ł ìħĺ
ĠF ire
ëª¨ ë¦¬
Ġìŀ¬ ë£Įë¥¼
gener ate
ĠíĨµ ë³´
ĠìĦł ì°©
Copy right
ìĬ¤ëŁ½ ëĭ¤
} &
ĠìĦ± ë¦½
Ġìĺ¤ ê¸°
Ġgood s
Im port
Ð° Ð½
Ġr is
ì¦Ĳ ê±°ìļ´
Ġclust ers
ê¸¸ ë¡ľ
En umer
Ġì£¼ë¬¸ íĸĪìĸ´ìļĶ
Ġ[ "
Ġdeliver ed
ĠAp plication
ìĽĶ ìĦ¸
ëĳĲ ë¥¼
Style ID
ãħĭãħĭ ãħĭãħĭ
ìĭĿ ê°ĦìĹĲ
ëĭ¤ ëĭ¥
Ġë¹Ľ ëĤĺëĬĶ
Ġ ĊĊĊ
ic ago
Ġìĸĩ ìĿĢ
ë°ĺ ìĹĲ
exp and
ĠëĦ¤ ìĿ´
Ġencour age
Ġë§Ī ìħĶ
ĠìŀĪëĬĶ ê²Į
Ġìľł ìłĦ
Ġc ivil
Ġë°Ľ ìķĺìĬµëĭĪëĭ¤
Ġnull ptr
ĠëĤĺëĿ¼ ë¥¼
Ġp sych
Ġde pos
ĠìĽĥ ê³ł
ĠíĸĪ ìľ¼ëĤĺ
Ġê° ļ
Ġacadem ic
ĠìĿ¼ ìłķíķľ
íķĺ ëĲĺ
iffer ent
Ġì²« ëĤł
h ave
ĠH O
ubl ished
ìĬ¤ íĳ¼
ë¸Įë¦¬ ëĵľ
Ġgraph s
ìĨ¡ ìĿ´
ìĽĲ ìŀħëĭĪëĭ¤
íĶĦ ëĬĶ
ĠíĬ¸ ëŁ¼íĶĦ
13 9
ìłĳ ì¢ħ
íĽĦ êµ°
Ġë¯¼ì£¼ ëĭ¹
ĠíĤ¤ ìļ°ëĬĶ
ìĿ¸ì§Ģ ëĿ¼
Ġin ject
ëıĦ ìłĦ
Ġëĵ£ ê¸°
g ame
ĠìķĦëŀĺ ìĻĢ
M ath
W ord
Ġtheoret ical
play er
é ¦
íĦ° ë¯¸ëĦĲ
Ġsign s
De legate
ëĭ¤ëĭĪ ëĬĶ
Ġë³ĳ ìĽĲìĹĲ
Ġìĥģ íķľ
clus ions
ĠA C
h bar
h l
ëĪĪ ìĿ´
ĠF ROM
ìĽĶ ìĿ´
íĮĢ ìĿĢ
Ġë½ĳ ìķĦ
op ic
ë°° ê¸°
ìĽĥ ìĿĮ
Ġì§ĢìĽĲ íķĺëĬĶ
Ġsal t
Ġëĭ¦ ìķĦ
Ġìĺ¤íĶĦ ëĿ¼ìĿ¸
Ġë¹Į ëĿ¼
Ġãħİ ãħİ
Ġê°Ħ ìłĪ
Ġëª° ëĿ¼ëıĦ
Th ank
íĥĿë°° ë°°ìĨ¡
Ġìĸ» ëĬĶ
ĠìķĦë¹ł ê°Ģ
OR Y
ê·¸ ë§Ī
C red
S V
Ġê¸Ī ìĨį
ĠAut o
ĠCl oud
? (
Ġo scill
al a
íķ´ì£¼ ìħĶìĦľ
Ġì¹´ì¹´ìĺ¤ íĨ¡
16 6
Ġë§ī ìĿĦ
ĠS W
æ ¥
ĠInst ead
ê³ł ìĸĳìĿ´
Ġcl imate
ìĿ´ ìĦľ
Ġê³µ ìĿĦ
ê·¸ëłĩ ëĭ¤ê³ł
ĠìĤ¬ê³ł ê°Ģ
Ġë§Īëł¨ ëĲĺìĸ´
r uby
ĠëĤĺìĻĢ ìļĶ
Ġë¹Ħ ëĪĦ
m ouse
Ġv en
Ġw rap
Ġê¹Ģ íĥľ
ĠëĮĢëĭ¨ íķľ
Ġcho osing
ë©ĺ íĬ¸
âĦ ¢
Ġd ict
15 9
Ġh ol
sc ss
ĠìĹĨ ìĹĪê³ł
ĠIn put
ì°½ ê³ł
Ġpass ing
ĠPro v
13 4
ìľł ì°°
Ġ ur
ìķŀ ìľ¼ë¡ľëıĦ
ĠëĪĦ ë¦¬
plic ate
Ġinstr ument
ì¹ľ ìłĪ
Ġsit uations
ìį¬ íĮħ
m ann
| _{
Ġ ion
Ġ ä¸Ń
ê¶Į ëıĦ
íķĺ ëĵ¯
ĠìĤ¬íļĮ ìĿĺ
or ient
(' /
Ġy es
íĺģ ìĭł
ìķĪ ëıĻ
ìľł íĺķ
ĠìŀĪìĹĪ ëĬĶëį°ìļĶ
Ġëĵ±ìŀ¥ íķĺëĬĶ
ë¡ľìĦľ ëĬĶ
Ġbul k
Ġê¸Ģ ìĿĢ
ìĿ¸ ê·¼
ĠD C
ìĤ¬ ê³¼
ëĭĪ ë°ľ
ĠìĥĿê°ģ ìľ¼ë¡ľ
ì¼ Ī
N ET
íĦ° ìĿĺ
ĠL ast
id ential
ĠìĿ´ ë¶Ī
Ġë§Ī êµ¬
ëłī íĬ¸
Ġbe am
Ġsuggest ed
Ġëĵ¤ìĹ¬ ëĭ¤
put er
Ġê²½ìļ° ìĹĲëıĦ
Ġì§Ģ ë¶Ħ
itut ion
S yntax
fl ag
om ent
ìħĶ ë¦¬
Ġpro jection
ģ ìĭ±
ĠìĿ´ ëªħ
ĠíıŃ íĴį
Ġë§¤ ì½¤
Ġdel icious
ĠìĿ´ìĿµ ìĿĦ
ìĻĢ ëıĦ
Ġê²½ ê¸°ê°Ģ
Re port
There fore
ĠC F
Ġìŀĳ ê°ĢìĿĺ
ìķĦë§Ī ëıĦ
ĠN on
Ġapp arent
Ġëĭ¤ íģ¬
ON G
Ġë¶Ī ìĿ´
Ġprinc iple
ìº ¬
ìłĢ ìŀĲ
ìľĦ ê¸°
im s
sl ice
ĠAp pend
Ġë¬´ ìĥģ
Ġìŀ¥ ìĿĦ
Ġëª©ìĨĮ ë¦¬ë¥¼
ĠCommit tee
ëĲĺ ëıĦë¡Ŀ
ìĪĺ ë¶Ħ
íķĺ ìĭŃëĭĪëĭ¤
Pro to
out s
Ġë§Į ìĿ¼
íĹ Ĳ
Ġgu ys
ok ed
Ġì¡° ì¹ĺë¥¼
Ġì°© ê°ģ
n i
ĠìķĪ ìĦ±
ap ed
ĠVal ley
ê³ł êµ¬ë§Ī
Ġsupport ing
ìķĦëĭĪ ë©´
w est
Ġë³´ íİ¸
ĠíĻĺ ë¶Ī
ĠëĤľ ë¦¬
ĠC lient
ê²Ģ ì°°
ìļ¸ ëłĽ
Ġt mp
Ġmass es
ë³µ ìĿĮ
M ost
Ġclos er
íķĺìŀĲ ë§ĪìŀĲ
Ġë§ĽìŀĪ ìĸ´
Ġinput s
Ġìī¬ ê³ł
Event Listener
ë§Ī ëĿ¼
Ġscatter ing
us hed
Ġê²© ëł¤
Ġë§¡ ê²¨
Ġf old
ĠìķĦìĿ´ ëıĮ
ìļ´ ëıĻìĿĦ
Ġìĥģì²ĺ ë¥¼
Ġindu ced
ĠìĽĲ ìĿĦ
ĠC ert
ëıĻ ìķĦ
d c
ĠW ho
Ġ ];
S ort
ê³ł ìĨįëıĦë¡ľ
ëĶ¸ ê¸°
ë°ķ ìĿĦ
AN CE
ĠF ull
ì§ ¬ë½ķ
ëª¨ ë°ĶìĿ¼
ĠíķľêµŃ ìĸ´
Ġcon tribute
íĥĢ ë¥¼
ĠB re
ĠëĳĲ ë¶Ģ
(' #
ĠS H
ymmet ric
ë² Ĺ
Ġê±¸ ë¦¬ëĬĶ
m k
ri an
Ġê°Ģê¹Į ìĽĮ
um s
ìĬ¤ ë°Ķ
ĠìĤ¬ ìľł
Ġsche ma
option al
Ġì£¼ ë¨¸ëĭĪ
ë²Ħ ë¦¬ëĬĶ
ĠìķĦ ëĤĺ
Ġmet rics
Ġë³´ ìĺĢ
ĠëĤ¨ ìĿĺ
Ġd a
Ġexplicit ly
ĠB oolean
Ġs pl
Ġìĭ¤ ë²Ħ
ë¬¸ ìŀĲ
ìĿ´ ëįĺ
ĠL oad
Ġn ic
ìĹĨ ìĸ´
ĠëįĶ ìĿ´ìĥģ
ĠI de
æĢ §
ìĭľ ìĹĲëĬĶ
êµĲ ê³¼
Gener ated
Ġcl im
ìĤ¬ë¬´ ìĭ¤
ëĵ¤ ìĹĪëĭ¤
ĠìĹ°ëĿ½ ìĿĦ
Ġê³łê¸ī ìĬ¤ëŁ¬ìļ´
Ġchalleng ing
ic ator
Ġcompet itive
Ġì°¨ ìĽĲìĹĲìĦľ
ĠìĽĶ ê¸ī
Ġì£½ ëĬĶ
ê³¨ ìĿĦ
Ġë§Ī ë¥´
Ġë²Ħ ëł¤
ê±° ëĭ¤
Ġìľł ë¡ľ
Ġì¡°ê±´ ìĿĦ
è Ń
ëĭĺ ëĵ¤ìĿĺ
Ġìķł ê¸°
C LASS
ĠêµĲíĨµ ìĤ¬ê³ł
Ġì¶ľ ìĦĿ
ëįĶ ìĬ¤
ìĻ łì§Ģ
ì¦Ī ëĬĶ
ĠíĻĶ ìļĶìĿ¼
} }$,
4 20
Ġì§Ģ ê°ĳ
Ġcomp r
âħ ¡
Ġì´Ī ë³´
Ġê°Ħ ìĿ´
ëĵŃ ëĭĪëĭ¤
ĠP et
ĠT oday
Ġê°Ķ ìĸ´ìļĶ
ìłľ ìķ½
ph ot
ĠUn ion
ĠìĹ¬ìľł ê°Ģ
s r
ĠìĤ¬ê±´ ë²Īíĺ¸
Ġì£¼ ìĸ´ì§Ħ
Ġìłľê³µ íķľëĭ¤
Ġìĺ¤ íķ´
B ind
L en
Ġtyp ed
ë§Į ëĵ¤ìĸ´
Û Į
Ø ±
ê³µ ê°Ĳ
it ative
ĠSe lect
ê±° ê¸°
ĠCol lection
Ġê²½ íĸ¥ìĿ´
Ġíĺ Ģ
ĠëĲĺ ëĦ¤ìļĶ
Ġsens itive
Ġfl uct
Ġ*** @***.***
ìŀ¥ ëĤľ
ilar ly
Ġcomplet ion
æ ¬
VAL UE
ì²Ń ìĿ´
^^ ;;
Ġsatisf ying
15 4
íĶĦëŀĳ ìĬ¤
aw n
ĠìŀĲ ìĤ´
Ġinvol ve
Ġshow er
ï¼ ī
ĠíĥĦ ëł¥
ĠìĿ´ ë³Ħ
ig ate
ĠìĦł ìĪĺê°Ģ
Ġëĭ¹ ë¶Ģ
15 3
Ġê°Ģ ìļĶ
ip her
End point
ìģ ł
ìĿ´ ëĭĪê¹Į
t k
êµŃ ë¦½
l ive
ĠìĤ¬ìĿ´ ë²Ħ
æĸ ¹
ìļ° ë©°
Sub s
p air
Ġint ellig
P air
æĿ İ
por ation
ê³ł ê¸°ê°Ģ
. ",
Ġë³¶ ìķĦ
ĠPr int
ê¹ Ĭ
Ġw arrant
Back ground
ãĤ ¤
Ġth in
Ġíĺķ ìĭĿ
ĠHot el
ĠëĨĵ ì¹ĺì§Ģ
ìĬ¤íĬ¸ ëĿ¼
ĠìĹ°êµ¬ ëĬĶ
f g
Ġbehavi our
ĠëĤĺê°Ģ ìĦľ
ìĺģ ìĿĺ
ëª¸ ìĿ´
Ġsh ock
ëĴ¤ ìĹĲ
ĠìĹ°ëĿ½ ì£¼ìĦ¸ìļĶ
Inter val
ask et
Ġrecord ed
ĠìĤ¬ ìłĦìĹĲ
av it
ëªħ íĴĪ
Ġê¶ģê¸Ī íķ´
Ġm ouse
ì±Ħ ìļ©
ìĿ´ ëŁ´
Ġconst ants
Ġgener ator
tr ace
ĠìĽĲ ìĿ¸ìĿĦ
Ġê¸° ê°Ģ
ì§Ħ ê³¼
Ġê±° ë£©
Ġê¸ī íķĺê²Į
ĠëĭĪ ê°Ģ
Ġinnov ative
Ġhold ing
Ġê³ł ìĨį
Ġíĸ¥ ìĿĦ
ĠìĥĮëĵľ ìľĦì¹ĺ
OO ST
Ġê±°ì§ĵ ë§Ĳ
ìĻķ ìĿĺ
n p
ĠF ort
ĠëĶĶ íħĮìĿ¼
in er
PO ST
Ġper mission
ìŀĲì¹ĺ ëĭ¨ì²´
Ġê³§ ë°Ķë¡ľ
Ġê°ĢëĬ¥ íķł
Ġfour th
ë¬´ ëĬ¬
ĠëĤĺ ê°Ķ
as sembly
th row
ëĳ ¬
ìĿ´ ë©´ìĦľ
ì¸µ ìĿĦ
ĠìĦľìļ¸ ëĮĢ
ë³ĳ ìĹĲ
ĠëıĻ ìĭľ
ĠëĤ´ ë¦¬ê³ł
íļ¨ ê³¼ë¥¼
Pl an
Ġë¨¹ ê²Į
ĠâĢ ¤
M icrosoft
ĠëĲĺ ìĦ¸ìļĶ
v ideo
Ġsuggest s
ĠëĤĺ ëŀĳ
ìĦ¤ íĥķ
Ġwin ning
s a
Ġl unch
St at
ë°ĺ ìĿĺ
íħĲ ëį°ìļĶ
Ġn om
ĠìĿ¸ ìĽĲ
Ġâĸ ¼
Ġ**** @****.***
ê·¸ ëĦ¤
ĠW il
ĠN et
Ġab und
Ġì¶© ëıĮ
Ġë§Ľ ëĤľ
ìĹ¬ ë¶Ģ
ìĸ´ ëĤ´
ðŁ Į
Ġclos ely
Ġê¹Į ëĭ¤
int eg
ĠW rite
ìĤ¼ ê²¹ìĤ´
ĠD istr
Ġëĭ´ ë³´
Ġì£¼ ëł¥
ë¶Ģë¶Ħ ìĿ´
Ġìĸ´ëłµ ê²Į
W ill
ìĺ¤ íĶ¼ìĬ¤íħĶ
ë³´ëĭ¤ ê°Ģ
Ġì§Ħíĸī ëĲĺê³ł
} }$.
Ġì¢ĭìķĦ íķł
Ġíķľ íĻĶ
ĠíĻĶ ìŀ¬
Ġê±° ì¹ĺ
Ġt it
ĠìĨĶ ë£¨ìħĺ
Ġpark ing
Ġìĸĳ ìĿĦ
ê°Ħ ìĿ´
S ch
Ġìĭľ ìķ¼
con sole
ë³¶ìĿĮ ë°¥
ìĿ´ ìĭľ
ë§Ī ëĭ¹
clos ed
Ĳ ¬
Ġë¯¸ ìĨĮë¥¼
Ġìħ °
Ġ( [
ìĭł ë°ľ
Ġì´Ī ëŀĺ
ëª¨ ë¥´
Ġë°ĶëĿ¼ ë³¸
Ġëıħ ìŀĲ
ĠS en
P H
ĠìĨĮ íĮĮ
Ġë¬¸ ìŀ¥
íĨł íĶ¼
Ġsum mar
Sh ort
not es
Ġìĭł ìĿĺ
ëĸ¡ ë³¶ìĿ´
ë§Ŀ ìĿĺ
ĠAs sembly
Sum mary
Ġcult ural
Ġ{ "
ìĤ¬ ê¸°
DE BUG
Ġì»¨ íĬ¸ë¡¤
check box
ëĬĲ ëĭĪëĿ¼
ìĤ¬ëŀĮ ìĿĢ
íģ´ ë¡ľ
ĠìķĬëĬĶ ëĭ¤ê³ł
Wh ere
E SS
ì¶ľ ìĿĦ
Ġpack ages
ĠíĬ¹ìĦ± ìĥģ
ê·¸ ëĮĢë¡ľ
ì§ĳ ëĭ¨
ìĹŃ ìĿĺ
ĠRem ove
d river
Ġìłķ íķľ
ê³ł ìļ©
is co
iss ions
Ġê¸ī ì¦Ŀ
h box
Ġê³¼ ê°Ĳ
ĠìķĪ ì£¼
ì§ĢìķĬ ìĿĢ
O L
Ġs ympt
ĠëĤĺëĪĦ ê³ł
res olve
Ġbe at
Ġê³µ ë¬´
ĠìĦľë¹ĦìĬ¤ ë¡ľ
ì¶© ìłĦ
og a
Ġíķľ ê²°
Ġìĭľìŀĳ íķł
Ġì§Ħíĸī ìĿĦ
ĠìĹ¬ ëĵľë¦Ħ
Ġì£¼ ìħ¨
agnost ic
Ġìĸ´ëĸ¨ ê¹ĮìļĶ
ê°Ģ ì¹ĺ
ìłľ ëĮĢë¡ľ
Ġprec ision
ëĿ¼ìĿ´ ìĸ¸
ĠìĬ¹ ë¦¬ë¥¼
ĠìĹ°êµ¬ ìĿĺ
íĸĪ ì£ł
Ġë¶Ħìķ¼ ìĿĺ
âĢ§ âĢ§
ĠZ e
con str
Ġte a
ad v
ê·ĢìĹ¬ ìļ´
Ġmagn itude
ĠìĽĲ ë£Į
ë³Ģ íĻĶ
S ec
/ (
Ġconsum ers
ĠìĺĪë»Ĳ ìĦľ
22 2
ê¹ ħ
Ġê³ł ëł¹
Ġvisit ing
Ġìĭł ë¹Ħ
Ġì§Ħíĸī ìĿ´
ĠìĿ´ìĸ´ ì§Ī
Ġed it
íı¬ ëıĦ
Ġì²¨ ëĭ¨
ĠD om
2 25
ĠíĿ ©
Ġwhere as
ry ption
Ġì²ĺ ë¶Ħ
S W
Ġperfect ly
Ġpr ime
ëħĦ ëıĻìķĪ
ĠëĲĺ ìĹĪëĬĶëį°
Ġdo ors
/ .
ĠìķĬëĬĶ ëĭ¤ë©´
ìļ° ì£¼
ì¤Ħ ìĿ´
ìĸĳ ëıĦ
th ere
Ġreal ize
spring framework
ĠâĹ ı
ult ane
Ġì¢ĭ ìĿĮ
P layer
ìķĦ ë¥´
const ant
ĠM anager
Ġliqu id
Ġì¤ĳìĭ¬ ìĿĺ
Ġë³´ìĹ¬ ì¤Ģëĭ¤
ĠìĹĦë§Ī ìĿĺ
íĮĮ ìļ°
Ġaccess ible
ìĪĺ ìŀĪ
Ġnecess arily
Ġë¶Ģ ì¶Ķ
ĠìĥĪ íķ´
ê³ł ìĸĳ
Ġíģ´ ë¦¬ìĸ´
Ġì£½ ìĿĮìĿĦ
ëĭ¬ ìĿĦ
ìĦł ê³¼
ĠëĵľëĿ¼ìĿ´ ë¸Į
or ry
ì¡° ëªħ
Ġë ·Ķ
) +\
} )$,
Ġíĳľ ìłķìĿĦ
Ġëħ¼ ë¦¬
Ġê°Ĳëıħ ìĿ´
Ġìŀ¬ ê±´ì¶ķ
re lation
Ġ[ \
Ġscal ing
Ġconduct ed
ìĦ¸ ì§Ģ
Ġë§Ī íģ¬
ê²Į íĭ°
ìĦ¸ ì²Ļ
ĠM ass
l ibrary
ogene ous
âĺ İ
Ġs au
im ated
Ġn p
ìłķ ê·ľ
Ġproced ures
Ġwall s
ìłĦ ëıĻ
ë¦¬ ì¦ĺ
ĠëĤ¨ ê¸°
ë°ĺ ë©´
oc aml
Ġíĩ´ ì§ģ
ĠìĥĿ ëªħìĿĦ
: [
âĢ ķ
ĠëĤ´ìļ© ìĿĺ
ĠëĲĺ ìĦľ
Ġë²Ħ íĭ°
ĠíĻĺ ìŀĲìĿĺ
ĠìĤ¬ì§Ħ ê³¼
con structor
ĠDistr ict
V ID
check ed
Ġn arrow
ĠCent re
ĠìľĦ ëĮĢíķľ
Ġw arn
ur ers
ìĿ´ ëĭĿ
ìĿ´ êµ¬ìļĶ
Ġask ing
ë²Ħ ë¦¬ê³ł
ëıĪ ìĿĦ
EE EE
() ))
ĠìķĦì§ģ ìĿĢ
Ġë¬» ëĬĶ
Ġt ip
ìĸ´ ê°ĢëĬĶ
iz on
Ġf older
ëĸ ¨
Ġì¹ľêµ¬ ëĬĶ
ĠìĦ¸ ìļ´
ë¹Ħ ìľ¨
ĠD NA
ĠA SSERT
an ish
ĠìŀĲìĹ° ìĬ¤ëŁ¬ìļ´
ĠìĪĺìĪł ìĿĦ
ĠìĦ¸ëł¨ ëĲľ
Int roduction
ë¸Į ëĿ¼ìļ´
Ġë³´ ëĥĪëĭ¤
ìĸĳ ìĿĢ
Ġì° Ķ
ĠìĤ¬ê±´ ìĿ´
êµĲ ìĿĺ
ĠFr ance
è »
ĠëĮĢì¤ĳ êµĲíĨµ
ĠìļĶ ë¦¬ë¥¼
M ove
ĠìķĬ ëĤĺ
æŃ £
Ġre con
ìĽĲ ìŀ¥
ì§ §
íļĮ ê´Ģ
Ġë³¼ ë¥¨
ĠìĽĥ ëĬĶ
Ġread ers
Ġëª¬ ìĬ¤íĦ°
ĠíĭĢ ìĸ´
plic ity
Ġengine ering
[ -
íĬ¹íŀĪ ëĤĺ
íĮĢ ìĿ´
ìķ ¨ë²Ķ
16 4
Ġì¶© ì²Ń
ìĿ´ ëŀĺ
Ġnuc le
Ġlink ed
íĺ¸ íĿ¡
ĠìĨĮ ìĿĮ
ìĹ° ê²°
ìĿ´ ê²ĥëıĦ
Ġcr yst
16 1
ors hip
vol ume
E P
r ift
ĠêµŃ ìłķ
Ġëį ´
ĠìĿ¼ ìłľ
ìĿ´ íķ´
Ġëªħ ìłĪ
Ġìłľ ìłķ
íĨµ ìĹĲ
ĠíĻķ ìĭł
Ġëĵľ ìħĶ
ĠìĪľ ìľ¼ë¡ľ
Ġs aving
ĠíĻĶ ìĿ´íĮħ
Ġdist ingu
Ġgir ls
Ġìłķì±ħ ìĿĦ
íļĮ ëĭ´
Ġì¤ĳ êµ¬
ë§ŀ ëĬĶ
ĠëįĶ íķ´
Ġtrans mission
Ġc riteria
Ġìŀĳ ê³ł
ëıĻ ìľ¼ë¡ľ
íķĺëĬĶ ê±°
Inst all
Ġë¶Īíİ¸ íķľ
ìį ©
ë°Ķ ìĤŃ
i ro
ext end
Ġlow est
ì²« ë²Īì§¸
Ð¾Ð ²
ëĭ¤ìĿĮ ëĤł
Ġselect or
Ġê¸° ìĥģ
ãģ ĳ
Ġsong s
and a
Ġíİ¸ ìĿ´ëĭ¤
ë¹Ħ ëĪĦ
ìĺ¤ ìĹ¼
ĠìĿ¼ìĥģ ìĥĿíĻľ
êº¼ ë²ĪìĹĲ
ĠìĪĺìļĶ ê°Ģ
Ġrefer red
åľ ¨
Ġtick ets
st ats
Ġê°Ħ ìĹĲ
e lem
Com plet
Ġbr ands
Ġstate ments
Ġì£¼ë§Ĳ ìĹĲ
ï »¿
Ġì§§ ê²Į
æ İ
ĠìķĦë²Ħ ì§ĢìĿĺ
ĠëĮĢ íıŃ
Ġìĭľ ê°Ģ
5 20
ĠO ld
ì¿ł ìķĦ
Ġê¸°ê°Ħ ìĿ´
Ġì²´ ëł¥
íĴ ĭ
ì½Ķ íĬ¸
ibr aries
ê°ģ ê°ģ
Ġìĭł ìĥģ
Ġë¹Ħ ì¤ĳ
ĠëıĦ êµ¬
INT ER
ìĿ¼ ê³¼
ĠìĥĿê²¨ ìĦľ
AR D
Ġìŀħ ìĭľ
ëī´ ìļķ
ĠìĿ´ ë£¬
ë´ī ìĿĦ
ìĿ´ê³³ ìĿĢ
ê²ĥ ë§Į
se q
Ġëĭ¬ ë¦°
Ġì§Ģ ìĺ¥
ĠíĻľìļ© íķ´
v o
íģ ĺ
s ome
Ġemploy ee
ĠìĹ İ
ĠìĦ± ìĭ¤
Ġë¹¨ ëŀĺ
Ġprote in
ĠìĿĮ ì£¼
æĽ ¸
hav ior
Ġìľł íķĻ
ìĭ «
ìŀĦ ìĺģìĽħ
ëĮĦ ìĬ¤
Ġì¢ĭìķĦ íķĺëĬĶëį°
DE FAULT
ĠìļĶêµ¬ íķĺëĬĶ
ìĭ¬ ê³¼
Ġì¶ĺ ì²ľ
ĠAut hor
est yle
ac cept
oun try
íķĺëĭ¤ ë³´ëĭĪ
b d
ĠíĮĶ ê³ł
ìĸ´ ë¥¸
ìĭľ ë§Ī
Ġc er
Ġìĭ± ê°Ģ
An imation
ĠëĮĢíĳľ íķĺëĬĶ
get Element
ë¯¸ ìķ¼
Â·Â·Â·Â·Â·Â·Â·Â·Â·Â·Â·Â·Â·Â·Â·Â· Â·Â·Â·Â·Â·Â·Â·Â·Â·Â·Â·Â·Â·Â·Â·Â·
ìŀĲ ëħĢ
ãĥ Ī
13 8
ĠìĹĨ ìĹĪëĬĶëį°
Ġvalid ate
ĠëĨį ì´Į
ĠU V
Ġìĺ¤ ìĭľëĬĶ
Ġë§Ľ ëĤĺ
ĠìĹĲëĦĪ ì§Ģë¥¼
ĠB rown
Ġì£¼ ê°Ħ
Ġê²° ìĬ¹
ĠArray List
Ġìŀ¥ëĤľ ê°Ĳ
ĠìĦ¤ëªħ íķ´
pe ction
t ensor
Ġdi agn
Ġact s
Ġë¹ĦêµĲ íķ´
Ġê°ľ ìŀħ
ĠP en
ĠìĹ¼ ëł¤
he m
ìį °
ìłĪ ì°¨
íĸĪ ìľ¼ë©´
ëıĦ ìĦľ
ĠëĦ£ ìľ¼ë©´
Ġë§ŀì¶Ķ ìĸ´
Ġwh om
G M
Ġê°Ĳëıħ ìĿĺ
fe ed
ìĨĮ ëħĢ
ul ating
Ġì§ĢíĤ¤ ëĬĶ
ID TH
ĠD M
ĠìĦľ ìĸĳ
ud d
ìłĢ ë¥¼
ìĸĳ íĮĮ
ĠìķĦ ëĭ´
] }
ĠìĺĪ ë°°
3 10
urb an
Ġs in
ĠS af
Ġë¨¹ìĸ´ ë³´
èĩ ª
ìłģ ìļ©
Ġm ent
Ġëª¨ ìĿĺ
Acc ording
Ġê¹ İ
Ġê°ľëħĲ ìĿĦ
ĠM useum
ĠëĤ¬ ëĭ¤
ri e
O wn
L anguage
ì§Ģ ë¶ķ
hel per
ro ph
Ġf ly
íİ¸ ì§ĳ
Ġlight s
ìĹ° ìĿĢ
Ġë¹ł ë¥´ê³ł
Ġìŀ¡ ìĿĦ
Ġìĺ¨ ì²ľ
Ġë§Ī ì¼ĵ
ĠMark et
Ġíŀĺëĵ¤ ê²Į
ĠëŃĲ ëĿ¼ê³ł
ĠíĹĮ ë²ķ
P UT
a us
ê³Ħ ì¢Į
Ġbig ger
Ġìĭľ íĭ°
ìĪĺ ìĤ¬
Ġadd s
Ġmach ines
RE Q
ĠìķĦë¬´ íĬ¼
S cal
Ġê±´ ë¦½
Ġown ed
Ġpartners hip
ìĹĪ ìľ¼ë©´
ëħĢ ìĦĿ
c ref
ĠëĤĺìĺ¤ ê¸°
Ġl ift
Ġnuc lear
ë¯¼ ìĿĢ
ìĭĿ ëıĦ
Ġì¤Ģ ìĪĺ
Ġamplit ude
Ġê³ł ìĨįëıĦë¡ľ
K T
ë³´ ê¸°ê°Ģ
ë¶Ħ ê»ĺ
Ġíĺ¸ ìĪĺ
T ra
ick et
ì¶© ì²Ń
Ġgr ade
íĶĮ ë¡ľ
typ ename
ë¶Ħ ëĵ¤ìĿĺ
4 80
Ġâ Ŀ
ĠìĥģìĦ¸ ìłķë³´
íĶĦë¦¬ ë¯¸ìĹĦ
select or
Ġê³³ ìĿ´ëĿ¼
Ġë³´ ëĵľ
ĠSm ith
plement ation
Ġê±° ëĳĲ
Ġopt s
ìĽĮ ëĤĻ
}( {\
ĠìĥĿê²¼ ëĭ¤
ìĿĦëķĮ ëĬĶ
Ġquad r
Ġìŀ¬ë°Į ê²Į
Ġê¸°ì¡´ ìĹĲ
ìĭľ íķĺëĬĶ
íĸĪëĭ¤ ë©´
ĠìĥĿ ê¸°ê³ł
Ġadult s
Ġëĥł ëĥł
ì¦Ī ìĿĺ
Ġbut ter
ĠìĥĿê°ģ ëĤĺëĬĶ
ë¶Ģ ì²ĺ
ĠìĿ¼ ëĮĢ
ë¡ł ìĿĺ
ëĨį ìĹħ
ĠìķĦëĭĪ ìĹĲìļĶ
ëĤĺ ìĺ¤ëĬĶ
p ir
Ġansw ers
Ġchar set
ãħ Ĥ
Ġêµ¬ìŀħ íķľ
Ġëª° ëŀĺ
Al so
print ln
Ġbeg ins
Ġë¶Ħ íķł
orig inal
ĠëıĦ ìłĢíŀĪ
Ġì§ĳ ì°©
Ġscal es
Ġbu f
R C
Ġê³ł ëĤľ
Ġê³ł ìĨĮíķľ
ĠìĽĶ ìĦ¸
íĻĶ ìĦ±
ìķ¼ ë§Į
Ġìĺ¬íķ´ ëĬĶ
Ġyou th
ĠìĨį ëĪĪìį¹
è ĭ
SE LECT
Ġê°ĢëĬ¥ íķĺëĭ¤ê³ł
ex ec
ĠT ool
íķĦ ìĪĺ
Ġpre v
Ġë°° ìłľ
íĻĺ ìŀĲ
ëĿ¼ ì§Ģ
íĸĪëĭ¤ ê°Ģ
ĠìĪĺ ëł¹
ĠR ad
Ġprem ium
Ġì¹´ íħĮê³ł
con nected
Ġëĸł ëĤĺëĬĶ
) -\
Ġemerg ency
p res
ĠìĦ¸ê³Ħ ìłģìĿ¸
numer us
M ay
ĠìŀĪ ëįĶëĿ¼ê³łìļĶ
Ġê·¸ëŁ¼ ìĹĲëıĦ
s ch
15 8
ĠS C
Ġë§İ ëĭ¤ê³ł
ê½ĥ ì§ĳ
ëĤ¨ ìĦ±
íĺĦì§Ģ ìĭľê°Ħ
ìĦ¬ ìľł
ĠCE LL
ĠìľĦ íĥģ
ê±° ë¦¬ìĹĲ
Ġen ables
Sk ip
Ġë²Ħ íĦ°
numerus form
è ¯
Ġê·¸ ëĬĺ
ì£¼ìĭľ ê¸°
}{ |
ag ent
16 2
ĠM el
ì´Ī ë¥¼
ë¹Ħ ë°Ģ
ìĦł ìĹĲìĦľ
ì²ĺìĿĮ ìĹĲëĬĶ
Ġì¡° ìĤ¬ë¥¼
14 3
ĠT erm
Ġë©Ķëī´ ëĬĶ
Ġë°Ķ ìĻĢ
ķ ìĭľì½Ķ
ìľł ê¸°
Ġeduc ational
íİ¸ ìľ¼ë¡ľ
Ġìłķ ìŀĳ
ĠRe port
Ġinterest s
w t
ĠAcc ount
ëıĻ íĻĶ
Ġíĸĩ ë¹Ľ
Ġappro ved
ĠìĨĲ ì§Ī
ìĿ¸ íķľ
Ġê°ĢëĬ¥ ìĦ±
Ġs essions
Be an
Ġë¹Ħ ëĶĶìĺ¤
ĠìĦ¸ê³Ħ ìĹĲìĦľ
Ġb rown
âĸ¼ âĸ¼
ì§Ī ëŀľëĵľ
ëĤĺ ëĿ¼ëĬĶ
set up
F ocus
ê²Į ìĭľ
ìĺ¤ ë¥¼
ĠìĪĺ ëł¨
ĠìĪĺ ìĭľë¡ľ
Ġìĸĳ ìĿĺ
Ġê¸°ë¡Ŀ íķľ
Ġë°ľ ìĤ¬
D b
Ġìŀħ êµŃ
ĠI mm
ìłĲ ìłĲ
Ġì£¼ ë¨¹
Ġcon crete
Ġs ister
§ ëį°
ìŀħ ëĭĪëĭ¹
Ġìłģ ê³ł
Ġë°ľ ìłĦìĿĦ
t ies
Ġëĭ¤ìĿ´ ìķĦ
Ġíķĺ ëįĶëĿ¼ê³łìļĶ
ëıĦ ëıĦ
ĠGerm an
0 20
Ġíķ´ ìłľ
j u
N V
Ġê³¤ ëŀĢ
ê°Ģ ìĦ±ë¹Ħ
Ġë²¤ ì¸ł
Ġ$ |\
Ġëª© ìĪ¨ìĿĦ
) }_{
Ġload ing
Ġsp ons
Ġì¤ Į
ê°ķ ìĽĲëıĦ
ĠëŃĶ ì§Ģ
Ġcon vent
Ġp apers
ĠìłĦ íĮĮ
ìĹ´ ìĿ´
Ġëĭ¨ ìľĦ
ê¶Į ê³¼
ìľĦìĽĲ ìŀ¥
function s
un ning
ĠìĹ´ ìłķ
Ġext ent
Ġme al
run time
Ġ> >>
Ġìĭł ìĿ´
Ġf rames
Ġíĥ Ķ
èĢ Į
$ ),
ê³µ ê³µ
Ġatt or
çĲ Ĩ
ĠìĿ¸ íķĺ
/ _
ë¬´ ìĤ¬
por al
ìĭľ ê²½
Ġ ;;
Ġmin i
ëĪĦ êµ°
ĠíļĮ ìŀ¥ìĿĢ
Ġcomp ens
ê±° ìļ¸
Ġëª¨ìĸĳ ìĿĺ
G ER
ĠM ad
ĠL im
ĠëıĮ ê³ł
Ġassert That
Ġor th
íĴĪ ì§Ī
Ġíķľ ëĭµëĭĪëĭ¤
30 1
'] ['
ë°ĶëŀĮ ìĿ´
ìĨĲ ìĿ´
CO MP
ĠìĬ¤ ìĽ¨
ĠìĤ¬ ê°ģ
ë²ł íĬ¸ëĤ¨
Ġìľł ìĹ°
Ġp ri
Ġë¶ģíķľ ìĿĺ
u ing
ĠB ill
Ġê²½ ê³¼
ĠìķĮ íĮĮ
ê·¸ ìłĢ
16 3
Ġì¢ĭìķĦ íķĺê³ł
íľ´ ê°Ģ
ĠI ll
e led
ĠInd ust
ê±° ê¸°ìĹĲ
Ġíķ´ ìķĪ
x s
; ">
Ġíģ ¼
: }
Ġhous ing
Ġë¬´ ìĿĺ
Ġclin ical
ĠWh ere
Ġë¦¬ëįĶ ìĭŃ
Ġì§ĢëĤĺ ì¹ĺê²Į
support ed
íĬ¸ ëłĪìĿ´
Ġfore st
âĹ İ
Ġdri vers
Ġrequire ment
down load
ì°¨ ìĿ´ì¦Ī
ì¶ §
ĠìĿ¼ ìĿ¼
17 8
CT YPE
íĻĶ ë¬¸
Ġìŀ ¤
Ġw a
Ġs ampling
14 9
ĠGerm any
Ġf mt
j et
ë¦¬ íį¼
ĠM B
ĠìĹ° ìĸ´
) )$
Ġê·¸ ì¤ĳ
! ]
ĠìĤ¬ìĿ´ ë¡ľ
Ġì§Ħ íĻĶ
Ġë¬¼ ëĨĢìĿ´
Ġëª° ìŀħ
Ġleg is
ê³³ ìľ¼ë¡ľ
ìłģ ìĿ´ë©°
M ouse
ìŀĪ ìľ¼ë©´
ëĭ¬ ìķĦ
ìĭľ ìŀ¥ìĿĺ
ĠL ead
Ġdire ctions
Ġcomput ing
Ġì£¼ ìłĢ
Ġtra ject
ê·¸ëŁ¬ ë¯Ģë¡ľ
Ġê°Ļ ëįĶëĿ¼êµ¬ìļĶ
íķ ¸
L android
Ġv it
ë¦¬ ì¡°íĬ¸
ìĺ¤ë¥¸ ìª½
Ġadvert ising
Ġê¹Ģ ìĦ±
ì¹¼ êµŃìĪĺ
Ġsu c
Ġsign als
ĠĠĠĠĠĠĠĠĠĠĠĠĠĠĠĠ Ċ
ĠìķĦëŀĺ ìĿĺ
ë¸Ķ ëŁ¬
ĠíĮ¨ ëĦĲ
Ġther apy
ĠìĿ¸ íĦ´
par agraph
íİ Ħ
Ġanaly z
object s
Ġì°½ ê³ł
Ġë°Ķëĭ¤ ë¥¼
bl ank
ik ing
ĠSt ore
Ġvari ation
Ġenter ed
Ġbuild ings
Ġíĺ¸ ë°ķ
Ġë§Ī ë£¨
ëª¸ ìĹĲ
ĠT our
Ex ample
ì¼ Ħ
Id s
ĠëĬĲëĤĮ ìĿĢ
Ġentire ly
ì²Ń ëħĦ
Ġëľ» ìĿ´
Ġìł ł
ĠĠĠĠĠĠĠĠĠĠĠĠĠĠĠĠ ĠĠĠĠĠĠĠĠĠĠĠĠĠĠ
ĠíħĮ íģ¬
Ġì°¨ëŁī ìĿ´
íĿ Ļ
Ġë°ĶëĿ¼ ë³´ë©°
Ġê·¸ ë¦½
on ce
Ġê·¸ ë¦´
Ġìłģ ìłķ
ĠC C
Ġqu iet
ĠìĬ¬ ìĬ¬
ìĤ° ìĹĲìĦľ
Ġë¶Ģ ë¥¼
z y
ê¸Ī ìľ¼ë¡ľ
ìĦł íķľ
ass ign
Ġê´Ģ ìłĲìĹĲìĦľ
ĠìĨĮ ë§¤
Ġcomp lement
Ġë¬¸ ìŀ¬ìĿ¸
sign ature
h ot
ed er
Ġìĭłê²½ ìĵ°
Ġind ices
ĠëĤ´ëł¤ ëĭ¤
ì·¨ ëĵĿ
Ġì¢ĭìķĦ íķĺìĭľëĬĶ
ë§Ľ ìŀĪê²Į
ìĽł ëĬĶëį°
ĠìĿ¼ìĸ´ ëĤ¬
d k
Ġphys ics
Ġë°ĶëĿ¼ ë³´ê³ł
ĠíĮĮ ëĿ¼
Ġë°°ê²½ ìľ¼ë¡ľ
ct rine
ab out
ì¹ĺ ëıĦ
Pro gram
' ];
r oute
ĠìĿ¼ ìłķìĿĦ
ê·¸ ë¦¬ìĬ¤
ê·¼ ìľ¡
íĭ° ëĵľ
ĠìĿ´ ì£¼
å Ĥ
Ġd ance
ĠH ave
Ġë§Ī íı¬
Ġëħ¸ ëĬĶ
Ġì¶© ìĭ¤
Ġcontrol led
Ġìĭľ ëĭ¬
}$ )
ì° Ķ
sequ ent
ĠìķĦ ëŀ«
íķĺíķĺ íķĺ
ĠìŀĲê¸° ìĿĺ
Ġíķĺ ìľĦ
Ġì½Ķ ëĵľ
ì¡° ë¡ľ
Ġre produ
per im
ëı ĭ
Ġê·¸ ëŀľëĵľ
Ġflow ers
15 6
Ġ' -
ĠíķĻêµĲ ìĹĲìĦľ
Ġfl uid
ĠE ND
Ġê¹Ģ ì¢ħ
Ġêµ¬ ëıħ
D ictionary
Method s
ĠS ets
Ġë§Ī ëĥ¥
Ġë¶Ģ ìĸ´
Ġso le
ĠêµŃê°Ģ ìĿĺ
es ides
ĠëģĿëĤĺ ë©´
ĠI C
ë°ĺ ìĿ´
17 9
íĶ¼ìķĦ ëħ¸
ëĮĢì§Ģ ê¶Į
Ġê·¸ ëĭ¤ì§Ģ
Ġêµ¬ ë¯¸
ì§Ħ ë£Į
ĠìľĦíĹĺ íķľ
m en
Ġp atch
Ġëŀ Ń
SS L
ĠëĤĺ ê°Ķëĭ¤
Ġê¸°ë¡Ŀ ìĿĦ
17 2
con g
ì¹´ì¹´ìĺ¤ íĨ¡
Ġìı Ł
j oint
ë£ ½
Ġíŀ Ļ
ĠO ffic
: =
M IN
Ġa id
ĠìŀĲ ìłľ
Ġìĭ¤ ìĪĺ
ëĶ°ëľ» íķľ
Ġë½ Ĳ
íĥĦ ìĨĮëħĦ
ĠìĦłíĺ¸ íķĺëĬĶ
ĠP D
Ġop posite
Ġdat asets
ĠìĬ¤íĥĢ íĬ¸
ìł ¯
íİ¸ íķľ
ĠL i
ìĸ¸ ìĸ´
ĠCont act
Ġìŀ ¼
ĠìłĲ ìĪĺ
Ġi Phone
íķĺìħ¨ ëĭ¤
Ġco ast
Ġê·Ģ ê°Ģ
ìľ¼ë©´ìĦľ ëıĦ
Ġì£¼ ìĤ¬
Ġì§ĳ ìĿĢ
è Ĭ
Al though
W ait
ĠíķĺëĤĺ ëĭĺìĿĢ
py thon
Ġë§Į ë§Į
ĠL ike
Ġimmedi ate
Ġdemonstr ate
Ġë´¤ ìĿĦ
al gorithm
MO DULE
ĠìĦľ ëĳĺëŁ¬
plac ement
ì¿ł íĤ¤
Ġorgan ized
Ġg un
L ower
ĠìłĲ ìĭ¬ìĿĦ
Ġê²Į ìŀ¬
ĠKe ep
x html
ĠìĤ´ìķĦ ìķ¼
f lex
s ig
li e
ĠìķĪìĭ¬ íķĺê³ł
ĠëĤ¨ìŀĲ ì¹ľêµ¬
y an
Ġê¸°ì¤Ģ ìĿĦ
Ġì§ĳ ê³Ħ
Ġì§ģìŀ¥ ìĿ¸
ì§Ħ ìĹĲ
Ġìª½ ìĹĲ
íİ¸ íķĺê²Į
Ġì°¨ ìĹĲ
Ġ' \
eli hood
è ®
ĠíĽ Ķ
ĠÐ ²
serv able
Ġmonth ly
ĠìŀĲ ë¥¼
ĠìĦľ ë©´
Ġfac ilit
ê°ľ ìĹĲ
Ġë¹ ¡
d ash
Ġì§Ģ ë¶ķ
ĠëĳĲ ë£¨
ĠSI ZE
con tain
ĠC urrent
viron ments
Ġíĸīë³µ íķĺê²Į
ìĨĲ ìĿĦ
Ġr ub
Fl ag
ĠìĹ¬ ìĿĺëıĦ
ass andra
Ġì¹´ ëłĪ
ĠíĨµ ìĥģ
ĠC ore
Ġadmin istr
! (
íĶĮ ë£¨
Ġë³´ìĹ¬ ì¤Ģ
Ġë³´ ëŀĮ
Ġë§ŀì¶¤ íĺķ
ĠêµŃ ìĤ°
ĠV ector
ĠM ot
Ġíķľ íķ´
ë¶Ī ê°Ģ
Ġë©ĺ íĨł
: `
ëĤĺ ìĺ¨
ë©° ì¹ł
s heet
ê½ ģ
Ġë¬´ëĭ¨ ìłĦìŀ¬
con n
VAL ID
Ġcharacter istics
w ill
ê²¬ ìłģ
Ġë°© íķĻ
ic ian
ëŁī ìĹĲ
Ġë©Ķëª¨ ë¦¬
clud es
Ġan imal
Ġenc ounter
é »
ĠF C
Ġb ind
is c
col l
Ġíķĺë£¨ ì¢ħìĿ¼
Ġì²ŃìĻĢ ëĮĢ
ĠìĤ¬ ë£Į
P ublic
Ġë¡ľ ëĵľ
Ġìĵ° ìĹ¬
ĠìĦł ìŀĦ
Ġê°Ĳ ëĭ¹
Ġfl avor
åħ ¬
íĸīë³µ íķľ
Ġinfr astructure
ìĹ´ ìĿĦ
Ġë¶ ī
Ġìļ¸ ê³ł
Requ ired
ìĪĺ íĸī
Ġë²ł ëŀĢëĭ¤
ìŀ¥ìķł ìĿ¸
ĠE v
Ġì¡´ ê²½
ĠìĹ¬ ê¸´
Ġë³´ëıĦ ìŀĲë£Į
íĴĪ ìĿĢ
Ġoccas ion
Ġlist s
ĠíĢ ´
Ġgreat est
ĠF und
ĠìĤ¬ìļ© íķ´ìĦľ
U nder
ĠëĤĺ ê°Ħ
ãĥ «
ĠìŀĲ ë¶Ģ
ak ed
Ġì±ħ ìĿĺ
ĠDes cription
ĠëĦ¤ íĭ°ì¦Į
Ġìłķ íķ´
Ġannoun ce
ìĿ¸ ìĬ¹
ê¸°ìĹħ ìĿĺ
ìķ½ íķľ
ìłĦ ëĤ¨
ĠR oom
E mail
Ġìĺ¬ëĿ¼ ìĺ¤
ë¹¨ ê°Ħ
Ġìŀĳ ê²Į
Ġìĭł íķľ
ĠìĿ¸ ëł¥
ìĿ¸ ì§ĢëĬĶ
se par
ã ī
Ġìį° ìĸ´
16 9
CT V
Ġì°¨ê°Ģ ìļ´
=" $
Sh ould
Ġë¦¬ íķĦ
ĠìĹ° ë£Į
S ample
... </
Ù Ħ
Ġë¨¼ ì§Ģ
Ġgl ad
Ġë°Ŀ íŀĮ
Ġ' ,
ĠëŁ¬ ë¸Į
íķ´ë³´ ëĬĶ
Ġcaref ully
Ġê°ĲìĤ¬ ëĵľë¦½ëĭĪëĭ¤
ìļĶ ê°Ģ
ì²ĺìĿĮ ìĹĲ
Ġì¶Ķìĸµ ìĿĦ
Ġbre ath
ë¬¸ ìłľëĬĶ
Ġë¬¸ íĻĶë¥¼
Ġde ck
ĠT re
å® ļ
ĠíĿ¬ë§Ŀ ìĿĦ
Ġj u
Ġf its
EEEE FF
Ġcommit ment
amaz on
íĨµ ì¦Ŀ
Ġê²ĥ ìĿ¼ê¹Į
ìĿ¸ êµ¬
A li
Ġ{ $
íĮĮ ìĦľ
Ġla unched
ëĦ£ ê³ł
íķĺ ëįĶëĿ¼ê³łìļĶ
ëĨĵ ìĿĦ
Ġì¡° ê°ľ
êµ¬ ë©į
ìłĲ ëıĦ
ĠT ry
ê±°ë¦¬ ë©°
Ð ¿
Ġgu est
Ġë§ŀ ì¶ĺ
Ġê¸°ìĪł ìĿ´
Not ification
âĶĢâĶĢ âĶĢ
ê³¨ ëª©
row se
Ġë¡ ł
Ġì²ĺ ë°©
ì¹¼ ë¡ľ
Ġ Ñģ
ĠëĶĶ ìł¤
Ġë¨¸ë¦¬ ì¹´ëĿ½
Ġtemper atures
Ġs ql
ê³ł íķľ
ĠìľĦíĹĺ ìĿ´
A E
ë¬¼ ëıĦ
íķ¸ëĵľ íı°
íİĺ ëĿ¼
ìºł íĶĦ
Ġê³ł ìľł
Ġph il
ëĭ¹ ìĹ°íŀĪ
Ġíķľ ëıĻìķĪ
Ġr id
Ġê³ģ ìĹĲ
Ġê²½ìļ° ë¥¼
ĠCar ol
æī Ģ
å® ¶
W ORD
ê³¡ ìĿĦ
ĠìĿ¼ë¶Ģ ë¥¼
13 7
ĠL td
ê²ł ëĬĶê°Ģ
Ġfe at
Ġëª° ëĿ¼ìĦľ
ìľĦ ìĥĿ
Ġë²Ħ ë¦¬
ĠìĦł ëªħ
Ġdou bt
ĠPart y
e lect
qu ality
17 1
Ġa st
Ġì¢Į ìĦĿ
Ġex ponential
sk i
Ġ_ ,
ĠìĿ¼ íĻĺ
Ġê²°íĺ¼ ìĿĦ
ìĿ´ íĥĪ
êµ¬ ê°Ħ
Con structor
íħĮ ìĬ¤íĬ¸
Ġíľ´ ìĭĿìĿĦ
ĠE nergy
Ġìļ°ë¦¬ëĤĺëĿ¼ ìĿĺ
Ġm ine
ĠD VD
ĠìĹ¬ë¦Ħ ìĹĲ
Ġê·¹ ëĮĢíĻĶ
p ub
Ġë¶Ģìłķ ìłģìĿ¸
Ġsurg ery
Ġìķ½ ìĿĦ
íļ¨ê³¼ ê°Ģ
Ġê°Ģ ëıĦ
ĠìłĦ ìĭł
ĠìłľíĴĪ ìĹĲ
ĠPl us
å Ģ
ëĵľ ëłĪìĬ¤
ìħ¨ ìĿĦ
u v
ìķĪ ìĸĳ
ĠH P
Ġc ursor
Ġë¬´ ë¦¬ê°Ģ
Ġê°Ļ ìķĺìĸ´ìļĶ
Ġsh ares
Ġì¤ĳ ë³µ
ç ¨
ĠíĺĦìŀ¬ ëĬĶ
Ġë´Ĳ ìļĶ
ĠëĤĺë¦Ħ ëĮĢë¡ľ
Ġì£¼ ëĭĺìĿĺ
íķĺëĭ¤ ë©´
ìŀĳ ìĿĦ
ĠìĤ¬ ëıĦ
F n
ì§Ī ë¡ľ
ĠëĤ´ ëĭ¤
ĠFr anc
Ġíŀĺëĵ¤ ê³ł
c raft
Ġê¹ į
Ġë°Ľ ìľ¼ë©°
rypt o
ëĭ ¿
ĠP an
Ġcut ting
Ġë§Į ìł¸
ĠC ase
ĠìĿ´ ìĸ´ìĦľ
ëĵ± ìľ¼ë¡ľ
Ġë°Ķ ì§Ģ
äº Į
ìĨĮ ëıħ
ĠíĮ¨ íĤ¤
Ġcheck ing
Ġc atalog
Ġl ies
tern oon
íĶĮ ëłĪ
ĠíĮ ¥
Ġì°¨ ëĿ¼ë¦¬
ĠìķĦ ê¹Ŀ
Ġìĭ¬ ìĿĺ
ìĽĶ ìĹĲëĬĶ
G N
st one
Ġìĭľìŀĳ íķ´ìĦľ
D iv
Ġì±Ļ ê¸°
ĠìĥĿê°ģ íķĺë©°
ì¡° ìļ©
I gn
Ġë§ĪìĿ´íģ¬ ë¡ľ
Ġhyp othes
Ġëĭ¤ ìĪĺìĿĺ
ãĢį ,
ĠíĥĢìĿ´ ë°į
Ġìĸµ ìļ¸
ì¤ĳ ìĹĲëĬĶ
ìľ¼ ìĭľê³ł
ĠíķĦ íĦ°
Ġassess ment
Ġsecond ary
ç¾ İ
ĠìĿ´íķ´ ë¥¼
fe ction
ĠSer ies
Ġê°ľ ë§ī
ĠD ocument
j ack
ëĦ¤ ëŀĦ
ì¸µ ìĹĲìĦľ
Ġinvol ves
ìĺĪ ìĥģ
ĠìĿ´ë£¨ ëĬĶ
ĠCont ent
ĠíĹ ·
ir ms
ĠS ty
ĠíĿ¡ ìŀħ
Ġì§ĢëĤĺ ê°ĢëĬĶ
Ġcar bon
Ġb inding
Ġë¯¿ ìĿĮìĿ´
Ġcoe fficient
Ġê°ľë°ľ íķľ
Ġocc urred
ow s
Ġì¤ĳ ìĹĲëĬĶ
ë°ĺ ëĸ¼
at omic
Ġê¸° ìĸ´
ë¶ģ êµ¬
ĠëĦĵ ê²Į
ĠëĤł ëł¤
W allet
Down load
agnost ics
Ġë¡ľ ê·¸
ê¹ ĢìĿ´
Ġë§ģíģ¬ ë¥¼
w d
ĠíĽĦ ë°°
ĠíķĺëĤĺ ìĹĲ
Ġac id
ĠC J
ĠìĤ¬ì§Ħ ìŀħëĭĪëĭ¤
grad ient
ĠSt andard
Ġë¶Ī ëłĢ
Ġì§Ħíĸī íķ©ëĭĪëĭ¤
íĽĦ ë³´
ĠìľłìĿ¼ íķĺê²Į
15 7
Ġtr ivial
t le
w arning
ì¡° ì¹ĺ
cl ine
Ġch at
in os
Ġìĭľê³µ ìĿĦ
pl ays
b asic
Cont act
ĠìĦ± ë³Ħ
ĠL ee
ĠìĿ´ë¥¸ ë°Ķ
ëĤ´ ìĹĲìĦľ
íı¬ ë¨¼
ut orial
âĢ¤âĢ¤ âĢ¤âĢ¤
Ġk id
Ġíľ ©
Ġnat urally
Ġbreak fast
Ġìĸ´ëł¤ ìĽĢìĿ´
ìĿ¼ ìĭľ
ëħ¸ ìĿ¸
Ġë°Ķ ë¹ł
ĠIsra el
Ġpay ing
Ġpan els
L imit
Ñ ĸ
Ġf ails
ĠF amily
ĠìĨĮ ëĤĺë¬´
Ġìļ° ìķĦ
êµ īìŀ¥íŀĪ
Ġp seud
ë¹ł ë¥¸
ĠìĹ´ ìĩł
íķŃ ìĿĦ
Ġsearch ing
Ġê°Ħ ìłĳ
Ġìĺ ´
Ġex clusive
ìĤ¬íļĮ ìłģ
Ġê·¸ ëĵ¤ìĹĲê²Į
ĠíĮĮ ìĿ¸
íĢĺ ìĸ´
Ġìĭłì²Ń ìĿĦ
ĠëĲĺ ê¸°ëıĦ
N ormal
Ġíİ¸ ì§Ģ
ĠëıĮìķĦ ìĺ¤ëĬĶ
Ġprec isely
ª Ħ
ĠìĽĥ ìľ¼ë©°
arg uments
ĠìĶ¨ ê°Ģ
Ġíİ¸ë¦¬ íķĺê²Į
Ġdes ire
Ġdis h
g ot
ed y
Ġsuc ceed
Ġì¡°ê¸Ī ìĿ´ëĿ¼ëıĦ
ëĲĺ ìļĶ
Ġê³ł ê¸°ê°Ģ
Ġdescri bes
ìĨĮ ë¦¬ë¥¼
Ġêµ¬ì¡° ë¥¼
Ġ+ _+
Ġì°¾ìķĦ ìĺ¤
Ġì°¨ëŁī ìĿĢ
ĠìħĶ ì¸ł
â ī
ist or
Ġìłģ ì§Ģ
ĠJ e
tr im
Ġë³´ ë¦¬
ĠìĿ¼ ì¢ħìĿĺ
Ġì²Ń ì¶ĺ
ĠëĤ´ ìķ¼
ĠìĦ¸ê³Ħ ìĿĺ
æĸ °
Ġbi as
Ġëħ¼ ëŀĢìĿ´
Ġëª¨ ëĵľ
Ġco q
ari os
B Y
comp ile
Ġcompos ition
ìĽĲ ìĿ¸
ìļ´ ìĿ´
Ġqual ified
Ġì¤Ħ ìĿ¼
pre ne
Ġfrequ ently
D ATA
¾ °
UN D
ĠìĬ¤ íĦ°
ĠC lear
m its
íİ¸ ìķĪ
Ġë¶Ħ íı¬
av ailable
ë°¤ ìĹĲ
Ġne ck
Ġconcern ed
ĠìĮĢ ìĮĢ
íķ´ì£¼ ìĭľëĬĶ
ĠìĦ± íĺķ
MO DE
Ġhundred s
m n
- .
Ġì°¸ìĹ¬ íķľ
Ġëĭ¤ëĭĪ ê³ł
ìĦ¤ ìłķ
Ġv ir
ĠìĿĳ ê¸ī
ĠìļĶ íķľ
Ġë°Ķ ëŀĦ
Ġsee king
ìłĦì²´ ìłģìľ¼ë¡ľ
DO CTYPE
ìĹ Į
Ġë¶Ħ ìĿĺ
ëĦ¤ ìĭľìķĦ
Ġìĥģíĥľ ìĹĲ
ìĹĺ ë¦¬
ĠíĳľíĺĦ ìĿĦ
Ġstat istical
Ġrestaur ants
spec ific
Ġper man
ëĵ¤ ìŀħëĭĪëĭ¤
Ġdec ades
Ġlight ing
æĿ ±
íĶ¼ ëĬĶ
mer ge
ĠìŀĲ ê¶ģ
ĺ ĺ
ĠìŀĳíĴĪ ìĿĢ
Ġìłķ íķ´ì§Ħ
íĪ ´
Ġdi vers
íľ´ëĮĢ íı°
Ġdis crete
ëŁ½ ê²Į
ìĥĿ ê¸´
ĠëıĮìķĦ ëĭ¤
Re al
íķ´ì£¼ ìĭľ
Ġë§Ĳ ìĿ´ìķ¼
Ġwhe el
ĠìĿĺ ìĻ¸ë¡ľ
Ġlimit ations
ì¼ĢìĿ´ ë¸Ķ
Ġìĸĳ ìĤ°
Ġìķł ìłķ
Ġfe els
ĠìĪĺ ë°±
ê¹Ģ íķ´
ĠëĲĺìĹĪëĭ¤ ê³ł
ri age
w atch
Ġstand s
ĠíķĻêµĲ ìĹĲ
ĠíĴį ìĦ±
Ġac comp
Ġpay ments
get Value
in ity
Ġë³´ìľł íķľ
y y
ìĥ¤ ìĽĮ
ĠìŀĪ ê²łì£ł
Ġal ter
ëŁ¬ ê°Ģ
Ġmanufact uring
Ġest imation
ëĭ¬ ìĹĲ
ë°Ķ ìĿ´íĬ¸
Ġí ĵ¨
se m
Ġì°¸ê³ł ë¡ľ
ĠSim ple
Ġnear by
Ġì°¨ì§Ģ íķĺëĬĶ
ìļĶ ìĥĪ
ĠAn other
ëıĦìĭľ ëĿ½
SC R
Ġë¨¹ ìĹĪìĬµëĭĪëĭ¤
Ġê²° ìĭ¬
ë¦¬ íı¬
Ġdepend ent
Ġë¹Ħ ë¹Ħ
Ġë°ĺìĿĳ ìĿ´
Ġre venue
b urg
ĠT own
Ġsche duled
Ġrepe ated
Ġatt acks
Fr agment
å §
ë³Ģ íĺ¸ìĤ¬
ĠëĤ´ëł¤ ê°Ģ
ëıĻ ìĿĢ
ĠëĿ¼ ìļ´
ìĦ¸ ìĬ¤
ëĥī ë©´
Ġíķ´ê²° íķł
ĠíķĺëĬĺ ìĿ´
Ġíķľ ìŀ¥
Ġê±¸ ê¹Į
ĠL ibrary
Ġm d
ìª½ ìĿĺ
ìľĦ ì¹ĺëĬĶ
ë¹Ħ ëĶĶìĺ¤
ĠìĤ° ì¶ľ
Ġ- .
Ġíĺ¸ ìĿĺ
ìĸµìĽĲ ìľ¼ë¡ľ
ĠìĿ¸ íķ´ìĦľ
ĠìĨ¡ íĮĮ
# {
Ġap plies
Ġëĭ¨ ê³¨
Ġê²Į ìĿ´
opt s
}{ (
ĠëĳĲ ìĤ°
Ġhe aring
ëĤļ ìĭľ
Ġke eps
Ġexpect ations
ĠìĤ¬ ì£¼
êµŃ ë°¥
ĠêµŃëĤ´ ìĻ¸
Ġmonitor ing
form ed
Ġíĳľ ì§Ģ
ë¶Ģ íĴĪ
j Query
Ġwid ely
Ġregular ly
Ġprefer red
ìĨĮ íĻĶ
ìĹĪ ê¸°
ĠëıĦ ìĭ¬
âĢ¦ "
Ġ_ .
ë¸Ķ ë¡Ŀ
ĠìĻ¸ ëª¨
íı´ ë¦¬
Ġë¡ľ ì¦Ī
qu ote
Ġëªħ ìĭľ
ìķħ íķľ
im inal
ĠìŀĲ ìĿĺ
êµ¬ ìłķ
íķĺ ìĸĢ
Ġfr agment
Ġëįľ ìĸ´
ëĤĺ ë¨¸
íĤ ¥
ĠìĺģíĻĶ ìĿĺ
i est
æ ģ
s ync
ìĤ¬ ëĵ¤ìĿ´
ìĹĪ ê±°ëĵłìļĶ
Ġê³Ħ ê¸°ê°Ģ
Ġparticip ate
Ġì°° ì¹µ
Ġseem ed
pl er
ĠSh ould
Ġlaw y
ĠP aramet
ĠTh rough
Ġê°Ģ ëŁī
Ġspe aking
ĠíĴĪ ëª©
Ġsit ting
Ġë§¡ ìķĦ
re prene
ĠG iven
Ġê±¸ ë¦´
Ġë¬¼ ê³łê¸°
íĮħ ìĿ´
ìĸ¸ ìĿ´
ëĶ© ìĿĦ
æ Į
ìłĦë¬¸ ìłĲ
A ng
ĠëĤł ë¶ĢíĦ°
Ġê²°ê³¼ ìĹĲ
P N
ìļ° ëĭĪ
Ġë²ķ ìłķ
Ġëĵ¤ìĸ´ ìĺ¬
ìŀł ê¹Ĳ
Ġì°¨ì§Ģ íķĺê³ł
Ġrepresent ations
at ar
Valid ation
(" /
ĠìľĪ ëıĦìļ°
Ġìĭ« ìĿĢ
Ġê³µê°Ħ ìĹĲ
Ġë³´ ìľ¡
Ġê³Ħ ìĭ¤
Ġëĭ¤ ë¦¬ê°Ģ
Ġêµ¬ë§¤ íķł
a ired
Ġf ake
ìĦ¼íĦ° ìĹĲìĦľ
Ġç Ķ
Ġë± Ģ
Ġìłľ ìĿ´
Ġb read
Pro v
ëĲĺ ëĭĪ
ëĵł ëĭ¤
Ġì¤Ħ ìĿ´ê³ł
ìĿĺ ìŀĲ
g lyph
Ġë§¤ ì¹ĺ
ì²´ ìĻĢ
ĠëıĦì°© íķ´ìĦľ
Ġmov es
cd n
ìŀĦ ìĿĺ
ĠìĿ¸ ìĥģìĿĦ
Ġ ell
ĠíĥģìĽĶ íķľ
Ġì°¸ ì¹ĺ
Ġê³łëł¤ íķĺìĹ¬
ì§Ī ëŁ¬
ëŀĢ ëıĦ
view s
íļ¨ ìľ¨
Ġequip ped
ì°¨ ëıĦ
smart store
Ġë¨¸ ë¦¬ìĹĲ
Ġdecre ase
Ġê³µ ë£¡
ĠOr der
ĠìĨį ëıĦê°Ģ
Ġf ro
et ic
ierarch y
ĠEx ample
Ġappreci ate
Ġl umin
ê¹ ģëĭĪëĭ¤
Ġê¸° ê¸°
am ic
Ġcap able
ĠìķĪ ë¨¹
ĠìĹĦ ê²©
Ġtrack ing
pol icy
ĠíĮĿ ìĹħ
ow nt
Ġë¬´ìĤ¬ íŀĪ
ĠëıĻ ì°¸
ãģª ãģĦ
Ġê±´ ë¬¼ìĿ´
íĳľ ê°Ģ
Ġy ellow
íıŃ ëł¥
ĠìĤ° ìłķ
ê³ł ëł¤
Ġsup plies
Ġrent al
íĶ¼ ê°Ģ
d frac
ê·¸ëŁ¬ ë©´ìĦľ
Ġre verse
Ġf o
ĠíĴĢ ê³ł
NavBar Font
Ġhistor ical
Ġíļ¨ê³¼ ìłģìľ¼ë¡ľ
~ )
Ġê·¸ë¦¬ìĬ¤ ëıĦìĿĺ
Ġë¬´ ëĬ¬
ĠìĿ¸ ìŀ¬
res ize
ìĺ· ìĿĦ
âĨĵ âĨĵ
C am
ar ity
Ġop acity
Ġíĥĵ ìĹĲ
ì¯¤ ìĿĢ
Ġt ough
f actory
Ġì´Ī ìłĲìĿĦ
ĠìĺĪ ìĻ¸
Ġk ick
é ļ
Ġë¹Ħ ì¤ĳìĿ´
ìĥĿ ìķĦ
ĠĠĠĠĊ ĠĠĠĠĊ
íķ´ìķ¼ íķł
Ġìĺģ ëĵ±íı¬
Ġê¸°ìŀĲ íļĮ
Ġir on
ad ian
ê°ĢìĬ´ ìĤ´
Ġëıķ ëĬĶ
ĠCh icago
Ġëªĩ ê°ľ
ĠëĶ° ìł¸
Ġs ync
ĠëĺĲ ëĭ¤ìĭľ
ìĹ ¿
íķĺ ê°Ģ
Ġexpress ions
Ġexplan ation
Ġflex ible
Ġpredict ed
ëĲľ ìŀ¥
Ġìĺģ ìĽĲíķľ
R S
ĠìĪĺìĪĺ ë£Įë¥¼
Argument Exception
Ġìĭľ íģ¬
Ġì§ĢíĤ¤ ê³ł
ì½ĺ íģ¬ë¦¬íĬ¸
ester day
ĠW ay
Ġì¤ĳ ìŀħëĭĪëĭ¤
c atch
ìħĶ ëĦĲ
Mem bers
ĠìĤ¬ê³ł ë¥¼
Ġìħĭ ì§¸
ìĦ± ìłģ
ìĭ¶ ìĸ´
Ġì¶Ķì²ľ íķĺëĬĶ
as p
ê³µ ìłľ
Ġde composition
ak a
ĠëĦĺ ê²¨
l ab
Ġir re
æ° £
ë°± ê³¼
ĠOption al
Ġstr ip
ìłĢ ëĤĺ
) }}
ìĥĿ ë¬¼
Ġun iversity
Ġë°ķ ê·¼íĺľ
Ġë¬» ìĸ´
14 7
ë¬´ ê°Ģ
ĠëĮĢë¶Ģë¶Ħ ìĿ´
Ġê·¼ ë¦°
ê°Ģì§Ģ ë¥¼
____ ____
Ġarr ang
Ġpotential ly
íĮ© íĬ¸
ëĭĪ ë¥¼
Ġconvers ation
Ġpres ents
ì±Ħ ê¶Į
Ġê²½ê¸° ìĹĲìĦľ
Ġa ver
Ġp ixels
Ġbring ing
ĠìŀĪëĬĶ ê±°
S ur
ĠE nt
ìĬ¤ë§ĪíĬ¸ íı°
ìĭľ ìĽĲíķľ
ëĤ´ ìĦľ
ĠP op
&= &
Ġë§Ľ ë³¼
ì© ¡
íķ´ì£¼ ìĭľê³ł
ĠìķĶ íĬ¼
ë¶Ģë¶Ħ ìĹĲ
Ġê°ĳ ìŀĳ
2 11
ĠìĿĢ íĩ´
ìª½ ìĿĦ
st ood
íķ´ ìķĪ
Ġf if
V ideo
ìĸĳ ìĭĿ
Ġìĭľ ìĿ¸
Ġë²Ī ëıĦ
Ġê³ł ìĪĺ
ĠëĤĺìĻĶ ëĬĶëį°
ĠìŀĪìľ¼ ìĭľë©´
b atch
Ġë§¤ ëł¥ìĿ´
Ġì´ī êµ¬
Ġbo at
Î µ
Ġin verse
ĠìĪľ ìłķ
ĠìĨĮ ìĭĿìĿ´
ìļ ľ
Ġë³´ìĿ´ ì§Ģë§Į
Ġìµľ ìĥģ
Ġë°ľ ëªħìĿĺ
Ġì¶Ķì²ľ íķ´ìļĶ
ĠìĨĮ ìĻ¸
Ġëĸłìĺ¤ ë¥´ëĬĶ
ĠìĿ´ìĥģ ìĿĢ
Ġappe ared
ë¶Ģë¶Ħ ìĿĦ
Ġë°ĶëĢ Ĳ
B asic
Ġíģ´ë¦Ń íķĺìĭľë©´
Ġì¶Ķêµ¬ íķĺëĬĶ
) ~
ë¥´ ë©°
ĠL o
íĥľ ë¥¼
ĠìķĶ íĺ¸
Ġâĸ ł
ĠìĿ´ ëĵ¤ìĿĦ
ìļ´ ìļ©
ë¯¸ìļ© ìĭ¤
D IS
Ġê¸¸ ë¡ľ
ìłĦ íĺĢ
Ġiss ued
Ġes cape
Ġë§Įì¡± ìĬ¤ëŁ¬
Ġatmos phere
ë³´ ìĪĺ
EL D
R PC
ë²Ī ìĿĺ
ĠìķĦìĿ´ ëĶĶ
******************************** ********************************
Ġê°Ģ ìĤ¬
ĠìĤ´ ê¸°
ì·¨ ë¥¼
ĠT ur
Ġê²Įìĭľ ë¬¼
ĠìĥĿê°ģ íķ´ìļĶ
Ġcon vex
ê¹Ģ íı¬
Ġinvestig ate
g oto
Ġlist ing
ìĿ´ ê¸´
ĠìĻ¸ ê´Ģ
ĠìĹ´ ìĹĪëĭ¤
ĠìĨĮ íĻĺ
íĸĪ ìĹĪëĭ¤
ì°½ ìľ¼ë¡ľ
14 8
ĠSpr ing
ĠìŀĲ ì¼ĵ
br ace
Ġë°ĶëŀĮ ìĿĦ
Ġp ed
ìĭľ ìŀ¥ìĹĲ
Ġëĭ ī
Ġì¦Ŀ ìĥģìĿĦ
ëĦĪ ìĿĺ
íĶ¼ ë¥¼
ian o
Ġpro files
ä½ ľ
Ġê·¸ ìķ¼ë§Ĳë¡ľ
ìĨį ëıĦ
man if
ĠAL IGN
ìĦ± ëĤ¨
ĠëĦ£ ëĬĶ
Ġnorm ally
ĠíĬ¹ì§ķ ìĿĦ
Ġì§Ģ ìłĲ
ë§Ī ìĹĲ
ìĿ įëĭĪëĭ¤
ĠíħĮ ëĿ¼ìĬ¤
Ġíĸ¥ ê¸°
ë¯¸ ìĤ¬
ìĨĲ ìĹĲ
ĠëĤ¨ ê¸´
Ġdog s
ĠëĤĺíĥĢ ëĤľëĭ¤
Ġë²Ħ ê±°
Ġìĭ¤ ëł¥ìĿĦ
En vironment
íħĶëłĪ ì½¤
Ġaut hent
Ù Ĩ
Ġê° ¯
ĠìĺĪ ë§¤
Ġcy cl
14 6
ëħĦ ìĿĢ
Ġpurch ased
co hol
Ġíĸī ìľĦë¥¼
_ );
ìĻĢ ìĿ¸
ĠìłĦ ê²½
ĠìĹ¬ ìĦ¯
ì§Ī ìĹĲ
ĠìĿ¸ê°Ħ ìĿĢ
ê¹Ģ ìĹĨìĿ´
Ġìłķë¦¬ íķ´
O h
D rop
íıī ìĥĿ
ä¸ »
ak ers
Ġíķ´ ë³¼
ĠíĻķ ë¥łìĿ´
Ġë°© ìĹĲ
ĠìĿĮìĭĿ ìĿĢ
int ell
side bar
êµŃ ìľ¼ë¡ľ
ĠìķĦê¸° ìŀĲê¸°
ĠìĶ¨ ìķĹ
ĠìĦ±ê³µ íķľ
Ġconf irmed
ĠìłĪ ìķ½
é £
AC H
ëĭĺëĵ¤ ê»ĺ
Ġdi verse
Ġì¹ľêµ¬ ë¥¼
Ġlist ening
ìĪľ ìĿ´
ìķĺ ëĭ¤ëĬĶ
am ps
ĠìķĮ ê¸°
ìłķë¶Ģ ëĬĶ
ë¡ľ ìŀī
Ġìº¡ ì²ĺ
´ ëĭ¤
ìĭ± íĦ´
Ġadmin istration
am m
ĠìĺģíĻĶ ê°Ģ
Ġremov al
Ġìĺ¬ ëł¸ëĭ¤
land s
ì´Ī ëĵ±
ë°©ë²ķ ìĿĦ
Ġcircum st
Ġë²Ĺ ê²¨
pon s
âĻ £
ĠìĹĨ ìĸ´ëıĦ
êµŃ ìŀ¥
Ġsk ill
K S
êµ¬ ë§Į
ìŀĲ ë¦¬ê°Ģ
ĠìŀĳíĴĪ ìĿ´
Ġspe ech
Ġs an
Ġserv es
ĠSh op
Test Case
ĠAp ache
Ġìŀ¬ ë°ľ
qu ant
d ays
Ġíİ¸ ìĿ´ëĿ¼
c ounter
ê¹Į ì§Ħ
Ġë°Ķ ìļ¸
ëĭ¨ ë°±
Ġëľ¨ ê²ģ
ĠìłĪ ì°¨ë¥¼
Ġj s
Ġoper ate
Ġëĸ¨ìĸ´ ëľ¨
ĠíĬ¸ ëŁ¬ë¸Ķ
íĻĶ íķľ
ĠëĤ´ëł¤ ìĦľ
dest roy
êµŃ ìĸ´
alyt ics
Ġëĭ¤ ì§Ħ
C apt
Ġë¦¬ ìĬ¤íĬ¸
ĠìķĮ ëłĪ
ì¤ĳ ê°ĦìĹĲ
Ġpol l
ĠìŀĦ ëªħ
ĠìķĪíĥĢ ê¹Ŀ
Ġ' ';
ë¬ĺ íķľ
ëĭ¹ ìĭłìĿĺ
ĠG S
Ġ" ";
pro gram
comm ons
Ġne ural
ëįĶ ìļ´
> )
Ġë³´ ëĭ¤ê°Ģ
ĠìĤ¬ëŀĮ ìľ¼ë¡ľ
t an
ĠìĨĮê°ľíķ´ ëĵľë¦´
Ġrespons es
ë³´ ìĭł
Ġê·Ģ íķľ
Oper ator
ov ing
Ġìķ½ìĨį ìĿĦ
Ġìļ© ê¸°
p kg
Ġpro spect
Ġtr im
Ġê³Ħ ê¸°ë¡ľ
ĠìķĮ ìĪĺ
ëĤĺ ë³´ëĭ¤
ict or
ì½Ķ ìĺ¬
Ġre new
Ġs cores
Ġì¦ Ī
ìĥī ìĿĢ
re lease
Ġíľ´ ê²Į
Ġex ports
ë¶Ħ ê»ĺìĦľ
ëįĶ ë¸Ķ
Ġprov en
Ï Ħ
55 5
Ġëª» íķĺë©´
Ġëħ¸ ëł¥ìĿ´
ëĮĢ ë°ķ
íĺķ ìĹĲ
Ġì§Ħ ìĭ¬
TR Y
æ Ł
ĠìļĶ ëŁ°
*** /
Ġê°Ķ ìĿĦ
as m
an imation
íĮ¡ ìĿ´
ĠìĦł ëıĦ
F UN
ì¶Ķ ê³ł
Ġë©Ķìĭľ ì§Ģë¥¼
is Empty
W ell
ĠAt l
ĠíĶĮ ë¡ľ
M ed
re act
íĥķ ìĿĦ
ìķħ ìĤ°
ĠM obile
Ġë¶Ī íĸī
× ķ
ĠëĲł ê¹Į
Ġinvol ving
ìµľ ê³łìĿĺ
Ġêµ¬ ìļ´
Ġë³ĢíĻĶ ìĹĲ
Ġì¹´ ëĿ¼
ì¹ĺ ë£Įë¥¼
ìĦľë¹ĦìĬ¤ ë¥¼
Ġcook ing
{ "
Ġì¤Ģ ëĭ¤ê³ł
íķĺ ëĬĲëĥĲ
ĠìŀĲì²´ ë¥¼
u er
ĠK im
ëĳĲ ë¦¬
US ER
ĠìłĦëŀµ ìĿĦ
ìħĭ ì§¸
in herit
ëĮĢ ê³ł
d ark
ìħ Ģë¡ľ
gener al
ë° Ŀ
ê°Ģ ìĪĺ
ë³´ ìķĪ
ĠëĤ¨ ì§Ģ
Ġt ile
ê°Ħ ìĭĿ
ìĿĮ ìĿĢ
ë³¸ ìĿĦ
less sim
Ġê°Ħ íĮĲ
ëĲĲ ìĬµëĭĪëĭ¤
ì¡± ë°ľ
Ġmil k
Ġstand ing
17 7
STR ING
ì°¨ ë³Ħ
D river
ìķķ ë¥ĺ
Ġë¶Ģì§Ģ ëŁ°
Ġëĭµ ìĿĦ
Ġê°Ĳ ì§Ģ
Ġradi ation
an es
Ġp ixel
Ġëħ¸ ë¦ĩ
ĠìĿ¸ ê¶Į
Ġë´¤ ëįĺ
Ġl ens
Ġsim ultane
Ġëĸ¨ìĸ´ ì§Ī
B est
Ġë§Īì§Ģë§ī ìĹĲ
Ġëħ¹ ì°¨
ìĤ¬íķŃ ìĿĦ
ĠìĿ¼ ëĵ¤ìĿ´
intell ij
Ġëįķ ìĹĲ
ĠìĦ¤ëªħ ìĿ´
k ins
IO Exception
ast e
ser ies
Ġìŀ¬ íĺĦ
Ġìĺ¤ ë¥¼
Ġqu eries
ĠC lean
Ġì¶ľ ìłľ
íĶĦ ìĿĺ
íıŃ íı¬
Ġê°ģ ìŀĲìĿĺ
ĠìķĦë²Ħ ì§Ģê°Ģ
Ġplace holder
Ġíķľ êº¼ë²ĪìĹĲ
Ġì§ ¤
Ġì¢ĭìķĦ íķľëĭ¤
$ };
Ġth orough
Ġê³¼ ìĦ¸
mut able
Ġfil ters
H ub
Sp an
Ġpredict ions
ĠëĶĶ ìĬ¤íģ¬
ì§Ħ ì£¼
Ġincor por
Ġíķ´ ìĦ¤
Ġent ropy
ë³´ ëłĪ
íĿ¬ ê°Ģ
ë§Ī ìĬ¤íĦ°
à ¹
ĠíķĦìļĶ ëĬĶ
Ġê±· ê¸°
ĠìĪĺìĪĺ ë£Į
ĠìŀĲìĦ¸ ë¥¼
Ġíķľ ìĺ¥
erm an
Ġfood s
ëĭ¹ ìĿ¼
w a
Ġê¸Īìķ¡ ìĿĦ
ik es
cri bed
B IT
ìĽĢ ìĿĺ
Ġìł ¸
ĠìĨĮìŀ¬ ë¡ľ
op es
ìĪ «
Ġwor se
Ġë¨¹ìĿĦ ìĪĺ
íĪ¬ ë¥¼
Ġì§ĢìĹŃ ìĿĦ
ë µ
ul ous
ĠìŀĲìĭł ëĵ¤ìĿĺ
Ġmer ge
Ġë§Ľ ê³¼
" ],
ĠMed ical
ĠìĶ» ìĸ´
ìķĬ ê³ł
ĠL ay
s un
Ġíķĺ íĬ¸
ĠìĦ¸ ìļ°ê³ł
Ġtarget s
ĠëĤĺ ëŀĢíŀĪ
ìŀĪ ìĹĪìĸ´ìļĶ
ĠëĬĲëĤĮ ëıĦ
$ :
Ġle mma
olut e
ê¸Ī ìĨį
Ġmix ture
Ġun able
ĠêµŃ ë¬¼ìĿ´
ĠìĦł ë³Ħ
ì§Ĳ ìĿĦ
Ġìľł ëıħ
L ight
t frac
Ġë§Ī ë¥¸
ç ¬
Ġcert ificate
ê³µ ê³ł
Ġìŀħ ì§Ģ
ip p
Ġv i
Ġì¶ľ ë²Ķ
ëĵ¤ ìķĦ
íķĻëħĦ ëıĦ
ìĤ° ìĦ±
åĮ ĸ
% "
Ġë¯¸êµŃ ìĹĲìĦľ
Ġì»¨ íħĲì¸ł
Ġappoint ment
Null able
Ġindic ated
ĠìĥģíĻ© ìĿ´ëĭ¤
Ġì¹ľêµ¬ ìĻĢ
ëĵ¤ìĹĲê²Į ëıĦ
ve e
ĠìķĦ ì¤Į
o or
ëĥĲ ë©°
LO C
ĠW estern
ĠGu ide
Ġcheck s
íĻ ī
íĥĢ ì§Ģ
Ġëª© ìłģìĿĦ
Ġche ese
íĶĦë¡ľ ìłĿ
Ġë³´ê³ł ìĦľ
ëļľ ê»ĳ
ì°¨ ë¦¼
ĠíĻķì§Ħ ìŀĲ
êµ° ìĹĲ
ĠìĨį ëıĦë¥¼
p b
Ġìĭł ì°¨
ìķĦ ìī¬
ĠìķĦ íĭ°ìĬ¤íĬ¸
Ġstop ped
Ġë¸Į ë¦¬
ĠíĮĮ ê²¬
Ġë°© ìĺģ
åĪ Ĩ
Ġê°Ģ ë³´ê³ł
T w
Ġíķĺ êµ¬ìļĶ
å Ĵ
ĠìĪĺ ìĭł
Ġê±· ê³ł
Ġíĺ¸ ë¥´ëª¬
ĠìĥĿê°ģ íĸĪëįĺ
Ġê³µê²© ìĿĦ
ĠíıĲ ìĩĦ
ĠGe orge
b as
Ġpercent age
Ġë¬´ ëį¤
Ġ< -
Ġut ility
e a
ĠìĤ¬ëŀĳ ìĿĢ
ĠAr ts
Ġqu ote
ic ode
Ġì´ Ľ
fer ences
ëıĦ ë¦¬
Ġim possible
17 6
ë¯¸ ë¡ľ
Ġì´¬ìĺģ ìĿĦ
Ġë°©ì¹¨ ìĿ´ëĭ¤
Ġìĺģ ìŀħ
Ġinvest igation
Ġf ellow
Ġë³´ìĹ¬ ìĦľ
ì½Ķ ì½Ķ
ĠInd eed
ë¨¸ ë¦¬ë¥¼
ig gs
Ġ" ",
ĠìĿ¸ê³µ ì§ĢëĬ¥
vis ible
ë¿ ľ
Ġint ensity
od d
Ġê³ł ìłĦ
ëĭĪ ìĿĺ
)) \
ĠA ward
íĤ µ
u its
ìĦ ¹
Ġë¹Ħ ìľ¨ìĿ´
ì¢ħ ìĿĢ
ê³µê°Ħ ìĿ´
b our
ĠìĿ´ ë§ĪíĬ¸
ì¶© ëĤ¨
Execut ion
ëĵľë¦¬ ë©°
ë§Ī ìĭľ
Ġ ãĨį
Ġamount s
ìĿĺ ìłķë¶Ģ
valid ate
ation Token
Ġíķĺë£¨ ê°Ģ
ĠW i
au x
Const ant
ĠPh ot
ire ment
Ġintrodu ction
Ġc ub
ĠìĿ´ ìĿĺ
Ġìĥģ íĸ¥
ĠIn vest
ì¤ į
ĠíĻĺê²½ ìĹĲ
¹ ìĮĢ
Ġë¸Į ë¡ľ
her ent
^* $
Ġl ived
Ġ} }
l aw
Ġë¶Ģ ìłģ
> "
íı¬ ëıĻ
Ġìĭľíĸī íķľëĭ¤
Ġr u
sh al
pt on
orig in
ĠìĬ¤ ìĬ¹
ë§¤ ì¶ľ
E val
Ġìĸ´ íľĺ
íĻĶ íĻĺ
Ġê²°íĺ¼ ìĭĿ
Ġfl u
ê±´ ìľ¼ë¡ľ
ĠíĽĦ ìĹĲëıĦ
ìĤ¬ ìŀ¥ëĭĺ
Ġìĭ¸ ê²Į
Ġmult ip
ìĦ¸ ìĹ¬
ear s
Ġbel ief
ìĤ¬íļĮ ë³µì§Ģ
ĠìĹĨ ëıĦë¡Ŀ
Ġw itness
Ġë°Ķ ëĤĺëĤĺ
Ġìĭľ ëĮĢë¥¼
Ġknow ing
ë¯¸ ëĶĶ
act ivity
Ġê¸°ë³¸ ìľ¼ë¡ľ
Ġê³łë§Ī ìĽĮ
ìłĦ ìĽĲ
Ġcharacter istic
Ġident ical
vari able
ĠìķĪ ìĹĲëĬĶ
Ġìĸĳ íĺ¸
Ġë¶Ħëĵ¤ ìĿ´ëĿ¼ë©´
ê³Ħ ëıĻ
ĠìĿĺë¯¸ ë¡ľ
Ġì¹¨ íķ´
Ġìĭľ íĤ¬
sw arm
comm it
Ġu ps
DO M
Ġëĭ® ìĿĢ
ĠíĹĪ ìľĦ
ĠC P
íķľ ê°ķ
ìĽĶ ë§Ĳ
C ast
ëĭ¤ ë°ľ
Ġland scape
Ġdis p
N ative
íĺ¹ ìĿĢ
ĠëıĻ íĸī
ìĹ¬ëŁ¬ ê°Ģì§Ģ
ĠíĻĶ ë¥¼
Ġíķľì°¸ ìĿĦ
Ġëŀ Ģ
Ġre action
ï¼ Ī
Ġh ook
29 0
ĠCon dition
Ġíķľ ëĤĺëĿ¼
ĠìĿ´ëŁ° ê±°
ph ant
iv ation
ĠìĺĪ ë»¤
Ġì¹´íİĺ ìĹĲ
at ibility
ìª½ ìĿ´
ë³´ ìľł
__ _
Ġíİ¸ìĿĺ ìłĲ
ĠìłĪ ë¡ľ
ëĤĺ ëĪ
ëł¤ êµ¬ìļĶ
Ġìĸ´ ëķĮ
u et
All ow
Ġrecogn ized
Ġme at
äº Ķ
ĠìĪĺ ìĨĮ
Ġë¹Ħ ìľł
F act
u is
Ġì¶Ķì²ľ ëĵľë¦½ëĭĪëĭ¤
íĥ Ń
Ġì¹´ ëĵľë¥¼
íķľ ë³µ
Ġíģ¬ ëłĪ
A K
Ġaf ternoon
Ġorgan ic
8 50
str ict
ì¦Ŀ ìĿĢ
ĠëĤ¨ ë¶Ģ
Ġìĸ´ë¦°ìĿ´ ì§ĳ
ĠSc ott
p ag
Ġê» ´
ĠìĤ´ ê·ł
al ian
Ġb ike
Ġcan vas
Ġíħ ľ
ĠB Y
Ġdef ines
Ġê¸°ìĸµ ìĿĦ
Ġìĭ¬ íĻĶ
Ġì²ľ ìŀ¬
Ġcomm ands
ëģĦ ëŁ¬ìļ´
íĶĦ ë¦°
Ġdepend encies
ëĳĲ ìĤ°
Ġë²Ī ê±°
ìĦľ ìĦľ
ë²Ħ ëł¤
ĠR ight
ĠB efore
ĠìĽĲ ëĤ´
Ä ±
Ġ ^{
ĠëĤ´ ëł¸ëĭ¤
Ġìŀĳ ìķĦ
íĻį ëĮĢ
m ix
Ġìļ°ë¦¬ ì§ĳ
Ġìĭł ëĿ¼
ĠCons ider
Ġìŀĺ ìĸ´ìļ¸
ë¶Ħ ê³¼
ë³´ ìĭľëĬĶ
ĠM D
ìĸ´ ê¹¨
íĺĦ ìĿĺ
ì¦Ŀëªħ ìĦľ
Ġâĸ ¡
Ġë´¤ ìĸ´ìļĶ
Ġlet ters
ain e
ìĿ¸ ëł¥
ed u
ĠìĤ½ ìŀħ
Ġë°Ģ ê°Ģë£¨
!! !!
Ġmat ters
ĠT ra
Ġê°ľìĿ¸ ìłķë³´
ëľ ¬
Ġë¬¸ ëĵĿ
Com plete
ëĶ ´
ĠAs ia
Ġcop ies
Ġëĵľ ëłĪ
ĠìĿ´ ì§ĳ
C ONT
S creen
ìļķ ìĭ¤
ë§ĮìĽĲ ìĹĲ
Ġëĸ¨ìĸ´ ì§Ģ
ĠëĤĺëĪ Į
Ġì¤ĳ ê°ľ
re ce
Ġvac uum
Ġf ib
ĠL ie
Ġsympt oms
Ġë°ĺ íĻĺ
Ġfr ag
Ġì°¨ ë¡ľ
ĠìĤ¬ëŀĳ ìĹĲ
ëĲĺ ìĹĪìĸ´ìļĶ
Ġëħ¸ ë¬´
ëį ±
ĠìµľìłĢ ê°Ģ
Ġë¨¹ ìľ¼ë©´ìĦľ
$ _{
Ġden oted
os ed
Ġcirc uit
20 8
Ġê°Ļ ì§Ģ
Ġì¡° ì¹´
AT CH
ĠíĴ ĭ
ĠìĨĲ íĨ±
Ġëĥ Ī
Ġí Ĥ¬
çĽ ¸
ì§ĢìĹŃ ìĿĺ
Ġs ink
Ġli e
Ġh ide
CH AR
íıī ìĸĳ
d uration
ĠìĿ¼ íĸī
W arning
Ġì°¸ìĦĿ íķľ
ĠL E
Ġê°Ģ ê¸°ë¡ľ
Ġì´ Į
bs ite
ĠëĶĶìŀĲìĿ¸ ìľ¼ë¡ľ
Ġëª¨ìĸĳ ìĿĦ
è ı
ĠíĺĦ ê´Ģ
requ ency
g ood
ê± ·
PRO JECT
ĠëĤ ©ëĭĪëĭ¤
Ġas set
Ġê½ ģ
Ġreal ized
Ġì¹´íİĺ ìĹĲìĦľ
are st
Ġassum ptions
V R
ĠêµĲ ë¥ĺ
ë£¨ ìĤ´
íķ´ ë³Ģ
ê²Ģ ìĿĢ
element s
ìĨĮ ìĭĿ
ĠíĥĪ ëª¨
ë§¥ ìĬ¤
ëıĻ íĥĦ
Ġë©´ ìĹĲìĦľ
Ġì¦Ŀê°Ģ íķľ
åī į
Ġn amely
ë¬¸ ê³¼
ĠìķĪ ìĿĺ
face book
Ġê±° ë¶ģ
ìĥĿ íĥľ
el astic
Ġgener ating
aw ay
ë¦¬ íĦ°
ìĿ´ ë¡ł
Ġìŀĥ ìĿĢ
ìĿ¸ ì§Ģë¥¼
Ġë¶Ģ ë¥¸
ĠH uman
Object s
ĠM L
Ġent r
ì¤Ħ ìĿĦ
ëĪĦ êµ¬ëĤĺ
ĠíĥĢ ëĭ¹
ĠìĽĲ ìłķ
Ġë°Ģ íģ¬
Ġ\ "
Ġì¶ľ ìĥĿ
ëŃ ī
Ġì¶© ë¶ģ
Ġcon d
ĠíĨ ±
Ġê³łê°Ŀ ìĿĺ
Ġpain ting
con vert
Ġend point
Ġs ensor
ìķł ëĭĪ
method s
Ġscient ific
Input Stream
Ġë¸ĮëĿ¼ ì§Ī
oun ce
Ġìķ¼ ìĥĿ
ĠíĮ¨ ëŁ¬
ĠEn vironment
Ġplatform s
math op
ê¸¸ ìĿĢ
Ġ\ ]
at ile
ĠëıĦ ìĸ´
Ġë§ĪìĿĮ ëıĦ
åĲ į
Ġper missions
DE F
ëª¨ ëĵľ
ê·¸ ëŀ¬
m ond
ĠìĪ« ìŀĲ
? ^^
ĠG al
f all
âĶ ĥ
ĠëĬĺ ê³ł
Ġê³µ ì¤ĳ
ì§ĳ ì¤ĳ
ĠC T
Ġlog ic
Ġë¨¹ ê±°ë¦¬
Ġë§ī ê¸°
wild fly
Ġë¶Ģ íıī
Ġbre aking
ĠíĬ¹íŀĪ ëĤĺ
Ġbirth day
Ġresearch ers
t iny
ìĤ¬ëŀĳ íķĺëĬĶ
d ig
h us
comp are
Ġch ocolate
ĠJapan ese
ĠëĤ´ ë©´
ìĿ¼ ìĹĲëĬĶ
íĺ¸ ë¡ľ
íĴį ê¸°
ê²© ìľ¼ë¡ľ
Ġs ys
ĠëĪĦ ë¦´
G iven
Ġprinc ipal
Ġê±¸ ê³ł
G ame
ĠH osp
n m
Ġë¶Ļ ìŀ¡
Ġì²ł ëıĦ
ìķĦ ì¹´ëį°ë¯¸
ĠE conom
Ġs y
Ġredu ces
Ġì¢ħ ìĿ¼
ĠìĪĺ ìĭľ
M s
Ġê¸°ëĬ¥ ìĦ±
ĠëĳĲ ê·¼
B D
Ġë°©ë¬¸ ìĿĦ
ap is
" ].
íĽĦ ê¸°ë¥¼
[...]
